memory_initialization_radix=16;
memory_initialization_vector=
00FE,
00FB,
0000,
0002,
0001,
0004,
0002,
0001,
0001,
00FD,
00FA,
00FB,
00F9,
00F4,
00F9,
0000,
00FC,
00FF,
00FF,
00FF,
0001,
0004,
0004,
00FD,
00FD,
0000,
00FF,
00FF,
00FF,
0003,
00FF,
00FD,
00FE,
00FC,
00FD,
00FE,
0001,
0000,
00FF,
0001,
0001,
00FF,
00FB,
0004,
0004,
0002,
0003,
0005,
00FF,
00FD,
00FE,
00FB,
00F9,
00FC,
00FE,
00F9,
00FB,
00FC,
00FE,
0000,
00FE,
0006,
0002,
00FF,
00FE,
00FD,
0001,
0001,
00FB,
00FB,
00FE,
00FD,
0000,
00FB,
0001,
0000,
00FC,
00FE,
0001,
00FA,
00FE,
00FE,
0002,
0003,
0000,
0000,
0001,
0001,
0001,
0004,
000A,
000D,
0008,
0005,
0009,
0005,
00FE,
0000,
0002,
0000,
00FB,
00FC,
0000,
00FD,
00FD,
00FB,
00FE,
00FF,
0003,
0002,
00FF,
0004,
0005,
00FD,
0004,
0004,
00FE,
0001,
00FB,
0004,
0001,
0004,
0004,
0003,
0009,
0003,
0000,
00FF,
0000,
00FF,
0000,
00FF,
0003,
0003,
00FE,
0001,
00F8,
00F8,
0003,
00FB,
00FC,
0002,
0000,
0002,
00FF,
00FF,
0000,
00FD,
0000,
00FF,
00FF,
0006,
0001,
0005,
0004,
00F6,
0004,
0006,
00FD,
00FD,
0001,
00FC,
00FF,
00FE,
00FC,
0001,
0002,
0001,
0000,
00FD,
00FD,
00FD,
0001,
0005,
0001,
00FE,
0002,
00FD,
00FD,
0000,
0001,
0003,
0001,
0000,
0001,
00FF,
00FE,
00FD,
00FB,
00FF,
00FD,
0001,
00FC,
00F9,
00FF,
0001,
0001,
0005,
000B,
0026,
00F7,
0012,
0030,
00FA,
00F3,
00F9,
00F4,
00FB,
00FA,
0002,
0002,
00FE,
0005,
0003,
0002,
0007,
00FD,
00FC,
0001,
00F9,
00F9,
00FF,
00FC,
00FB,
0000,
0008,
0001,
00FA,
0003,
00FE,
00FC,
0001,
0000,
00FD,
0000,
00FE,
00FD,
0005,
0004,
00FF,
00FE,
00FC,
00FD,
00F7,
00FB,
00FB,
0001,
0007,
0003,
00FC,
00FB,
00FD,
00FB,
0001,
00FE,
00FD,
0004,
0000,
00F9,
0002,
00FF,
00F9,
00FA,
0000,
0003,
00FF,
0004,
0006,
0002,
0001,
0000,
00FE,
00FE,
0000,
00FC,
00FD,
00FD,
00FD,
00FC,
00FD,
0002,
0002,
00FD,
0001,
0003,
0002,
0009,
0006,
00FD,
00F6,
0004,
0001,
00F6,
00FD,
0001,
00FB,
00FD,
00FF,
00FB,
0001,
0000,
0004,
0000,
00FB,
0003,
00FD,
00FF,
0001,
00FF,
0000,
00FC,
0004,
00F9,
00F4,
0001,
0004,
0007,
0003,
0004,
0005,
00FB,
00FB,
00FB,
00F7,
00FB,
00FB,
00FC,
0001,
00FF,
00FF,
0000,
0003,
0001,
0001,
0000,
0002,
00FF,
00FC,
00FF,
0002,
00FE,
00FE,
00FF,
0003,
0002,
00FD,
00FF,
00FE,
00FE,
00FD,
00F9,
0000,
0000,
0001,
0009,
0007,
0002,
0003,
0005,
0001,
00FD,
00FF,
0003,
00FC,
0001,
0004,
00FE,
0002,
00FF,
00FF,
00FC,
00FE,
00F9,
00FC,
0003,
0000,
0007,
0004,
0004,
0007,
0003,
0002,
00FF,
00FD,
0000,
00FA,
00FF,
00FF,
0002,
0001,
0002,
0002,
0000,
0000,
0001,
0001,
00FE,
00FF,
0000,
0000,
0002,
0003,
00FF,
00FE,
00FE,
0002,
00FE,
0000,
00FF,
00FD,
00FE,
0001,
0000,
0001,
0001,
00FE,
00FE,
0001,
0001,
0002,
00FE,
00FD,
0001,
00FE,
00FE,
00FD,
00FC,
00FC,
00FE,
0000,
0001,
0003,
0004,
0003,
0000,
0002,
0002,
0000,
0003,
0001,
0002,
0002,
0001,
00FF,
00FE,
00FD,
00FB,
0002,
0001,
00FD,
00FC,
00FE,
00FE,
0001,
0002,
0000,
0003,
00FF,
0000,
00F9,
0002,
00FB,
00FC,
0007,
0003,
00FB,
0000,
0002,
00FC,
00FC,
00FD,
00FE,
00FE,
0001,
0002,
0005,
0005,
0005,
0007,
0006,
00FF,
00FD,
00FD,
0004,
0001,
0000,
00FE,
0001,
0002,
0000,
00FE,
00FF,
0003,
0004,
00FF,
0000,
00FA,
0001,
0000,
0004,
0003,
0000,
0004,
0001,
00F9,
00FA,
00FF,
00FC,
00FC,
00FF,
00FE,
00FD,
00FD,
00F3,
00ED,
00F4,
00FD,
00F6,
00FD,
0005,
0000,
000B,
0001,
00FD,
0003,
0002,
00FC,
00FF,
00FF,
00FF,
00FA,
00FF,
0005,
0000,
0000,
0002,
0002,
0003,
00FE,
0001,
00FC,
0000,
0001,
0001,
0004,
0001,
0000,
0002,
00FB,
0002,
0005,
0001,
0004,
0009,
0002,
00FE,
0005,
0001,
00F6,
001D,
000F,
00FB,
0016,
0008,
00E8,
00F2,
00EE,
0000,
0006,
0006,
00FE,
0000,
0002,
00FD,
00FF,
0002,
0003,
0000,
00FE,
0003,
0001,
0000,
0002,
0000,
0004,
0002,
0000,
0000,
0001,
0001,
00FF,
00FF,
0001,
0000,
0000,
00F8,
00FC,
00FD,
00FC,
00FD,
00FD,
00FF,
00FD,
00FB,
00F9,
00FE,
00FC,
0002,
0006,
0001,
0007,
0009,
0000,
0002,
0003,
0000,
0001,
00FF,
0002,
0005,
0000,
00FB,
00FF,
0002,
00FE,
0004,
0002,
0003,
0005,
0001,
00FB,
0003,
0006,
0000,
0003,
00FE,
00FD,
0000,
0000,
00FF,
0001,
0002,
0004,
0002,
0000,
0000,
0000,
00FE,
00FD,
00FD,
0004,
0002,
000A,
0004,
0004,
0007,
00FD,
0000,
0000,
0001,
0003,
0004,
0002,
0002,
0003,
0003,
0002,
0009,
0007,
00FE,
0003,
00FF,
00FD,
00FF,
0000,
0004,
0000,
00FE,
0001,
0000,
00FF,
0005,
0004,
0000,
0000,
0006,
00FF,
0001,
0002,
0000,
00FF,
00F8,
0000,
00FB,
0009,
0003,
00FD,
0000,
0000,
00FE,
00FE,
0003,
0004,
00FC,
00F8,
0007,
0003,
00F6,
0004,
00FE,
00F9,
00FC,
00FB,
00FD,
00FC,
00FE,
00FD,
00FC,
0000,
00FF,
0003,
0006,
00FE,
0002,
0002,
00FF,
0002,
0000,
0000,
0001,
0006,
0004,
0002,
0001,
00FF,
0002,
00FF,
00FD,
00FD,
00FD,
0002,
00FA,
00FB,
0005,
00FB,
0000,
0005,
00FE,
0004,
0004,
00FA,
0001,
00FC,
00FC,
0003,
00FC,
0002,
00FD,
00F7,
0001,
00FE,
00FA,
00FC,
00FA,
00FB,
0002,
0001,
00FF,
0000,
0001,
0003,
00FE,
00FD,
0001,
00F8,
00FD,
00FE,
00FF,
0006,
00FE,
0000,
0003,
00FD,
00FD,
0000,
00FE,
00FF,
00FF,
00FF,
0001,
0000,
00FD,
0002,
0000,
0002,
0002,
00FF,
0001,
0001,
00FD,
00FB,
0001,
0004,
0003,
0005,
0005,
0004,
0002,
0000,
0000,
0001,
0001,
0001,
0006,
0009,
0000,
0003,
0007,
0003,
0015,
0014,
000E,
0004,
00FD,
00FE,
00F7,
00F4,
00F4,
0001,
0005,
0001,
0003,
0003,
0005,
0003,
0003,
0000,
0001,
0007,
0004,
0005,
0005,
0003,
0005,
0004,
0005,
0005,
0009,
0000,
0008,
0007,
0001,
00FD,
0001,
0005,
00FE,
0000,
00FF,
00FA,
0002,
0002,
0000,
000B,
000B,
0000,
00FE,
0001,
0001,
0002,
0003,
00FE,
0000,
0002,
00FE,
00F9,
00FC,
0001,
00FE,
00FF,
00FB,
00F9,
00F9,
00FE,
0000,
0001,
0003,
0001,
0000,
0000,
00FE,
00FB,
0000,
00FF,
0001,
0000,
0003,
0000,
00FC,
0002,
0003,
0008,
0009,
00FF,
0001,
0004,
00FC,
00F7,
00F7,
00F4,
00FF,
00FC,
00FE,
0004,
0003,
0004,
0001,
00FC,
00FF,
0004,
0003,
0005,
00FD,
0004,
0002,
00FB,
0001,
00FF,
00FE,
0004,
0003,
00FB,
00FF,
0001,
00FF,
00FB,
00FE,
00FF,
00FF,
00FB,
0004,
0004,
0002,
00FC,
00FD,
00FF,
0004,
00FF,
0001,
00FF,
00FB,
0000,
00FE,
00FC,
00FF,
00FC,
00F6,
00F3,
00FE,
00FD,
00FC,
00FF,
0004,
0001,
0004,
0003,
00FD,
0001,
0001,
00FF,
00FD,
00FD,
00FF,
00FD,
0000,
0002,
0006,
0005,
0003,
0005,
0005,
0003,
00FB,
00F9,
00F8,
00FD,
00FC,
0000,
00FD,
00FD,
00FD,
00FF,
00FF,
0007,
0001,
0000,
0002,
0002,
0003,
0004,
0003,
0006,
0002,
0000,
0006,
0004,
00FB,
00FE,
00FF,
00FC,
00FC,
00FD,
00FD,
00F9,
00FB,
0003,
0000,
0000,
0000,
00FC,
00FF,
00FF,
00FC,
00FF,
0002,
0000,
0000,
0004,
00FD,
0006,
00FE,
00FC,
0002,
0005,
0003,
0005,
00FE,
0007,
0002,
0000,
00FE,
0000,
0000,
00FC,
00FF,
00F8,
0004,
0004,
00F8,
000B,
0006,
00F9,
00FE,
0000,
00FD,
0001,
0002,
0003,
0004,
0003,
0003,
0005,
0003,
0003,
00FF,
00FE,
0004,
00FF,
0000,
0004,
0000,
0002,
00F8,
0005,
000A,
00FF,
00FF,
0004,
00FF,
00FE,
00FA,
00FD,
00FE,
00FF,
0003,
0002,
0004,
00FD,
00FF,
0001,
00FE,
00F9,
00FB,
0000,
00FC,
00FE,
0000,
0000,
0001,
0000,
00FE,
0000,
00FB,
00FC,
00FE,
00FC,
00FA,
00FB,
0006,
0005,
0009,
00FF,
00FF,
0004,
00FF,
00F9,
0001,
0005,
0004,
0003,
00FF,
00FA,
00FC,
00FF,
00FF,
0003,
0001,
0001,
0006,
00FE,
0007,
0009,
00FF,
0007,
0002,
0002,
0003,
0004,
0001,
0001,
00FF,
0002,
0001,
00FF,
0000,
00F6,
00FB,
0001,
00F7,
00FB,
0008,
0005,
0006,
00FE,
0004,
0004,
0001,
000F,
0003,
0001,
000A,
0005,
00FF,
0002,
0000,
0001,
0004,
0005,
0001,
0009,
000B,
0008,
0009,
000B,
0003,
0003,
0005,
0002,
0001,
0003,
0003,
0003,
0002,
0001,
00FF,
00FF,
00FF,
00FC,
00FC,
0000,
00F7,
0000,
0001,
00FF,
0005,
0003,
0004,
0003,
00FC,
0001,
0003,
00FD,
0001,
0002,
00FF,
0001,
0002,
00FD,
0002,
00FE,
0002,
0006,
0004,
0000,
0000,
0000,
0005,
000C,
0004,
0001,
0000,
00FE,
00FD,
00F9,
00FD,
00FF,
00F9,
0001,
0000,
00FD,
0002,
0002,
0001,
0002,
0000,
00FD,
00FB,
0001,
0001,
00FF,
00FE,
00FE,
00FB,
00FA,
00FA,
00FE,
00F9,
00FE,
0001,
0001,
0003,
0002,
00F9,
00FA,
0001,
00FC,
0000,
0001,
0000,
00FF,
00FF,
0004,
0004,
0006,
0007,
0008,
0005,
0003,
0004,
00FF,
00FE,
0004,
0001,
0001,
0004,
0001,
0003,
0001,
00FD,
0000,
00FC,
00FE,
0000,
0002,
0008,
0004,
0004,
0009,
0005,
0000,
00FF,
0004,
0002,
0002,
0002,
0002,
00FF,
0006,
00FC,
0002,
0005,
00FD,
00FF,
0002,
00FC,
00FC,
00FF,
0000,
0005,
0000,
0001,
0005,
0002,
0005,
0004,
0001,
0000,
00FC,
00FC,
0000,
00FE,
00FE,
0000,
00FD,
00FF,
0005,
00FE,
0002,
0002,
00FC,
0001,
00FF,
00FC,
00FB,
00FF,
0003,
00FF,
0001,
0006,
0001,
0002,
0003,
0007,
0002,
00FC,
00FE,
00FB,
00FC,
00FE,
00FD,
0001,
0001,
00FF,
00FF,
0002,
00FD,
00FC,
00FF,
00FE,
0001,
0002,
0008,
0009,
0002,
0002,
0003,
0001,
0001,
0001,
00FD,
000B,
0008,
00FD,
0007,
0004,
00FF,
0003,
00FE,
00FF,
00FF,
0001,
00FD,
00FF,
00FF,
00FD,
00FF,
00FE,
00FF,
0008,
0002,
0003,
0009,
0003,
00FF,
00FF,
0000,
0006,
0007,
0003,
0002,
0005,
00FF,
00FD,
00FE,
00FD,
00FE,
00FA,
0000,
00FE,
00FF,
0002,
0006,
0005,
0004,
0003,
0003,
0003,
0000,
00F9,
00F9,
0004,
00FB,
00FD,
00FF,
00FA,
00F9,
0004,
0003,
00FF,
00FC,
0001,
00FD,
0000,
00F8,
00FA,
000C,
0004,
00FE,
0009,
0003,
0000,
0001,
0002,
00FE,
0002,
00FF,
00FC,
0001,
0000,
00FD,
0004,
0002,
00FF,
0002,
0004,
0001,
0000,
000A,
0002,
0001,
0000,
00FE,
0002,
0000,
0000,
0004,
0001,
0002,
00F9,
00FA,
0002,
0000,
0001,
0002,
0001,
0006,
0001,
0005,
0003,
00FD,
0004,
0003,
00FC,
0001,
0003,
00FE,
0001,
0000,
0000,
0001,
0001,
0001,
00FC,
00FC,
00FD,
00FC,
0002,
00FF,
0003,
00FE,
00FE,
0003,
0004,
0004,
000A,
0007,
0006,
0004,
0002,
0002,
00FE,
00FB,
00FE,
0003,
0000,
00FF,
00FE,
0000,
0002,
00FE,
00FF,
00FF,
00FF,
00FE,
0000,
0001,
0000,
00FF,
0003,
0002,
0000,
0002,
0006,
00FE,
00FB,
00FE,
00F9,
00F6,
00F4,
00F5,
00FE,
00FF,
0001,
0000,
0003,
0003,
0000,
0002,
00FF,
0004,
00FF,
0001,
0001,
00FF,
0001,
00FB,
00FE,
00FE,
00FD,
0003,
0004,
0004,
00FD,
00FF,
0000,
00FC,
00FF,
0000,
00FE,
00FB,
0004,
0003,
00FD,
00FD,
00FF,
0005,
0001,
0002,
0001,
0002,
0001,
0002,
00FD,
0002,
0000,
00FE,
00FD,
0002,
0002,
0003,
0002,
0003,
0003,
0001,
0002,
00FF,
00FE,
0002,
00FE,
0000,
0001,
00FF,
0000,
0001,
00FF,
00FF,
00FF,
00F8,
00FD,
0001,
00FE,
0001,
0001,
0001,
00FE,
00FF,
0006,
00FF,
00FF,
000B,
0003,
00FC,
00FE,
00FD,
0002,
0003,
0000,
0004,
0002,
0000,
0002,
00FF,
0002,
0007,
0009,
0008,
00FC,
00FD,
00FD,
0001,
00FE,
0000,
0005,
0002,
0000,
0003,
0002,
0003,
000B,
0007,
0000,
0002,
00FE,
0001,
0006,
0004,
0003,
0005,
0004,
0007,
00FF,
00FE,
0001,
0000,
0005,
0004,
00F9,
00F9,
0001,
00FB,
00F8,
0000,
00FF,
00FD,
0004,
0003,
0000,
00FD,
0006,
00FC,
00FD,
0002,
0001,
00FC,
00FA,
00FB,
00FA,
00FB,
0002,
00FC,
00FE,
0001,
0000,
0001,
0003,
0000,
0002,
0005,
0005,
0000,
00FF,
0002,
0000,
00FF,
0001,
00FF,
0000,
0000,
00FE,
00FF,
0002,
0002,
00FC,
0009,
0002,
0003,
0009,
0002,
0007,
0006,
00FF,
00F9,
00FF,
00FE,
00FA,
0000,
0000,
00FF,
0001,
00FE,
00FD,
00F8,
00FA,
00F6,
00F9,
00FE,
00FD,
0001,
0002,
00FF,
0000,
0002,
00FE,
00FD,
0006,
00FF,
0004,
0000,
00FE,
00FF,
00FD,
0001,
0003,
00FF,
0005,
0002,
0003,
00FC,
0001,
0003,
00FC,
0000,
0004,
0000,
0004,
0005,
0006,
000A,
0003,
00FF,
0000,
00F8,
00F7,
00F7,
0007,
0008,
0003,
00FB,
0002,
00FC,
00FF,
00FC,
00FA,
00E7,
00EE,
0009,
00FA,
00F9,
0007,
000D,
0009,
0009,
00FD,
00FC,
00FF,
00FF,
00FC,
0003,
00F9,
00F9,
0000,
0002,
00FD,
0001,
0003,
0004,
0002,
0003,
0002,
0004,
0004,
0002,
0004,
00FF,
000B,
000A,
00F6,
00FF,
00FF,
00FA,
00F9,
00FD,
00FE,
0002,
0002,
00FE,
00FF,
0001,
0004,
0001,
0001,
0003,
0001,
00FF,
0005,
0004,
0000,
000C,
0011,
0005,
000E,
0018,
0009,
00FF,
0003,
0002,
0000,
00FA,
00FD,
0002,
0002,
0002,
00FF,
0000,
00FE,
0007,
0001,
00FC,
0006,
0003,
0000,
0001,
0005,
0005,
0004,
0002,
00FE,
0000,
0006,
0000,
0001,
0004,
0002,
00FE,
00FD,
00FB,
0002,
00FD,
0002,
00FF,
0002,
0001,
00F7,
00FC,
0001,
0002,
0003,
0004,
0002,
0001,
0002,
00FB,
000D,
0004,
00FB,
0005,
00FD,
0001,
00FC,
00F9,
00FE,
00FA,
00FA,
0001,
0000,
0001,
0001,
0001,
000B,
00FD,
00FF,
0002,
00FD,
0000,
0003,
00FF,
0000,
0000,
0002,
0000,
0001,
0000,
00F7,
0000,
0004,
00FB,
0002,
00FA,
00FF,
0002,
0005,
0006,
0006,
0000,
0004,
00F9,
0001,
0007,
0001,
00FA,
0001,
0000,
00FD,
0002,
00FE,
000E,
0017,
0004,
000F,
0011,
00FA,
00FC,
00F4,
00FB,
00FF,
0001,
0007,
0006,
0009,
0008,
0001,
0007,
0002,
0008,
0002,
0004,
00FF,
00FF,
0000,
00FA,
00FE,
00FD,
00FA,
0000,
00FF,
00FF,
00FE,
00FB,
00FE,
00FA,
00F9,
0001,
00FF,
0000,
0002,
0006,
0009,
00FB,
0000,
0005,
0002,
00FD,
00FB,
0002,
00FF,
00F7,
0001,
0003,
0002,
0000,
00FF,
0003,
0000,
0007,
0008,
00FD,
0000,
0002,
00FD,
0000,
0000,
0001,
0001,
00FF,
0001,
0002,
0002,
00F5,
00F2,
00F2,
00FC,
00F5,
00F7,
0007,
0003,
0002,
00F9,
00F8,
00FA,
00FD,
00F8,
00FA,
00FA,
00F7,
00F9,
0003,
000A,
0003,
00FD,
0002,
00FD,
00F9,
00FA,
00FB,
0001,
0003,
00FE,
0001,
0002,
0001,
00FC,
00FC,
00FD,
0000,
00F8,
00FA,
0005,
0001,
0000,
0007,
0007,
0005,
0007,
000B,
0009,
0006,
0004,
00FF,
00FD,
00FB,
00FE,
0001,
0000,
00FF,
00FE,
0001,
0001,
00FE,
0003,
0003,
0000,
00FF,
0002,
0001,
00FD,
00FF,
0000,
0001,
0001,
0006,
0000,
00F7,
0002,
00FF,
00FC,
00FD,
00FE,
0000,
0003,
0001,
0003,
0000,
00FD,
0000,
0005,
0002,
0005,
00FE,
00FD,
00FB,
0000,
00FF,
00FD,
0002,
0006,
00FF,
0000,
0010,
00FC,
00F9,
00F9,
00EF,
00F6,
00F3,
00F0,
00FC,
00FF,
00FF,
00FF,
00FE,
00FC,
0006,
0003,
0001,
00FB,
0002,
00FD,
00FF,
00FF,
00FE,
0003,
0000,
00FB,
00F9,
00F9,
00FF,
00FC,
0001,
0004,
00F9,
00FE,
0002,
0002,
0005,
0007,
0006,
0009,
0005,
0006,
0009,
0002,
0004,
0006,
0001,
0002,
0004,
0001,
0001,
0002,
0003,
00FE,
0001,
0003,
00FE,
0008,
0008,
00FC,
0000,
00FF,
00FE,
0001,
0000,
00FF,
00FE,
00FE,
0002,
00FF,
00FD,
00F6,
00F8,
00FC,
00FA,
00FC,
0002,
0001,
0001,
0007,
00FD,
00FD,
00FF,
00FE,
00FD,
00FF,
00FD,
00FB,
00FD,
00FF,
0001,
0002,
0004,
0006,
0003,
00FF,
00FD,
0000,
00F4,
0002,
0001,
00FE,
0000,
00FF,
0000,
00FF,
00FF,
0004,
0001,
0001,
0003,
00FF,
0001,
00FF,
00FD,
0001,
00FD,
00F9,
00FB,
00FC,
00F9,
00F7,
0000,
00FD,
00FA,
00FF,
00FF,
00FA,
00FF,
00FE,
00FF,
00FC,
00FA,
0002,
00FD,
00FD,
00FD,
0000,
0002,
0001,
0005,
0009,
0007,
00FE,
00FD,
0000,
00FF,
00FE,
0000,
0001,
0000,
00FD,
0005,
0004,
00FE,
00FE,
00FB,
00FD,
00FE,
00FE,
00FE,
00FE,
000A,
00FF,
0001,
0009,
00FC,
0001,
0001,
0001,
00FE,
0001,
00FD,
0000,
0002,
00FE,
00FE,
0002,
0002,
00FF,
00F9,
00FE,
00FE,
0003,
0001,
0000,
0000,
00FC,
0006,
0004,
0004,
0004,
0004,
0007,
00FE,
00FF,
00FE,
00FA,
0000,
0005,
0001,
0005,
0004,
0008,
0005,
0000,
00F9,
00F7,
0003,
00FB,
00F1,
00FF,
0007,
00FE,
0006,
00FF,
00FF,
0002,
0001,
0002,
0004,
0004,
0002,
0005,
000A,
0005,
0007,
00FF,
00FC,
0002,
00FF,
0000,
0003,
0000,
00FE,
0002,
00FF,
00FD,
0002,
00FF,
0001,
0003,
0001,
0000,
00FC,
0000,
0002,
0001,
0002,
0003,
0003,
00FD,
0000,
0000,
00FE,
0001,
00FD,
00FC,
00FB,
00FC,
0000,
0005,
0004,
0003,
0006,
0007,
0002,
00FE,
00FB,
0000,
0000,
00F9,
0002,
0002,
00FF,
0003,
0001,
0001,
00FB,
00FD,
00FD,
0002,
0006,
0006,
00FD,
0001,
0000,
00F9,
00F9,
00FD,
00FE,
00FE,
0001,
0000,
0002,
0001,
00EC,
00F0,
00EC,
00F9,
00FA,
00F5,
00FE,
00FC,
00F9,
0001,
00FF,
0001,
0005,
0004,
0005,
0001,
00FD,
00FF,
00FD,
00F6,
00FC,
00FC,
00FC,
00FF,
0004,
0004,
0004,
00F9,
00F8,
00FA,
00FE,
00FD,
00FA,
0000,
00FD,
00FB,
0000,
00FC,
00FE,
00FF,
00FC,
0000,
00FD,
00F8,
00FF,
0006,
0010,
0005,
0003,
0008,
00FC,
00F9,
00F7,
00F8,
00FE,
00F6,
00FC,
00FC,
00F8,
00FA,
00FE,
0000,
0000,
0001,
0008,
000A,
00FD,
00FF,
0006,
0003,
0000,
0005,
00F8,
00F6,
0000,
00FE,
00FE,
0008,
0003,
0002,
0007,
00FC,
00FB,
00FE,
0001,
0003,
0000,
00FB,
0000,
00FE,
000C,
0002,
00FC,
0000,
00FF,
00FD,
00FF,
00FC,
00FA,
0001,
00FF,
00FC,
00FF,
00FB,
00FB,
0001,
00FD,
00FD,
0003,
0004,
00FD,
0000,
0006,
00FF,
00FB,
00FB,
00FD,
00FD,
00FF,
0002,
00F6,
00F5,
00FA,
0001,
00FE,
0000,
00FE,
00F8,
00FC,
0000,
0000,
00FD,
00FD,
0004,
0001,
0003,
0009,
0000,
00FD,
00FF,
00FD,
00FD,
00FA,
00FB,
0000,
00FD,
00FC,
0000,
00FB,
00FB,
0003,
0000,
0000,
00FF,
0001,
00F9,
0006,
000B,
0001,
0002,
0002,
0000,
00FF,
00FE,
00FF,
00FE,
00FD,
00FC,
0003,
0000,
00FD,
0005,
0000,
0004,
0000,
0003,
00FE,
00FB,
0006,
00F7,
00FD,
00FC,
00FD,
00FF,
0002,
0001,
00FD,
0003,
0001,
00FE,
00FD,
00FB,
00FF,
0000,
0002,
0002,
0005,
0003,
00FC,
00FC,
0001,
00FC,
0002,
0002,
0006,
0007,
0005,
00FA,
00F1,
0002,
0001,
00FD,
0004,
0009,
000D,
000A,
00FE,
00FE,
00FC,
00FC,
00FE,
00FE,
00FD,
0000,
00FC,
0001,
0003,
00FC,
0001,
0007,
0000,
00FE,
0001,
0000,
00FF,
00FE,
0004,
00F8,
00FD,
0007,
00F5,
00F9,
00FE,
0000,
0000,
0003,
00FD,
00FC,
0001,
00FE,
0000,
0006,
00FD,
00F9,
00FF,
0007,
0008,
0005,
000B,
000A,
00FE,
0001,
0002,
0003,
0000,
00FD,
0001,
0006,
0006,
0008,
0001,
00FC,
0002,
00FD,
00F8,
0002,
00FD,
00FE,
0002,
00FF,
00FE,
00FD,
00FA,
00FB,
0000,
00FE,
0001,
0009,
0006,
0005,
0003,
0004,
00FC,
0000,
0005,
0000,
0001,
00F5,
00EF,
00F7,
00F2,
00E9,
00F2,
00FE,
00F6,
00F9,
00FE,
00FF,
0000,
00FC,
00FD,
0001,
00FE,
00FE,
0000,
00FC,
0000,
0001,
00FF,
00FF,
0004,
0003,
0002,
0009,
0008,
000D,
00FA,
000A,
0005,
00F6,
0006,
0001,
00FC,
0001,
0000,
0003,
0001,
0000,
0007,
00FF,
0003,
0001,
0006,
0002,
0003,
0003,
0005,
0003,
00FD,
0004,
00FD,
00FF,
0006,
0000,
0004,
0006,
0001,
0001,
0001,
00FB,
0005,
0005,
0004,
0002,
0002,
0003,
0001,
0002,
0003,
0005,
00FD,
0004,
00FF,
00FA,
0003,
0002,
0000,
0004,
0004,
000A,
0001,
0000,
00FE,
00FC,
00FE,
00FC,
00FC,
0001,
00FE,
0001,
00FD,
0000,
0003,
00FD,
0003,
00FE,
0000,
00F9,
00F8,
0003,
00FB,
00FA,
0007,
0005,
0003,
0001,
0003,
0000,
0008,
0008,
0000,
0002,
0001,
00FB,
00FC,
00F5,
00FA,
0001,
00FB,
00FF,
0006,
0004,
0008,
0002,
00FD,
0001,
00FE,
00FE,
0002,
0000,
0004,
0006,
00FF,
00FF,
00FE,
0002,
0005,
0001,
00FD,
00FD,
00FA,
00FE,
00FD,
00FC,
00FB,
0001,
0004,
00FF,
0006,
0006,
0001,
0000,
0001,
00FD,
00FF,
0001,
0003,
0001,
0001,
00FA,
00FC,
0004,
0004,
0006,
0004,
00FF,
0000,
0000,
0000,
00FF,
00FD,
0004,
0002,
00FC,
00FF,
0003,
0002,
00FA,
00F8,
00FA,
0004,
0001,
0002,
000B,
0007,
0004,
0005,
0003,
0002,
0002,
0001,
0001,
0000,
0001,
0000,
0002,
0000,
0000,
00FD,
00F4,
00FA,
0002,
00FE,
0000,
00FE,
0001,
00FE,
0002,
0000,
0001,
0002,
0000,
0001,
00FD,
00FB,
0006,
0004,
00FD,
0000,
0001,
0003,
00FF,
00FE,
00FD,
00FF,
00FE,
0000,
0003,
0001,
0006,
0004,
0005,
0006,
0003,
0000,
00FF,
0002,
0001,
00FD,
00FE,
00EF,
00F1,
00F1,
00F3,
00F5,
00F3,
00EF,
00EF,
00EC,
0002,
0002,
0006,
0001,
00FF,
0001,
0002,
00FF,
00FB,
0006,
0009,
0005,
000C,
000C,
0000,
0005,
0003,
00FD,
0003,
0007,
0007,
0001,
0001,
0002,
0001,
00FE,
0001,
0008,
000A,
0006,
000D,
000E,
0006,
0009,
0003,
0002,
0000,
0000,
0000,
0003,
0004,
0003,
00FB,
0001,
0008,
00FF,
0001,
0001,
00FF,
0003,
0005,
00FC,
00FB,
00FD,
0007,
000F,
0008,
0001,
0007,
0004,
0003,
0007,
0008,
0006,
0001,
0003,
0004,
00FD,
00FB,
0002,
00FE,
00FF,
0000,
00FF,
00FE,
0003,
0008,
0009,
0001,
0002,
0006,
0000,
0004,
0001,
0000,
0003,
0003,
00FD,
00FE,
0002,
00FC,
0007,
00FE,
00FD,
0005,
00FB,
00FD,
00F8,
00FB,
0002,
00F8,
00FB,
0002,
00F4,
00F3,
0001,
00FC,
00FB,
0000,
0001,
0000,
0006,
0005,
00FF,
0004,
0003,
0000,
000C,
0014,
000C,
0001,
0003,
0002,
00FB,
00FE,
00FC,
0004,
00FE,
0003,
00FB,
00F4,
00F9,
00FE,
00FB,
00FB,
0003,
0003,
0004,
0001,
0000,
0002,
0000,
0000,
0000,
0002,
00FC,
00FB,
000C,
0004,
00F7,
0006,
0001,
00FB,
000E,
001A,
0009,
0008,
000D,
00FB,
00F7,
00F1,
00ED,
00FD,
00FC,
00FB,
00FE,
00FD,
00FB,
0005,
0000,
00FD,
0003,
0000,
00FC,
0003,
00FE,
00FB,
00FF,
00FF,
00FB,
00FF,
00FB,
0001,
00FC,
00F8,
00FE,
00FE,
00FB,
00FF,
0000,
0005,
0003,
0000,
0008,
0006,
0005,
0007,
0006,
0005,
0004,
0001,
0001,
00FF,
0000,
00FE,
00FE,
00FF,
0003,
0003,
00FD,
0005,
0004,
0001,
00FC,
00FF,
0002,
00F8,
00FA,
00FB,
00FF,
0009,
0009,
0000,
0008,
0003,
0001,
0004,
0004,
00FD,
0001,
0003,
00FE,
0002,
0000,
00FE,
00FA,
00FC,
00FE,
00FE,
0003,
00FF,
0004,
0004,
00FD,
0003,
0006,
00FA,
00FC,
0002,
00F7,
00F8,
00FE,
00FE,
0002,
0000,
0000,
0005,
0000,
00FF,
0004,
0002,
000A,
000E,
0004,
000B,
0013,
0006,
00FD,
00FF,
00FD,
00FB,
00F8,
00FE,
0002,
00FB,
00FD,
00FF,
00FB,
0000,
0004,
0005,
0002,
00FE,
0001,
0000,
0008,
0008,
000A,
0005,
0008,
0001,
0000,
0000,
00FF,
0000,
00FE,
0004,
00FE,
00FE,
0001,
00FE,
00FE,
00FE,
0003,
0001,
0001,
0001,
0005,
0001,
0002,
0006,
0004,
00FF,
0003,
0004,
00FE,
00FD,
00FA,
0006,
0010,
0000,
00FD,
0005,
00FC,
0003,
00F9,
00F8,
0005,
00FD,
00F6,
0006,
0003,
00FC,
0002,
0002,
00FF,
0001,
0001,
0000,
0004,
0005,
0002,
0001,
0008,
00FD,
0005,
0002,
00FC,
0005,
0000,
00FA,
00FB,
0005,
0005,
00FE,
0005,
0006,
0003,
0000,
00FE,
00FD,
0003,
0001,
00FD,
00FE,
0004,
00FC,
00FC,
0002,
0001,
0004,
0002,
00FC,
00FF,
00FE,
00FF,
0000,
00FF,
0002,
0003,
0002,
0000,
0003,
00FF,
00FF,
0001,
00FB,
00FC,
00FA,
00F8,
00FD,
00FE,
0001,
00FD,
00FC,
00FB,
00FE,
0007,
000C,
00FC,
0003,
0006,
00FB,
0000,
00FF,
00F8,
0006,
0006,
00F9,
0032,
0029,
00F9,
000D,
0007,
0000,
0005,
0003,
00FD,
0002,
0002,
00FF,
0003,
0002,
0001,
0005,
0002,
0002,
0001,
00FD,
00FA,
00FB,
00FA,
00EE,
00ED,
00FB,
00EF,
00F1,
00FD,
00FC,
0000,
0005,
0010,
00EF,
00F8,
000F,
00F9,
00F8,
0004,
000D,
000B,
00FE,
0001,
0002,
00FD,
00FC,
00FF,
00FF,
0002,
0002,
00FF,
00FA,
00FA,
0004,
0002,
00FE,
0000,
0005,
0003,
00FA,
00FA,
00FD,
00F8,
00F9,
00FF,
00FC,
00FE,
00FF,
0009,
0005,
00FB,
0003,
0003,
00FC,
00FD,
00FD,
00F9,
0002,
00FF,
0001,
00FE,
00FA,
00FB,
0001,
00FA,
0001;