memory_initialization_radix=16;
memory_initialization_vector=
00FF,
0003,
00FB,
00EC,
00ED,
00F3,
0001,
0018,
0017,
0006,
00FA,
0003,
0007,
00FB,
00E9,
00ED,
00F6,
0008,
001E,
0015,
0002,
00F5,
0003,
0008,
00F8,
00E4,
00EB,
00F6,
000F,
0027,
0014,
00FD,
00EE,
0006,
0008,
00F7,
00E3,
00EC,
00FD,
0018,
002B,
0013,
00F9,
00ED,
0008,
0007,
00F4,
00E2,
00EE,
0004,
001D,
0029,
000D,
00F2,
00EB,
0007,
0004,
00F2,
00E2,
00EF,
0007,
001F,
0026,
0006,
00EE,
00EE,
0005,
0004,
00F0,
00E3,
00F2,
0008,
001C,
001F,
0001,
00EE,
00EF,
0005,
0003,
00F2,
00E8,
00F8,
000A,
001B,
0018,
0000,
00EF,
00F1,
0003,
0001,
00F2,
00EF,
00FE,
000E,
0019,
0015,
00FE,
00F1,
00F4,
0001,
00FF,
00F5,
00F7,
0005,
000F,
0015,
0011,
00FD,
00F4,
00F7,
00FD,
00FC,
00F2,
00F7,
0008,
0011,
0014,
000F,
00FD,
00F5,
00F7,
00F6,
00EE,
00E8,
00EC,
00F5,
0005,
0012,
0019,
0017,
0012,
000A,
00ED,
00E2,
00DC,
00E3,
00F3,
0006,
0016,
0021,
0021,
001B,
0012,
00E6,
00DA,
00D5,
00DF,
00F2,
0008,
0018,
0024,
0026,
0020,
0016,
00E7,
00DD,
00DC,
00E5,
00F3,
0006,
0014,
001F,
001F,
001C,
0012,
00EE,
00EA,
00E9,
00F0,
00F8,
0001,
000B,
0013,
0012,
0011,
000B,
00FD,
00FD,
00FC,
00FE,
00FD,
00FE,
00FE,
0001,
0002,
0001,
00FF,
000B,
000F,
000F,
000B,
0003,
00FB,
00F4,
00EF,
00F0,
00F2,
00F5,
0013,
001B,
001D,
0017,
0009,
00FA,
00EB,
00E2,
00DF,
00E6,
00EC,
001A,
0024,
0026,
001C,
000B,
00F7,
00E6,
00DA,
00D7,
00E0,
00EC,
001A,
0024,
0025,
001C,
000B,
00F8,
00E7,
00DB,
00D9,
00E3,
00EE,
0015,
001C,
001D,
0018,
000A,
00FB,
00ED,
00E5,
00E4,
00EA,
00F4,
0008,
000C,
0012,
001B,
0020,
0020,
0019,
0015,
000E,
0009,
0001,
0010,
0014,
001B,
001D,
001E,
0017,
000B,
0001,
00FC,
00FA,
00F4,
0019,
001A,
001D,
001A,
0014,
0006,
00FB,
00F3,
00F3,
00F2,
00F0,
001B,
0019,
0014,
000B,
00FE,
00F0,
00E8,
00E3,
00E6,
00EA,
00EE,
0014,
000C,
0005,
00F7,
00E8,
00E0,
00D9,
00D7,
00E0,
00ED,
00F7,
0009,
00FB,
00F0,
00E5,
00DD,
00D4,
00D3,
00D7,
00E7,
00F8,
0005,
00FC,
00EE,
00E3,
00DD,
00D6,
00D5,
00DB,
00EB,
00FF,
000A,
0014,
00F3,
00EB,
00E3,
00E0,
00E1,
00E7,
00F3,
0003,
0012,
0016,
0019,
00F0,
00EE,
00EF,
00F5,
00F8,
0000,
0007,
0011,
001A,
0019,
0017,
00F5,
00F9,
00FE,
0005,
000A,
000D,
0013,
001B,
001B,
0015,
0013,
0003,
000A,
000F,
0013,
0017,
0019,
001D,
001D,
0018,
0012,
000B,
00FD,
00F9,
00F8,
00F7,
00F1,
00EF,
00ED,
00EB,
00EE,
00F2,
00F6,
0002,
00FB,
00FA,
00F8,
00F3,
00EF,
00EE,
00EC,
00EC,
00F1,
00F3,
0004,
00FE,
00FE,
00FC,
00F5,
00F0,
00EC,
00EC,
00EC,
00EF,
00EE,
0007,
0003,
0004,
0000,
00F9,
00F3,
00EC,
00EA,
00EC,
00EF,
00ED,
000E,
000B,
000A,
0007,
00FE,
00F7,
00EF,
00EB,
00EC,
00EE,
00ED,
0011,
0011,
0012,
000D,
0004,
00F9,
00F0,
00EB,
00EB,
00ED,
00EC,
0014,
0015,
0018,
0012,
0008,
00FC,
00F2,
00EB,
00E8,
00EA,
00E9,
0018,
001B,
001D,
0017,
000D,
0001,
00F7,
00EF,
00EB,
00EA,
00E9,
0017,
001B,
001F,
0018,
000D,
0005,
00FB,
00F3,
00EE,
00ED,
00ED,
0016,
0017,
0019,
0015,
000C,
0006,
00FE,
00F7,
00F2,
00F0,
00F0,
0012,
0015,
0017,
0015,
0010,
0008,
0002,
00FC,
00F9,
00F6,
00F5,
0004,
0008,
0009,
000C,
000B,
0009,
0006,
0001,
00FB,
00F6,
00F3,
00FD,
0002,
0005,
0009,
000B,
000D,
000C,
000A,
0003,
00FD,
00F8,
00F9,
00FF,
0002,
0006,
000B,
000F,
0011,
0011,
000C,
0005,
00FE,
00F7,
00FC,
00FD,
0000,
0007,
000E,
0013,
0015,
0014,
000C,
0005,
00F6,
00F9,
00F8,
00F9,
0000,
0007,
000F,
0016,
0017,
0011,
000A,
00F7,
00F8,
00F4,
00F5,
00F8,
00FE,
0007,
000F,
0013,
0011,
000E,
00F9,
00F8,
00F5,
00F2,
00F4,
00F9,
00FF,
0006,
000C,
000C,
0010,
00F8,
00F9,
00F4,
00F2,
00F0,
00F3,
00F8,
00FD,
0003,
0008,
000D,
00FB,
00F9,
00F5,
00F2,
00F0,
00F1,
00F5,
00FA,
00FF,
0003,
0009,
00FE,
00FB,
00F8,
00F3,
00F1,
00F2,
00F4,
00F6,
00FA,
00FE,
0004,
0001,
00FE,
00FA,
00F8,
00F4,
00F3,
00F2,
00F2,
00F3,
00F6,
00FC,
00F0,
00F1,
00F1,
00EF,
00F1,
00F5,
00FB,
0000,
0006,
000A,
0010,
00F1,
00F3,
00F0,
00F0,
00F2,
00F6,
00FB,
0001,
0008,
000E,
0012,
00F0,
00F2,
00EF,
00EE,
00F1,
00F6,
00FE,
0007,
000F,
0014,
0016,
00EF,
00EF,
00EA,
00EA,
00EE,
00F4,
00FE,
000A,
0015,
0018,
0018,
00ED,
00EE,
00EB,
00EB,
00EE,
00F5,
0001,
000F,
0019,
001D,
001B,
00EB,
00ED,
00EB,
00EC,
00F0,
00F8,
0004,
0012,
001E,
001F,
001C,
00ED,
00EE,
00EB,
00EB,
00EF,
00FA,
0007,
0015,
001E,
0020,
001B,
00EE,
00F0,
00EE,
00ED,
00F3,
00FE,
0009,
0014,
001D,
001B,
0018,
00F1,
00F1,
00F2,
00F2,
00F7,
00FF,
0008,
0012,
0018,
0017,
0014,
00F2,
00F5,
00F6,
00F9,
00FD,
0002,
000A,
0010,
0014,
0013,
0012,
00F1,
00F7,
00F9,
00FB,
00FF,
0005,
000A,
000E,
0011,
0012,
0013,
00F9,
00F2,
00F2,
00F2,
00F7,
00FD,
0005,
0007,
0007,
0007,
0007,
00F8,
00F2,
00F3,
00F7,
0000,
0009,
000E,
0010,
000E,
000A,
0005,
00F8,
00F8,
00FE,
0006,
0011,
0019,
001C,
0018,
0010,
0007,
0000,
0000,
0001,
000B,
0016,
001F,
0020,
001C,
0013,
0008,
00FE,
00F8,
0008,
000D,
0017,
0020,
0022,
001B,
0010,
0002,
00FA,
00F5,
00F1,
000D,
0011,
0018,
001B,
0016,
000A,
00FD,
00F1,
00EC,
00ED,
00EF,
000D,
000F,
000F,
000B,
0002,
00F8,
00EF,
00E9,
00E9,
00EE,
00F5,
0009,
0009,
0006,
00FE,
00F3,
00ED,
00E8,
00E9,
00EE,
00F5,
00FB,
0003,
0000,
00FD,
00F4,
00EB,
00E8,
00E8,
00EE,
00F6,
00FD,
0001,
00FE,
00FB,
00F5,
00F1,
00EE,
00ED,
00F1,
00F8,
00FF,
0005,
0009,
00F8,
00F6,
00F4,
00F3,
00F3,
00F5,
00FB,
0002,
0005,
000A,
000A,
00F7,
00FD,
0001,
0005,
0009,
000B,
000C,
000E,
0012,
0014,
0016,
00F4,
00F9,
00FB,
00FF,
0003,
0006,
0007,
0009,
000E,
0011,
0016,
00F2,
00F9,
00F9,
00FC,
0002,
0008,
0008,
000A,
0010,
0014,
0019,
00F0,
00F7,
00F7,
00F8,
00FE,
0005,
0008,
0009,
0010,
0015,
001C,
00EF,
00F3,
00F2,
00F2,
00F8,
0000,
0007,
000A,
000F,
0015,
001D,
00EE,
00F2,
00F0,
00EF,
00F2,
00FD,
0007,
000B,
0011,
0013,
001B,
00ED,
00F0,
00EE,
00EE,
00F2,
00FA,
0004,
000A,
0010,
0015,
001B,
00ED,
00F0,
00EF,
00EC,
00F1,
00F8,
0002,
0004,
000A,
000D,
0016,
00F0,
00F2,
00F0,
00EE,
00F2,
00F7,
00FF,
0001,
0007,
0007,
0010,
00F3,
00F4,
00F3,
00F3,
00F4,
00FA,
00FF,
0002,
0005,
0007,
000D,
00F2,
00F3,
00F0,
00F0,
00F1,
00F5,
00F9,
00F9,
00FF,
0003,
000A,
0001,
00FE,
00FC,
00FE,
0001,
0002,
00FF,
00FD,
00FF,
0001,
0000,
00FE,
0004,
0002,
00FB,
00FD,
0000,
0003,
0003,
00FD,
00FE,
0001,
00FB,
00FD,
0004,
0004,
0000,
00FF,
00FE,
0002,
0002,
00FF,
00FC,
0001,
0000,
00FA,
00FE,
00FD,
00FF,
0003,
0005,
0004,
0001,
0000,
00FE,
0006,
0009,
0006,
00F9,
00F0,
00EF,
00FF,
000A,
0007,
0000,
0000,
00F8,
00FE,
0015,
001C,
000C,
00F3,
00E3,
00F0,
0005,
0002,
0008,
0000,
00EB,
00ED,
000F,
0021,
0021,
000B,
00EA,
00EB,
00FC,
0000,
000D,
0007,
00E6,
00E1,
00F7,
0008,
0020,
0019,
00FC,
00F1,
00FC,
00FE,
0012,
0010,
00F3,
00ED,
00ED,
00F1,
000A,
0014,
0001,
00FD,
00F8,
00FB,
000F,
000F,
0001,
0001,
00F8,
00F2,
00FE,
0008,
0002,
00FF,
00F9,
00F8,
0004,
0005,
0001,
0003,
0002,
00FC,
00FC,
00F8,
00FF,
0006,
0006,
0007,
00FD,
00F8,
00F8,
00F8,
00F5,
00F5,
00FC,
0004,
000B,
0014,
0017,
000B,
0004,
00FF,
00FB,
00F9,
00F6,
0004,
000B,
0018,
0021,
0024,
001C,
0010,
0005,
00FD,
00FC,
00F7,
0006,
0015,
0024,
002F,
0032,
0029,
0018,
000B,
0003,
00FC,
00F8,
000B,
001B,
0029,
0031,
0038,
0034,
0024,
0012,
0007,
00FF,
00FA,
000D,
001D,
002B,
002D,
002D,
002F,
0024,
0015,
0007,
00FF,
00FB,
000A,
001A,
0028,
0031,
002A,
0025,
0019,
000E,
0006,
0001,
00FC,
0007,
0012,
0019,
0024,
0028,
0022,
0019,
0007,
00FC,
00FA,
00F8,
00FC,
0006,
000D,
0011,
0017,
0018,
0015,
0008,
00F9,
00F3,
00F2,
00F8,
0001,
0006,
0003,
0008,
0009,
0007,
0002,
00FA,
00F3,
00ED,
00F1,
00F7,
00FD,
0000,
00FF,
00FC,
00FC,
00F9,
00F2,
00F0,
00EA,
0006,
0002,
0002,
0000,
0000,
00FC,
00FB,
00FF,
0000,
00FF,
00FE,
0002,
00FF,
00FF,
00FE,
00FF,
00FD,
00FB,
00FC,
00FE,
00FD,
00FE,
00FF,
0000,
0000,
0000,
0000,
00FD,
00FC,
00FD,
00FD,
00FD,
00FC,
0000,
0000,
0000,
00FF,
0000,
00FE,
00FD,
00FC,
00FD,
00FD,
00FC,
0001,
0000,
0000,
00FF,
0001,
0000,
00FF,
00FD,
00FF,
00FF,
00FF,
0002,
0001,
00FF,
00FF,
0000,
00FF,
0001,
00FE,
00FE,
0000,
00FE,
0001,
0001,
0001,
0000,
0000,
0000,
0002,
00FF,
00FF,
00FF,
00FF,
0004,
0002,
0002,
0000,
0002,
0002,
0003,
00FF,
00FF,
00FF,
0000,
0003,
0005,
0003,
0001,
0002,
0001,
0002,
0002,
0001,
00FF,
0001,
0004,
0003,
0004,
0002,
0002,
0002,
0001,
0002,
0003,
0001,
0001,
0006,
0005,
0004,
0005,
0005,
0004,
0005,
0004,
0004,
0000,
0004,
00F5,
00F7,
00FB,
00F7,
00FB,
0010,
001B,
0010,
0002,
00FA,
00F8,
00FA,
00F8,
00FB,
00F5,
00F2,
0006,
0019,
0014,
0007,
00FC,
00F6,
00FF,
00FB,
00FD,
00F6,
00EB,
00FB,
001B,
001A,
000B,
00FF,
00F8,
0001,
00FE,
0000,
00FC,
00E9,
00ED,
0013,
001F,
0011,
0001,
00F9,
0002,
00FF,
00FF,
00FE,
00EB,
00E1,
0005,
001E,
0017,
0007,
00FF,
0006,
00FE,
00FF,
0000,
00F0,
00DD,
00F4,
0017,
001C,
0011,
0007,
0002,
0001,
0001,
0001,
00F5,
00DC,
00E4,
0006,
001B,
0016,
000B,
0002,
0002,
0000,
0002,
00FD,
00DF,
00DE,
00F9,
0011,
0016,
0011,
0002,
0002,
0000,
0001,
0004,
00EA,
00DD,
00F1,
000A,
0014,
0012,
0004,
0003,
00FE,
00FE,
0004,
00F4,
00E4,
00EE,
0003,
000F,
0014,
0002,
0005,
0000,
00FD,
0003,
00F9,
00EA,
00EB,
00FB,
000B,
0011,
00F9,
00FA,
00FA,
00F9,
00FA,
00FB,
00F9,
00F8,
00F9,
00F9,
00F8,
0000,
00FF,
00FE,
00FB,
00F9,
00F8,
00F6,
00F6,
00F8,
00F9,
00FA,
0003,
0001,
00FF,
00FB,
00F7,
00F4,
00F3,
00F3,
00F6,
00FA,
00FE,
0001,
0002,
0001,
00FE,
00FB,
00F9,
00F6,
00F4,
00F8,
00FD,
0002,
0001,
0002,
0002,
0001,
0001,
00FF,
00FD,
00FC,
00FD,
0001,
0004,
00FC,
00FF,
0004,
0004,
0006,
0005,
0005,
0004,
0003,
0002,
0003,
00FE,
00FF,
0000,
0003,
0006,
0009,
000D,
000B,
0007,
0005,
0003,
00FF,
0000,
0000,
0002,
0005,
000B,
000F,
000E,
000B,
0007,
0004,
0002,
0000,
00FF,
0000,
0002,
0005,
000B,
000C,
000A,
0005,
0003,
0006,
0004,
0001,
0001,
0000,
0003,
0005,
0008,
0006,
0004,
0003,
0009,
0006,
0005,
0002,
0001,
00FE,
0001,
0002,
0001,
0002,
0004,
00FD,
00FE,
0006,
000D,
0012,
0011,
0007,
00FB,
00F2,
00EF,
00F3,
00F9,
00F6,
00FD,
0009,
0017,
001D,
0018,
000A,
00FD,
00F6,
00F8,
00F7,
00ED,
00EB,
00F6,
0008,
0018,
001E,
0017,
000A,
0001,
00FE,
00FD,
00EC,
00DF,
00E0,
00F0,
0004,
0013,
0017,
0012,
000D,
0007,
0009,
00F5,
00DF,
00D7,
00DE,
00ED,
0001,
000C,
000F,
0010,
000C,
0016,
0007,
00ED,
00DC,
00D8,
00DF,
00EE,
00FB,
0002,
0007,
0009,
001F,
0018,
0003,
00EC,
00E1,
00E0,
00E6,
00F1,
00F9,
00FD,
0001,
001D,
0024,
0018,
0004,
00F5,
00EC,
00EB,
00EF,
00F5,
00F9,
00FB,
000E,
0020,
0023,
0017,
0006,
00FC,
00F8,
00F9,
00F9,
00F8,
00F8,
00FC,
000B,
001A,
001C,
0011,
0009,
0005,
0004,
0003,
00FE,
00FA,
00EE,
00FA,
0009,
0014,
0010,
000C,
000E,
000B,
0008,
0005,
00FF,
0003,
0005,
0002,
0006,
0007,
00F9,
00F1,
00F7,
00FD,
0001,
0000,
0000,
0007,
0005,
0003,
0007,
00FD,
00F1,
00F6,
00FD,
0000,
0000,
00FE,
0006,
0006,
0004,
0009,
0003,
00F4,
00F4,
00FC,
0002,
0001,
00FA,
0007,
0009,
0003,
0007,
0008,
00F8,
00F2,
00F9,
0000,
0001,
00F9,
0004,
0008,
0002,
0006,
000A,
00FF,
00F4,
00F8,
00FE,
0001,
00F5,
0001,
000A,
0004,
0002,
0009,
0004,
00F6,
00F6,
00FD,
0002,
00F7,
00FC,
000D,
0007,
0001,
0007,
0007,
00F9,
00F7,
00FC,
0001,
00F9,
00F7,
000B,
0007,
00FE,
0005,
000A,
00FE,
00F6,
00FB,
00FF,
00FB,
00F5,
0005,
000A,
0000,
0000,
0008,
0002,
00F8,
00F9,
00FD,
00FD,
00F8,
0000,
0009,
0002,
0002,
0009,
0005,
00FA,
00F9,
00FD,
00FE,
00F7,
00FD,
0009,
0005,
0001,
0004,
0007,
00FE,
00F9,
00FB,
00FA,
00F8,
00F8,
00F8,
00FA,
00FB,
00FC,
00FB,
00FB,
00F9,
00F8,
00FC,
00FB,
00FB,
00FC,
00FD,
0000,
00FF,
00FF,
0002,
00FE,
00FB,
00FD,
00FF,
00FD,
00FF,
00FE,
0001,
0002,
0001,
0003,
0000,
00FC,
00FC,
00FF,
0002,
0001,
0003,
0004,
0005,
0005,
0004,
0000,
00FC,
00F9,
00FE,
0002,
0002,
0005,
000A,
000A,
0009,
0005,
0000,
00FC,
00F9,
00FD,
0001,
0001,
0006,
000E,
0011,
000F,
0008,
0001,
00FA,
00F8,
00FE,
00FF,
0002,
0007,
000D,
0012,
0013,
000A,
0002,
00FB,
00FA,
00FD,
00FF,
0000,
0005,
0009,
000E,
0012,
000E,
0005,
00F8,
00FD,
00FF,
00FF,
00FF,
0002,
0006,
000A,
000C,
0009,
0004,
00F8,
00FE,
00FF,
00FE,
00FE,
0000,
0000,
0003,
0004,
0005,
0001,
00F9,
00FC,
00FC,
00FE,
00FA,
00FA,
00FB,
00FA,
00FA,
00FB,
00FA,
00F6,
0006,
0008,
0009,
000D,
0012,
0018,
001B,
0018,
000E,
0007,
0005,
0000,
0003,
0004,
0008,
000D,
0015,
001A,
001A,
0012,
000A,
0005,
00FC,
00FF,
0000,
0002,
0009,
0011,
001B,
001C,
0017,
000F,
000A,
00F7,
00FB,
00FB,
00FB,
0001,
000A,
0015,
001C,
0019,
0012,
000D,
00F3,
00F8,
00F7,
00F5,
00F7,
0000,
000A,
0016,
0019,
0015,
0010,
00F2,
00F5,
00F2,
00F0,
00F1,
00F5,
00FE,
000A,
0013,
0014,
0013,
00F1,
00F4,
00F2,
00EE,
00EE,
00EF,
00F4,
0001,
000C,
0011,
0012,
00F1,
00F4,
00F3,
00EF,
00ED,
00EA,
00EE,
00F8,
0005,
000B,
000F,
00F3,
00F5,
00F3,
00F0,
00EC,
00E9,
00EB,
00F3,
00FC,
0004,
000B,
00F7,
00F9,
00F8,
00F5,
00F0,
00EB,
00EB,
00F1,
00F8,
00FE,
0005,
00F8,
00F9,
00F8,
00F5,
00EF,
00EB,
00E7,
00EA,
00EF,
00F6,
00FD,
00FA,
00FF,
0005,
0007,
0003,
00FF,
00FF,
0000,
0004,
0006,
0008,
00F7,
00FB,
0002,
0007,
0005,
0002,
00FF,
00FF,
0002,
0004,
0006,
00F8,
00F8,
00FE,
0006,
000A,
0007,
0002,
00FF,
00FD,
0000,
0003,
00F7,
00F2,
00F9,
0006,
0012,
0011,
0009,
00FF,
00F9,
00F8,
00FE,
00F6,
00ED,
00F2,
0004,
0017,
001C,
0011,
0000,
00F6,
00F3,
00F7,
00F2,
00E8,
00EC,
0001,
001A,
0026,
001A,
0004,
00F4,
00F0,
00F3,
00EE,
00E4,
00E8,
00FD,
001B,
002C,
0021,
0009,
00F5,
00EF,
00F2,
00EC,
00E3,
00E8,
00FC,
0016,
0029,
0022,
000D,
00F9,
00F0,
00F2,
00ED,
00E8,
00EE,
00FD,
0011,
001F,
001B,
000C,
00FD,
00F3,
00F5,
00F0,
00EF,
00F6,
0001,
000C,
0014,
0012,
0008,
00FE,
00F9,
00F9,
00F4,
00F8,
00FE,
0003,
0007,
000A,
000A,
0006,
00FF,
00FC,
00FC,
00FD,
00FF,
0004,
000A,
000D,
0010,
000E,
000C,
000C,
0009,
0002,
0001,
0003,
0008,
000A,
000D,
000D,
000A,
0006,
0006,
0005,
00FD,
0006,
0007,
000C,
000E,
000F,
000D,
000A,
0007,
0005,
0005,
00FD,
0008,
000B,
000E,
0010,
0010,
000C,
0007,
0003,
0003,
0001,
00FA,
000C,
000C,
000E,
000E,
000B,
0005,
00FD,
00FB,
00FB,
00FD,
00F9,
000C,
000B,
000D,
0009,
0003,
00FA,
00F6,
00F4,
00F8,
00F9,
00F7,
0009,
0008,
0009,
0003,
00FA,
00F3,
00EF,
00F3,
00F7,
00F8,
00F8,
0007,
0004,
0005,
00FD,
00F3,
00EF,
00EE,
00F2,
00F5,
00F6,
00F6,
0004,
0002,
0000,
00FA,
00F1,
00ED,
00EC,
00F2,
00F6,
00F8,
00FB,
0002,
00FE,
00FD,
00F7,
00F1,
00F0,
00F2,
00F4,
00F9,
00FC,
00FF,
00F9,
00F8,
00F6,
00F1,
00F0,
00F1,
00F4,
00F9,
00FD,
0000,
0001,
000A,
0003,
00FD,
00F8,
00F4,
00F0,
00F0,
00F0,
00EF,
00F2,
00F3,
000E,
0007,
0002,
00FE,
00F8,
00F3,
00F2,
00F1,
00F0,
00F3,
00F4,
0013,
000C,
0007,
0002,
00FC,
00F7,
00F4,
00F1,
00EF,
00F1,
00F2,
0014,
000F,
000B,
0005,
00FE,
00F7,
00F5,
00F1,
00F0,
00F1,
00F0,
0016,
0014,
000F,
0009,
00FF,
00F7,
00F6,
00F2,
00EF,
00EF,
00EE,
0016,
0014,
0013,
000D,
0002,
00F8,
00F4,
00F2,
00F0,
00F1,
00ED,
0015,
0016,
0016,
0011,
0008,
00FD,
00F7,
00F3,
00F2,
00F2,
00EE,
0012,
0014,
0015,
0013,
000B,
0002,
00FC,
00F6,
00F3,
00F3,
00EF,
000E,
0010,
0014,
0012,
000D,
0006,
0000,
00FC,
00F8,
00F7,
00F2,
000D,
000D,
0011,
0011,
000E,
000B,
0007,
0001,
00FD,
00FA,
00F4,
000C,
000D,
0010,
0013,
0011,
000E,
000C,
0007,
0003,
00FD,
00F7,
00FA,
00FC,
00FE,
0000,
0008,
000C,
000D,
000A,
0007,
0005,
00FF,
00F8,
00FA,
00FD,
0001,
000A,
0014,
001C,
001D,
0018,
0010,
0003,
00F6,
00F6,
00F9,
00FC,
0008,
0016,
0023,
002B,
0027,
0019,
0007,
00F3,
00F3,
00F3,
00F7,
0002,
0015,
0025,
0030,
002F,
001F,
000B,
00F0,
00F1,
00F0,
00F3,
00FB,
000C,
001D,
002A,
002B,
001E,
000C,
00F1,
00F0,
00F0,
00F1,
00F6,
0004,
000F,
001B,
001F,
0018,
0009,
00F2,
00F1,
00EF,
00EE,
00F3,
00FC,
0004,
000B,
0010,
000E,
0005,
00F2,
00EF,
00ED,
00EC,
00F0,
00F4,
00F8,
00FB,
00FF,
0002,
00FF,
00F3,
00EE,
00EE,
00EC,
00EE,
00F0,
00F2,
00F5,
00F8,
00FD,
00FC,
00F2,
00F0,
00EE,
00EC,
00EF,
00F0,
00F1,
00F3,
00F6,
00FA,
00FA,
00F5,
00F2,
00F1,
00EF,
00F1,
00F2,
00F2,
00F2,
00F6,
00F9,
00FA,
0001,
00FD,
00FE,
0000,
0002,
0008,
0010,
0011,
0004,
00F7,
00F6,
0000,
00FC,
00FC,
00FE,
00FF,
0008,
000D,
000D,
00FC,
00F1,
00F8,
00FF,
00FB,
00FD,
00FD,
0003,
000F,
0014,
000B,
00F3,
00F0,
00FD,
0000,
00FB,
00FD,
0001,
0008,
0016,
0017,
0004,
00EA,
00F1,
0000,
0000,
00FB,
00FD,
0004,
000E,
0019,
0013,
00F9,
00E4,
00F1,
0003,
0000,
00FE,
00FE,
0007,
0015,
001A,
000D,
00EF,
00DE,
00F4,
0004,
0001,
00FD,
00FF,
0009,
0016,
0017,
0003,
00E7,
00DE,
00F9,
0006,
0000,
00FC,
0000,
000B,
0015,
0010,
00F9,
00E4,
00E7,
00FF,
0006,
0000,
00FD,
0002,
000B,
0012,
0008,
00F3,
00E6,
00F0,
0002,
0005,
0001,
00FE,
0002,
000B,
000D,
0002,
00F3,
00EE,
00F7,
0003,
0002,
0003,
00FE,
0004,
000B,
000B,
00FB,
00F1,
00F0,
00F7,
0000,
0000,
0001,
00FF,
00FF,
00FF,
0000,
00FF,
00FE,
00FF,
00FF,
00FF,
00FF,
0001,
0001,
0000,
00FF,
00FF,
00FE,
00FE,
00FE,
00FE,
00FE,
00FE,
0001,
0000,
00FF,
00FF,
00FF,
00FE,
00FE,
00FE,
00FE,
0000,
00FE,
0001,
00FF,
00FF,
00FF,
0000,
00FD,
00FE,
00FF,
00FF,
00FE,
00FE,
0002,
00FF,
0000,
00FF,
0000,
00FD,
00FE,
00FD,
00FF,
00FE,
00FE,
0003,
0000,
0000,
0000,
0000,
00FE,
00FD,
00FF,
00FF,
00FF,
00FF,
0002,
00FF,
00FF,
00FF,
00FF,
00FF,
00FF,
0001,
0000,
00FF,
0000,
0002,
00FE,
00FE,
00FF,
00FF,
00FE,
00FF,
0002,
0000,
00FF,
0000,
0004,
0000,
0000,
0001,
0000,
0000,
00FF,
0003,
0001,
0000,
0001,
0003,
0001,
0000,
0001,
0000,
00FF,
0000,
0002,
0001,
0000,
0001,
0005,
0002,
0001,
0001,
0001,
0001,
0002,
0002,
0002,
0000,
0002,
00FD,
00F9,
00F6,
00F4,
00F6,
00F7,
00F8,
00FA,
00FC,
00FE,
0001,
00F9,
00F8,
00F6,
00F6,
00F7,
00F9,
00FC,
00FE,
0001,
0001,
0005,
00F6,
00F4,
00F2,
00F3,
00F7,
00F9,
00FD,
00FE,
0003,
0002,
0006,
00F0,
00F0,
00F0,
00F2,
00F5,
00F8,
00FD,
00FF,
0004,
0003,
000A,
00EF,
00EE,
00F0,
00F3,
00F7,
00FC,
0001,
0003,
0008,
0007,
000D,
00EE,
00F0,
00F0,
00F6,
00FC,
0002,
0004,
0008,
000A,
0008,
000E,
00EF,
00F5,
00F6,
00FC,
0002,
0007,
0009,
000A,
000A,
0008,
000E,
00F0,
00F9,
00FE,
0003,
0007,
000A,
000A,
000A,
000A,
0008,
000C,
00F5,
00FE,
0004,
000A,
000A,
000B,
0008,
0007,
0008,
0003,
0006,
00F9,
0000,
0003,
0009,
0009,
0007,
0006,
0005,
0004,
0004,
0006,
00FF,
0008,
000D,
000E,
000E,
000C,
000A,
0009,
0008,
0005,
0006,
00FF,
00FE,
00FE,
00FD,
00FC,
00F9,
00FD,
00FD,
00FE,
0001,
0003,
00FF,
00FE,
0000,
0001,
0003,
0002,
00FF,
00FF,
00FF,
0001,
0003,
00FE,
00FC,
0001,
0009,
000D,
000A,
0005,
0000,
00FE,
00FF,
0002,
00FD,
00FE,
0005,
000F,
0017,
0012,
000A,
0003,
00FE,
00FF,
0002,
00FF,
00FF,
0007,
0010,
0018,
0012,
000B,
0003,
00FF,
0000,
0003,
0001,
0001,
0004,
0009,
000E,
000C,
0008,
0002,
0000,
0000,
0003,
0002,
0002,
0002,
0002,
0005,
0005,
0004,
0002,
0001,
0000,
0003,
0002,
0001,
0002,
0000,
00FE,
00FE,
0001,
0001,
0001,
0001,
0002,
0001,
0000,
0001,
00FF,
00FE,
00FC,
0000,
0001,
0000,
0001,
0001,
0002,
0000,
0000,
0001,
0001,
00FF,
0001,
0002,
0001,
0001,
0002,
00FE,
00FE,
00FF,
00FE,
00FF,
00FF,
0000,
0003,
0000,
0000,
0000,
0019,
0007,
00FA,
00F6,
00F6,
00FA,
00FD,
00FE,
0000,
0001,
00FE,
001B,
000B,
00FD,
00F4,
00F5,
00FA,
0000,
0000,
0000,
0003,
0000,
001B,
000F,
00FC,
00F0,
00EE,
00F6,
00FF,
00FF,
0000,
0001,
0002,
001B,
0014,
0001,
00F0,
00EB,
00F1,
00FC,
00FC,
00FF,
0002,
0002,
001A,
0017,
0008,
00F6,
00E9,
00ED,
00FB,
00FE,
00FE,
0002,
0003,
0016,
0015,
000B,
00FA,
00EB,
00EA,
00F7,
00FC,
00FD,
0001,
0003,
0011,
0014,
000D,
00FF,
00EF,
00EA,
00F6,
00F9,
00FC,
0000,
0003,
000D,
0012,
000E,
0005,
00F6,
00ED,
00F4,
00FA,
00FC,
0000,
0001,
0009,
0010,
000E,
0008,
00FE,
00F3,
00F5,
00FB,
00FC,
00FF,
0000,
0007,
000A,
0009,
0007,
0001,
00F8,
00F9,
00FB,
00FB,
00FC,
00FD,
000A,
000C,
000B,
000B,
0008,
00FF,
00FB,
00FA,
00F9,
00FA,
00F9,
0005,
0008,
0003,
0000,
00FF,
0000,
0000,
00FE,
0000,
00FF,
00FE,
0004,
0005,
0002,
0000,
00FF,
00FF,
00FF,
0000,
0000,
0000,
00FF,
0004,
0004,
0003,
0001,
0000,
0000,
0000,
0000,
0001,
00FF,
0000,
0004,
0003,
0002,
0000,
00FF,
00FD,
00FC,
0000,
0000,
00FF,
0000,
0004,
0003,
0000,
0002,
00FE,
00FC,
00FD,
0000,
0000,
0000,
00FF,
0004,
0003,
0001,
0001,
00FE,
00FD,
00FD,
0000,
00FF,
00FF,
00FF,
0002,
0003,
0001,
0000,
00FF,
00FE,
00FE,
00FF,
0000,
0000,
00FF,
0003,
0003,
0002,
00FF,
00FE,
00FE,
00FE,
0002,
0000,
0000,
00FF,
0000,
0004,
0003,
0000,
0000,
00FF,
0000,
0000,
0001,
0000,
0000,
0001,
0003,
0002,
00FF,
00FE,
0000,
00FF,
00FF,
0000,
00FF,
00FF,
00FE,
0002,
00FF,
00FE,
00FD,
00FF,
00FD,
00FD,
00FF,
00FF,
00FF,
000F,
0013,
0019,
001A,
0018,
0013,
0010,
000D,
000D,
000D,
000A,
0015,
0021,
0029,
0028,
001D,
0013,
000A,
0005,
0005,
0004,
0002,
0015,
0022,
002C,
002A,
001C,
000C,
0003,
00FC,
00FC,
00FD,
00FD,
000D,
001A,
0021,
001F,
0013,
0005,
00FB,
00F7,
00F8,
00FA,
00F9,
0004,
0009,
000C,
000C,
0006,
00FE,
00F9,
00F6,
00F7,
00F9,
00F9,
00FD,
00FC,
00F9,
00F7,
00F6,
00F7,
00F9,
00F9,
00FB,
00FD,
00FB,
00F9,
00F4,
00ED,
00E8,
00E9,
00EF,
00F6,
00FB,
00FF,
0000,
00FD,
00F3,
00ED,
00E7,
00E3,
00E5,
00EC,
00F3,
00FA,
00FF,
0001,
00FE,
00F2,
00EC,
00E7,
00E6,
00E7,
00EC,
00F3,
00F9,
00FE,
00FE,
00FD,
00F0,
00ED,
00EB,
00EB,
00EC,
00F0,
00F5,
00FA,
00FC,
00FC,
00FA,
00EF,
00EF,
00EE,
00EF,
00F0,
00F3,
00F5,
00F9,
00FA,
00F8,
00F5,
00FC,
0004,
000E,
0016,
0016,
0011,
000A,
0003,
0001,
00FF,
0002,
00F1,
00F2,
00FA,
0005,
000F,
0015,
0010,
000A,
0006,
0002,
0003,
00F2,
00EC,
00E9,
00F2,
0001,
0012,
0015,
000F,
000A,
0006,
0007,
00FD,
00EE,
00DD,
00D6,
00E4,
00FA,
000C,
000E,
000B,
0008,
000A,
000E,
0000,
00EF,
00D7,
00CE,
00DA,
00F2,
0002,
0006,
0005,
000A,
0015,
0010,
000B,
00F5,
00DB,
00D2,
00DD,
00F0,
00FB,
00FE,
0001,
0010,
0011,
001A,
0014,
0000,
00EC,
00E4,
00E9,
00F1,
00F9,
00FB,
0009,
0009,
0011,
0018,
0012,
0006,
00FC,
00F4,
00F3,
00F6,
00F8,
0003,
0005,
0007,
000F,
0011,
000C,
0007,
0002,
00FE,
00FD,
00F9,
00FF,
00FF,
0004,
0008,
000B,
000B,
0006,
0006,
0002,
00FE,
00FB,
00FB,
00FC,
0000,
0003,
0008,
000B,
000A,
0008,
0008,
0004,
0001,
0001,
0002,
0002,
0004,
0005,
0007,
0005,
0005,
0004,
0002,
0005,
0000,
0000,
0002,
0000,
0000,
0005,
0003,
0003,
0004,
0004,
0004,
00FD,
00FF,
00FF,
0002,
00FE,
0002,
0003,
00FF,
00FF,
0005,
0007,
00FE,
00FE,
00FE,
00FF,
00FF,
0002,
0004,
0000,
00FD,
0000,
0005,
00FE,
00FF,
00FE,
00FD,
00FC,
0000,
0004,
0003,
0002,
0000,
0004,
00FD,
00FF,
00FF,
00FE,
00FA,
00FC,
00FF,
0004,
0000,
0001,
0004,
00FF,
00FF,
00FF,
00FF,
00FC,
00FA,
00FA,
0000,
00FF,
00FF,
0003,
00FF,
0000,
0000,
0002,
0000,
00FD,
00FA,
00FD,
0000,
0000,
0000,
00FF,
0001,
0000,
0002,
0001,
00FF,
00FC,
00FC,
00FF,
00FF,
00FF,
00FE,
0002,
0002,
0001,
0000,
0002,
00FF,
00FE,
00FD,
0000,
00FF,
00FE,
0000,
0001,
0001,
0000,
0002,
00FF,
00FD,
00FD,
00FF,
00FF,
00F6,
00F8,
00F9,
00F9,
00F9,
00F8,
00F9,
00F8,
00F8,
00F6,
00F7,
00F6,
00F8,
00F7,
00F8,
00F6,
00F7,
00F8,
00F8,
00F8,
00F8,
00F9,
00F6,
00F7,
00F7,
00F6,
00F6,
00F5,
00F7,
00F9,
00F9,
00FB,
00FB,
00F7,
00F7,
00F7,
00F6,
00F6,
00F7,
00F7,
00FA,
00FB,
00FC,
00FE,
00F9,
00F8,
00F8,
00F9,
00F8,
00FA,
00FA,
00FC,
00FB,
00FE,
0000,
00FC,
00FC,
00FB,
00FB,
00FC,
00FB,
00FD,
00FE,
00FF,
0001,
0002,
00FE,
00FF,
00FF,
0000,
0001,
0001,
0001,
0001,
0002,
0002,
0004,
0001,
0002,
0003,
0005,
0007,
0006,
0007,
0005,
0004,
0005,
0005,
0004,
0005,
0009,
000A,
000B,
000B,
000A,
0007,
0007,
0005,
0006,
0007,
0009,
000B,
000E,
000F,
000F,
000D,
000B,
000A,
0009,
000A,
000A,
000B,
000C,
000F,
000F,
000E,
000E,
000D,
000B,
000A,
000A,
00F8,
00FC,
0002,
0008,
000E,
0011,
0011,
000B,
0005,
00FE,
00F6,
00FB,
00FF,
0005,
000F,
0018,
0020,
001F,
0017,
000C,
0003,
00FB,
00F9,
00FF,
0007,
0012,
0020,
002A,
002A,
001F,
0011,
0005,
00FB,
00FA,
00FE,
0006,
0012,
0020,
002D,
0030,
0024,
0013,
0006,
00FC,
00FA,
00FE,
0003,
000F,
001D,
002A,
002D,
0024,
0013,
0005,
00FC,
00F9,
00FD,
0002,
0009,
0014,
0020,
0025,
001F,
0012,
0004,
00FB,
00FA,
00FB,
00FE,
0005,
000D,
0015,
0018,
0015,
000C,
0001,
00FA,
00F9,
00FB,
00FC,
00FF,
0005,
0009,
000B,
000B,
0005,
00FE,
00F8,
00F9,
00FA,
00FB,
00FC,
00FE,
0000,
0003,
0004,
0000,
00FB,
00F7,
00F8,
00F9,
00FA,
00FB,
00FD,
00FD,
00FF,
00FF,
00FC,
00F9,
00F4,
00F6,
00F8,
00F9,
00F9,
00FA,
00F9,
00FA,
00FA,
00F8,
00F8,
00F2,
0006,
0005,
0004,
0001,
0001,
00FE,
00FF,
0001,
0003,
0004,
0003,
0005,
0004,
0004,
0003,
0004,
0001,
0002,
0004,
0006,
0005,
0000,
0005,
0004,
0003,
0001,
0003,
00FF,
0000,
0002,
0003,
0001,
00FF,
0004,
0002,
0001,
0000,
0000,
0001,
0001,
0002,
0003,
0001,
00FD,
0000,
0001,
0002,
0000,
0000,
0000,
0000,
00FF,
0001,
0000,
00FB,
0002,
0001,
00FF,
0000,
0001,
0000,
00FF,
00FF,
0000,
0000,
00FC,
0000,
0001,
00FD,
00FF,
0001,
00FF,
0000,
00FF,
00FF,
0000,
00FB,
0000,
00FF,
00FE,
00FD,
0000,
0000,
00FE,
0000,
0000,
0000,
00FC,
0000,
0000,
00FF,
00FD,
00FD,
00FF,
00FE,
00FE,
00FF,
0000,
00FD,
00FE,
00FD,
00FC,
00FC,
00FD,
00FD,
00FC,
00FD,
00FE,
0000,
00FE,
00FC,
00FB,
00FB,
00FB,
00FC,
00FD,
00FD,
00FF,
00FF,
00FE,
00FC,
00FF,
0001,
0002,
00FD,
00F3,
00F1,
0007,
0013,
0005,
00FB,
00FD,
0001,
0000,
0003,
0004,
00F9,
00EC,
00FD,
0016,
0009,
00FB,
00FD,
0001,
0002,
0003,
0007,
00FF,
00EA,
00EF,
0013,
0013,
00FD,
00FD,
0000,
0002,
0003,
000A,
000A,
00EE,
00DF,
0006,
001A,
0005,
00FB,
00FF,
0002,
0002,
000B,
0010,
00FA,
00DA,
00F3,
0019,
000F,
00FE,
00FD,
0001,
0001,
0008,
0013,
0006,
00DB,
00E2,
000F,
0015,
0002,
00FC,
00FF,
0002,
0006,
000F,
000E,
00E8,
00D9,
00FE,
0015,
0007,
00FB,
00FE,
0000,
0003,
000C,
0012,
00F6,
00DA,
00F1,
0010,
000D,
00FB,
00FC,
0000,
0000,
0008,
0016,
0003,
00E4,
00E9,
0005,
000D,
00FD,
00FD,
00FE,
00FF,
0004,
0012,
000C,
00F1,
00E9,
00FB,
000C,
00FD,
00FC,
00FE,
0000,
0001,
0011,
0013,
00F9,
00E9,
00EF,
0002,
00FF,
0000,
0001,
0000,
0002,
0001,
0001,
0000,
0001,
0003,
0002,
00FE,
00FF,
0001,
0002,
0001,
0001,
0001,
0001,
0002,
0002,
0003,
00FF,
00FE,
0000,
0000,
00FF,
0000,
0000,
00FE,
00FF,
0001,
0001,
00FF,
00FF,
0000,
0000,
0000,
0000,
00FF,
00FF,
0000,
0002,
0001,
0000,
00FF,
0000,
0001,
0000,
00FE,
00FF,
00FF,
0001,
0002,
0001,
0000,
00FE,
0000,
00FF,
0000,
00FF,
00FF,
00FD,
00FF,
0001,
0000,
0001,
0000,
0000,
0000,
0000,
0000,
00FF,
00FF,
0000,
0001,
0001,
0002,
00FF,
0001,
0000,
0001,
00FF,
00FE,
00FF,
00FF,
0002,
0000,
0001,
0000,
0000,
0000,
0002,
00FF,
0000,
00FF,
0000,
0002,
0002,
00FF,
0000,
0000,
0000,
0000,
00FF,
0000,
00FE,
00FE,
0000,
0001,
00FE,
00FE,
0000,
00FF,
00FF,
0000,
00FE,
0000,
00FE,
0000,
00FD,
00FC,
00F9,
00F7,
00F4,
00F6,
00F9,
00FD,
0003,
0005,
0005,
0006,
0002,
00FD,
00FB,
00F7,
00F4,
00F3,
00F6,
00FC,
0001,
0003,
0003,
0007,
0003,
00FE,
00FC,
00F5,
00F1,
00F0,
00F1,
00F8,
00FC,
00FE,
000D,
000C,
0004,
00FE,
00FA,
00F5,
00F1,
00F1,
00F1,
00F8,
00FA,
0011,
0017,
0017,
000C,
0002,
00F9,
00F5,
00F1,
00EF,
00F2,
00F6,
0006,
001A,
0028,
002C,
001E,
000C,
00FD,
00F6,
00F0,
00F1,
00F0,
00EF,
00FE,
0018,
0030,
003A,
0033,
0018,
0006,
00FB,
00F6,
00F3,
00E8,
00E5,
00EB,
0002,
0020,
0038,
0038,
0023,
000F,
0005,
00FF,
00EE,
00EB,
00DF,
00DE,
00EA,
0004,
001F,
002D,
0020,
0011,
000A,
00F7,
00F7,
00EF,
00E5,
00DE,
00E0,
00EE,
0005,
0015,
0015,
0013,
0001,
00FF,
00FB,
00F3,
00EC,
00E6,
00E1,
00E3,
00EF,
00FC,
0006,
0000,
0001,
0001,
0002,
0003,
0003,
0003,
0000,
00FD,
00FB,
00FB,
0002,
0005,
0002,
0002,
0000,
00FD,
00F9,
00F7,
00F8,
00FA,
0000,
0002,
0002,
0000,
00FC,
00F6,
00F2,
00F5,
00F7,
00FE,
0002,
0008,
00FE,
00FC,
00F9,
00F3,
00EF,
00F2,
00FA,
0003,
000A,
0008,
000A,
00FB,
00F8,
00F3,
00F2,
00F8,
0001,
000C,
0010,
000F,
0008,
0003,
00F9,
00F8,
00F9,
00FF,
000A,
0013,
0016,
0012,
000A,
0001,
00FC,
00FA,
0000,
0004,
000C,
0013,
0013,
000C,
0005,
00FD,
00FB,
00FC,
0003,
0008,
000D,
0010,
000D,
0005,
00FD,
00FA,
00FA,
00FC,
0000,
0006,
0006,
0008,
0005,
00FE,
00F8,
00F7,
00F7,
00FB,
0000,
00FF,
0004,
0000,
00FF,
00FC,
00F8,
00F9,
00FC,
00FD,
0001,
0001,
0000,
00FF,
00FD,
00FF,
00FD,
00FD,
0000,
0001,
0002,
0002,
0000,
00FF,
0003,
0002,
0000,
00FF,
00FE,
0001,
0001,
0001,
0002,
0000,
0002,
00FF,
0002,
0004,
0004,
00FD,
00FD,
00FF,
0001,
0001,
00FF,
0000,
00FF,
0003,
0004,
0005,
0002,
00FB,
00FD,
00FF,
0002,
0001,
00FF,
00FB,
0003,
000A,
000E,
000B,
0004,
00F8,
00F9,
00FE,
0000,
0001,
00F1,
00F5,
00FB,
000A,
0016,
0018,
000B,
00FF,
00FA,
00FC,
00FF,
00FB,
00EF,
00E8,
00E9,
00FB,
0012,
001C,
0016,
0007,
00FF,
00FF,
000C,
0003,
00F4,
00E2,
00D9,
00E7,
0000,
0012,
0016,
000C,
0006,
000A,
0013,
0010,
0004,
00EE,
00DB,
00DB,
00EB,
00FF,
0009,
0008,
00FD,
0004,
0012,
0018,
0016,
0003,
00ED,
00E6,
00EC,
00F6,
00FE,
00FC,
00F9,
00FC,
0007,
0011,
0017,
000F,
0003,
00F9,
00F8,
00F5,
0002,
00FF,
00FA,
00FB,
00FC,
0003,
0009,
000B,
0008,
0004,
00FE,
0008,
0005,
0006,
0005,
0007,
0007,
0004,
0004,
0007,
0008,
0009,
0003,
0001,
00FF,
00FD,
00FF,
0001,
0001,
0000,
0005,
0006,
0008,
0003,
00FF,
00FE,
00FB,
00FC,
00FC,
00FE,
00FE,
0001,
0005,
0007,
0001,
00FC,
00FA,
00F8,
00F8,
00F9,
00F9,
00F9,
00FD,
0002,
0004,
0001,
00FC,
00F8,
00F4,
00F4,
00F3,
00F3,
00F6,
00F9,
0000,
0004,
00FC,
00F9,
00F5,
00F1,
00EF,
00EE,
00EE,
00F1,
00F8,
00FB,
0001,
00FD,
00F7,
00F3,
00EF,
00ED,
00F0,
00EF,
00F1,
00F5,
00F9,
00FE,
00FD,
00F7,
00F2,
00EE,
00ED,
00EF,
00F1,
00F2,
00F4,
00F9,
00FD,
0000,
00FB,
00F6,
00F1,
00F1,
00F3,
00F5,
00F6,
00F8,
00FA,
0000,
0003,
00FC,
00FD,
00F9,
00FA,
00F9,
00F9,
00FA,
00FC,
00FE,
0001,
0008,
0003,
0002,
00FF,
0003,
0002,
00FF,
0000,
00FF,
00FF,
0002,
00FF,
00FD,
00FC,
00FB,
00FB,
00FC,
00FE,
00FD,
00FB,
00FB,
00FE,
00FE,
00FE,
00FD,
00FA,
00F9,
00FA,
00FE,
00FD,
00FA,
00FA,
00FD,
00FB,
00FB,
00FC,
00FB,
00F8,
00FA,
00FE,
00FC,
00FB,
00FA,
00FB,
00FD,
00FD,
00FC,
00FF,
0000,
0002,
0003,
00FF,
00FC,
00FB,
00FB,
00FC,
00FE,
0003,
000A,
0010,
0010,
000C,
0003,
00FE,
00FB,
00FC,
00FD,
0002,
000B,
0018,
0022,
001E,
0013,
0006,
00FD,
00F9,
00FB,
00FC,
0004,
0010,
0021,
0030,
0029,
0018,
0008,
00FC,
00F8,
00FB,
00FD,
0004,
0011,
0021,
002F,
002A,
0016,
0003,
00FB,
00F8,
00FA,
00FD,
0002,
000D,
0018,
001F,
001C,
000F,
0000,
00FA,
00F9,
00FB,
00FE,
0000,
0006,
000A,
000A,
0008,
0002,
00FC,
00F8,
00FA,
00FA,
00FE,
00FD,
00FC,
00FB,
00F9,
00F7,
00F7,
00F6,
00F6,
00F8,
00F9,
00FC,
00FB,
00F8,
00F8,
00F9,
00FA,
00FB,
00FA,
00FB,
00FC,
00FC,
00FB,
00FA,
00F9,
00F7,
00F7,
00F8,
00FA,
00FB,
00FC,
00FC,
00FD,
00F8,
00F5,
00F3,
00F3,
00F3,
00F5,
00F7,
00F8,
00F9,
00FA,
00FA,
00F8,
00F6,
00F2,
00F0,
00F1,
00F3,
00F6,
00F4,
00F7,
00F9,
00FB,
00F8,
00F5,
00F3,
00ED,
00EA,
00EF,
00F1,
00F0,
00F5,
00F9,
00FA,
00F6,
00F4,
00EE,
00E7,
00E4,
00E8,
00E9,
00EE,
00F4,
00F8,
00F8,
00F5,
00F3,
00EA,
00E3,
00E1,
00E4,
00E6,
00EC,
00F3,
00F7,
00F8,
00F4,
00EF,
00E7,
00E2,
00E1,
00E7,
00EA,
00EF,
00F4,
00F7,
00F8,
00F6,
00F1,
00E9,
00E6,
00E7,
00EA,
00F0,
00F2,
00F6,
00FA,
00F9,
00F8,
00F5,
00F1,
00F1,
00EF,
00EF,
00F2,
00F3,
00F7,
00FA,
00F9,
00F7,
00F5,
00F3,
00F2,
00F1,
00F2,
00F3,
00F5,
00F8,
00FA,
00FC,
0003,
0001,
0002,
0000,
00FF,
00FF,
00FE,
00FD,
00FF,
0002,
0002,
0002,
0000,
0001,
00FF,
00FE,
00FE,
00FD,
00FE,
00FE,
0004,
0005,
0002,
0001,
0002,
0002,
00FF,
00FD,
0000,
0000,
0001,
0004,
0003,
0001,
0000,
0002,
0001,
00FE,
00FA,
00FE,
0000,
0001,
0002,
0003,
0000,
0001,
0002,
0000,
00FD,
00F7,
00FC,
0002,
0001,
0001,
0003,
0002,
0001,
0003,
0000,
00FD,
00F8,
00FD,
0002,
0001,
00FF,
0002,
0001,
0000,
0001,
0000,
00FB,
00F8,
00FE,
0002,
0002,
0000,
0001,
0001,
0000,
0001,
00FE,
00FB,
00F9,
00FC,
0003,
0003,
0001,
0002,
0002,
0000,
0001,
00FF,
00FC,
00FA,
00FD,
0002,
0005,
0002,
0002,
0001,
0001,
0001,
00FE,
00FE,
00FB,
00FD,
0001,
0004,
0004,
0002,
0001,
0001,
0000,
00FD,
00FC,
00FB,
00FC,
0000,
0005,
0006,
00FE,
00FE,
00FF,
00FE,
00FF,
00FF,
0001,
0003,
0001,
00FB,
00FA,
00F9,
0001,
0002,
0001,
0003,
0006,
0008,
000A,
0006,
0000,
00FF,
00FC,
0002,
0004,
0006,
000A,
000D,
000F,
000F,
000B,
0006,
0000,
00FE,
0004,
0007,
000B,
000E,
0011,
0012,
0012,
0010,
000A,
0005,
0001,
0004,
0009,
000E,
000F,
0011,
0012,
0012,
0010,
000B,
0005,
0002,
0004,
0008,
000B,
000D,
0010,
0011,
0010,
000E,
000B,
0008,
0003,
0004,
0007,
0008,
000A,
000B,
000E,
000D,
000D,
0008,
0004,
0002,
0001,
0001,
0003,
0002,
0007,
000B,
000A,
0009,
0003,
00FF,
00FE,
00FE,
00FF,
00FF,
0001,
0004,
0006,
0004,
0003,
00FF,
00FE,
00FA,
00FD,
00FF,
00FD,
00FF,
00FE,
00FE,
00FE,
00FD,
00FA,
00FA,
00F6,
00F8,
00FB,
00FA,
00F7,
00F7,
00F7,
00F7,
00F7,
00F4,
00F5,
00F2,
0001,
0000,
00FD,
00FA,
00FE,
0002,
0004,
0005,
0007,
0003,
0001,
0000,
0000,
00FD,
00FA,
00FC,
0001,
0005,
0008,
0007,
0001,
00FB,
0001,
0000,
00FC,
00F9,
00FE,
0003,
0007,
0008,
0007,
0000,
00F9,
0000,
0000,
00FB,
00FA,
00FF,
0005,
0009,
0009,
0006,
00FE,
00F6,
00FF,
00FE,
00FC,
00FC,
0000,
0007,
000A,
000A,
0006,
00FC,
00F4,
0000,
00FF,
00FA,
00FC,
0003,
0007,
000A,
000A,
0005,
00FA,
00F2,
0000,
0000,
00FC,
00FC,
0003,
0009,
0008,
000B,
0003,
00F8,
00F1,
0001,
00FF,
00FD,
00FE,
0003,
0008,
0009,
0008,
0000,
00F7,
00F2,
00FF,
00FE,
00FD,
00FF,
0005,
0006,
0007,
0006,
00FE,
00F7,
00F3,
00FF,
00FE,
00FE,
0001,
0005,
0005,
0005,
0003,
00FC,
00F6,
00F6,
0000,
00FF,
0001,
0004,
0006,
0005,
0004,
0004,
00FF,
00FA,
00F6,
0009,
0005,
0004,
0004,
0002,
0001,
0001,
0001,
0001,
0002,
0002,
0007,
0005,
0003,
0001,
0000,
0000,
00FF,
0000,
00FD,
00FF,
00FE,
0006,
0002,
0002,
0001,
00FD,
00FB,
00FD,
00FC,
00FA,
00FC,
00FE,
0004,
0001,
00FF,
00FE,
00FA,
00F9,
00F9,
00F9,
00F7,
00FA,
00FE,
0001,
00FF,
00FD,
00FA,
00F6,
00F4,
00F5,
00F5,
00F4,
00F9,
00FB,
00FF,
00FC,
00F9,
00F6,
00F2,
00F3,
00EF,
00F1,
00F2,
00F7,
00FA,
00FE,
00F9,
00F8,
00F4,
00F0,
00F0,
00EE,
00F0,
00F1,
00F4,
00F7,
00FC,
00F9,
00F5,
00F3,
00F1,
00F0,
00ED,
00F0,
00F2,
00F4,
00F6,
00FB,
00F8,
00F6,
00F4,
00F1,
00F3,
00F0,
00F2,
00F3,
00F5,
00F8,
00FE,
00FB,
00F9,
00F5,
00F4,
00F5,
00F4,
00F4,
00F6,
00F8,
00FB,
0001,
00FE,
00FE,
00FB,
00FA,
00F9,
00F9,
00F9,
00F9,
00FC,
00FD,
000C,
000F,
0013,
0015,
0011,
000D,
0009,
0000,
00FA,
00F7,
00F1,
000D,
0012,
0017,
0017,
0013,
000B,
0001,
00F8,
00F3,
00F2,
00ED,
0012,
0018,
001E,
001C,
0012,
0006,
00FA,
00F0,
00EC,
00EB,
00E8,
0015,
001D,
0022,
001D,
0010,
00FF,
00F2,
00E8,
00E7,
00E7,
00E8,
0019,
001E,
0022,
001B,
000B,
00F9,
00EB,
00E4,
00E5,
00E7,
00E8,
001B,
001F,
0020,
0018,
0008,
00F6,
00EA,
00E4,
00E6,
00E9,
00EA,
001A,
001D,
001D,
0014,
0005,
00F6,
00EB,
00E7,
00E9,
00ED,
00ED,
0018,
0019,
0017,
000F,
0003,
00F6,
00EE,
00EA,
00EC,
00EE,
00EE,
0015,
0013,
0011,
000B,
0000,
00F7,
00F0,
00EE,
00EE,
00F1,
00F0,
0010,
000D,
000B,
0005,
00FE,
00F6,
00F3,
00EF,
00F1,
00F2,
00F2,
000D,
0007,
0004,
00FE,
00F7,
00F2,
00EE,
00EC,
00EE,
00F0,
00EE,
00F0,
00EE,
00E9,
00E2,
00E0,
00DD,
00DF,
00E3,
00E9,
00F0,
00F5,
00EE,
00EC,
00E7,
00E1,
00DF,
00DE,
00E0,
00E7,
00F0,
00F7,
00FC,
00EB,
00EA,
00E5,
00DF,
00DE,
00DE,
00E5,
00ED,
00F7,
0002,
0007,
00E9,
00EA,
00E4,
00DF,
00E0,
00E1,
00E9,
00F7,
0003,
000C,
000F,
00EC,
00EC,
00E7,
00E3,
00E4,
00EB,
00F6,
0005,
0013,
0018,
0015,
00ED,
00EE,
00EA,
00E8,
00EC,
00F6,
0007,
0017,
0021,
0021,
0019,
00F0,
00F3,
00F2,
00F3,
00F9,
0006,
0019,
0028,
002E,
0026,
0017,
00F5,
00FB,
00FB,
0000,
0009,
0018,
002B,
0036,
0035,
0026,
0012,
00FA,
0000,
0004,
000A,
0013,
0022,
0031,
0035,
002E,
001C,
000A,
00FE,
0006,
000A,
0011,
0019,
0022,
002C,
002C,
0022,
0011,
0002,
0003,
000B,
000F,
0013,
0017,
001B,
0020,
001E,
0014,
0006,
00FC,
00F6,
00F2,
00F1,
00ED,
00E7,
00E4,
00E2,
00E1,
00E5,
00ED,
00EF,
0002,
00FB,
00F9,
00F6,
00EF,
00EB,
00E8,
00E8,
00E6,
00EC,
00EE,
0005,
00FF,
00FE,
00F9,
00F0,
00EC,
00E9,
00E7,
00E7,
00ED,
00EB,
000B,
0005,
0004,
00FE,
00F5,
00EF,
00EB,
00EA,
00EB,
00EE,
00ED,
000F,
0009,
0008,
0003,
00FB,
00F6,
00F0,
00F0,
00EF,
00F1,
00EE,
000F,
000D,
000F,
000C,
0006,
00FF,
00F9,
00F5,
00F5,
00F6,
00F1,
000F,
000E,
0012,
0012,
000E,
0009,
0002,
00FE,
00FB,
00FC,
00F5,
0010,
000F,
0014,
0016,
0015,
0012,
000B,
0004,
0003,
0001,
00F7,
000F,
0010,
0014,
0017,
0019,
0016,
0012,
000D,
000A,
0006,
00FD,
000B,
000C,
0011,
0015,
0017,
0018,
0015,
0010,
000D,
0007,
00FF,
0005,
0008,
000D,
0014,
0018,
001A,
001B,
0019,
0014,
000E,
0007,
00FE,
00FE,
00FD,
0000,
00FF,
0004,
0004,
0003,
0000,
0001,
0000,
0003,
0003,
0003,
0001,
00FB,
00F3,
00ED,
00F0,
00F7,
00FC,
0001,
0000,
00FE,
00FD,
0004,
000F,
001C,
0023,
0021,
0018,
000C,
0003,
00FE,
0001,
00FE,
00F5,
00E6,
00D7,
00CE,
00D3,
00DB,
00EB,
00F7,
0004,
0003,
0009,
0012,
001E,
0028,
002A,
002C,
0025,
001C,
0010,
0000,
00FE,
00F8,
00F4,
00F4,
00F9,
00FB,
00FC,
00F8,
00F7,
00F9,
00FE,
0001,
0007,
0007,
00FA,
00E8,
00D9,
00DB,
00E8,
00F6,
00FD,
0002,
0000,
00FF,
0006,
0018,
002E,
003E,
003B,
0028,
0014,
0006,
00FE,
0000,
00FC,
00F0,
00E1,
00D1,
00C8,
00CF,
00DD,
00ED,
00FB,
00FF,
00FF,
0002,
000C,
0013,
001A,
0019,
0018,
0014,
000A,
0000,
0003,
0002,
0002,
00FE,
00FD,
00FC,
00FD,
00FE,
00FE,
00FF,
0002,
0001,
00FE,
0000,
0004,
0009,
0003,
00FA,
00F7,
00F9,
00FE,
00FF,
00FF,
0005,
0006,
00FE,
00EE,
00E7,
00F4,
0006,
000E,
0008,
00FF,
0000,
00F6,
00E9,
00E5,
00F7,
0016,
0023,
0015,
00FE,
00F7,
00FE,
00FD,
0002,
0014,
0030,
0039,
0021,
00F8,
00E4,
00EB,
00FE,
0004,
0003,
0009,
000B,
00F2,
00CA,
00B7,
00CE,
00F7,
0010,
000E,
0004,
0001,
00FD,
00EE,
00E4,
00FA,
0023,
003F,
0036,
0015,
00FD,
00FD,
0001,
00FB,
0002,
0020,
002F,
001D,
00F9,
00DA,
00DE,
00F2,
00FE,
00FD,
0002,
0009,
00FE,
00E3,
00D3,
00D8,
00F5,
000C,
000E,
0006,
0001,
0005,
00FF,
00F5,
00FE,
0011,
0023,
0022,
0010,
0000,
00FE,
0002,
00FD,
00FB,
0005,
000A,
0003,
00F8,
00EE,
00EF,
00F8,
00FD,
00FE,
0000,
0002,
0000,
00FE,
00FC,
00FF,
0004,
0007,
0004,
0002,
00FB,
0008,
0006,
00FA,
00F3,
00FA,
0006,
000A,
0008,
0000,
00F9,
00FA,
0008,
000A,
00FF,
00F2,
00F5,
0005,
000C,
0006,
00FC,
00F8,
00F6,
0007,
000F,
0001,
00ED,
00EE,
0004,
0013,
000B,
00F9,
00F4,
00F6,
0004,
0013,
0008,
00EE,
00E5,
0001,
0018,
000E,
00F7,
00F4,
00F4,
0003,
0015,
000D,
00EA,
00DC,
0000,
0020,
0012,
00F5,
00F4,
00F4,
0002,
0014,
0011,
00EB,
00DB,
00FE,
0022,
0014,
00F6,
00F4,
00F4,
0001,
0014,
000F,
00EE,
00DC,
00FB,
001D,
0012,
00F6,
00F4,
00F6,
0000,
0010,
000C,
00F2,
00E3,
00FA,
0017,
0011,
00FA,
00F6,
00F7,
0001,
000C,
000A,
00F9,
00E9,
00F9,
000F,
000F,
00FF,
00F6,
00FA,
0002,
0006,
0006,
00FE,
00F1,
00F8,
0008,
000B,
0001,
00F8,
00FD,
0004,
0007,
0004,
00FF,
00F5,
00F8,
0007,
000B,
0005,
00FA,
0003,
0003,
0001,
00FF,
0000,
0000,
0001,
0002,
0004,
0003,
0003,
0003,
0002,
0000,
00FD,
00FD,
00FC,
00FB,
00FD,
0000,
0004,
0003,
0003,
0002,
00FE,
00FC,
00FA,
00F7,
00F9,
00F9,
00FC,
0002,
0002,
0005,
0001,
00FD,
00F8,
00F8,
00F8,
00F8,
00F6,
00F7,
00FF,
0003,
0004,
0000,
00FA,
00F7,
00F7,
00F9,
00F8,
00F5,
00F7,
00FE,
0003,
0004,
0001,
00FB,
00F6,
00F5,
00F4,
00F3,
00F2,
00F6,
00FC,
0002,
0005,
0003,
00FD,
00F6,
00F1,
00F1,
00F1,
00F1,
00F9,
00FD,
0002,
0007,
0006,
0000,
00FA,
00F6,
00F3,
00F2,
00F5,
00FC,
0001,
0005,
0008,
0008,
0007,
0001,
00FF,
00FB,
00F9,
00FE,
0002,
0006,
0009,
0007,
000A,
0009,
0007,
0002,
0001,
0000,
0004,
0005,
0007,
000A,
0008,
000A,
0009,
0007,
0005,
0006,
0004,
0005,
0007,
0007,
0007,
0000,
00FE,
00FB,
0006,
0002,
00F7,
0004,
00FE,
0001,
0003,
00FF,
00FF,
00FC,
0004,
0003,
00F1,
000A,
0005,
00F5,
0005,
0000,
00FF,
00FF,
0000,
0007,
00F1,
0005,
0015,
00EC,
00FB,
000A,
00FE,
00FF,
00FE,
0004,
00F7,
00F7,
0020,
00FC,
00DF,
000A,
000A,
00FF,
0001,
00FE,
00FD,
00EE,
001B,
001D,
00D2,
00EA,
001E,
000A,
00FB,
00FB,
00F9,
00F5,
000D,
0029,
00EE,
00C5,
0009,
0029,
0001,
00F3,
00FD,
00F9,
0009,
0019,
0007,
00CF,
00E1,
002F,
001E,
00E6,
00F7,
0004,
0004,
000B,
0003,
00F0,
00D8,
000D,
003F,
00F3,
00DD,
000A,
0003,
0007,
00FD,
00FD,
00EE,
00F1,
002D,
0017,
00D1,
00FC,
0012,
00FA,
00FF,
00FD,
00FE,
00F3,
000E,
0023,
00E5,
00E8,
0019,
00FD,
00FA,
0000,
0000,
00FD,
0002,
0012,
00FB,
00E8,
000C,
0007,
00F4,
0005,
00FA,
00FC,
0004,
00FD,
0008,
000C,
0000,
0005,
00FE,
00F7,
00F5,
00FE,
0000,
00FE,
0005,
000E,
0003,
0000,
0000,
00F4,
00F8,
00FE,
00FA,
00FE,
0004,
0013,
0006,
00F6,
00FC,
00F9,
00F6,
0001,
00FD,
00FD,
000A,
000E,
000A,
00EE,
00F0,
0009,
00FD,
00FB,
00FF,
00F7,
000D,
000C,
0000,
00F4,
00EA,
000B,
0011,
00F0,
00FA,
00FE,
00FD,
000F,
00FD,
00F8,
00F4,
0002,
0019,
00F7,
00E7,
00FC,
0000,
0005,
0001,
00FD,
00FB,
00FE,
0011,
0005,
00E2,
00F1,
0003,
0003,
0005,
00FE,
0003,
00FE,
0006,
0007,
00F0,
00EA,
0000,
0005,
0001,
0004,
0004,
0001,
00FC,
0008,
00FD,
00E8,
00F8,
000B,
0003,
00FF,
0003,
0003,
00FE,
0002,
0001,
00F1,
00F3,
0002,
0007,
0003,
0005,
0007,
00FC,
00FA,
00FB,
00F7,
00F4,
0000,
0004,
0002,
0005,
0009,
0007,
0002,
0004,
0006,
0007,
0004,
0003,
0002,
0001,
0002,
0001,
0000,
0000,
0003,
0003,
0006,
0009,
000A,
0009,
0009,
0009,
0008,
0004,
00FC,
00FD,
00FD,
00FF,
0004,
0008,
0009,
000A,
0009,
0006,
0003,
00FB,
00FC,
00F7,
00F8,
00FA,
00FB,
00FB,
00FD,
00FF,
0001,
00FF,
00FB,
00FD,
00F8,
00F4,
00F1,
00EE,
00EC,
00ED,
00F3,
00FA,
00FB,
00FC,
00FC,
00F8,
00F4,
00F0,
00EC,
00EB,
00EB,
00EE,
00F3,
00F5,
00FD,
00FF,
00FF,
00FD,
00FD,
00FB,
00FB,
00FB,
00F7,
00F8,
00F6,
0001,
0003,
0002,
0002,
0006,
0007,
0003,
0002,
00FF,
00FE,
00FA,
0006,
0007,
0007,
0008,
000A,
000B,
000A,
0006,
0004,
0004,
0000,
0004,
0004,
0006,
0006,
0007,
0008,
0008,
0008,
0008,
0006,
0004,
0003,
0002,
0000,
0000,
0002,
0002,
0003,
0005,
0008,
0008,
0006,
0006,
0003,
0002,
00FF,
00FB,
00F9,
00F9,
00FB,
00FE,
0000,
0004,
0005,
0001,
00FC,
00F8,
00F6,
00F2,
00F2,
00F5,
00FA,
00FE,
0002,
0001,
00FE,
00F9,
00F4,
00F2,
00EF,
00EF,
00F3,
00F6,
00FB,
00FF,
00FF,
00F8,
00F4,
00EF,
00EE,
00EC,
00EC,
00EF,
00F4,
00F9,
00FF,
00FB,
00F4,
00F1,
00EC,
00EB,
00E9,
00EB,
00EE,
00F3,
00F8,
00FE,
00FA,
00F4,
00EF,
00EB,
00EA,
00E9,
00ED,
00EF,
00F3,
00F8,
00FE,
00FD,
00F8,
00F2,
00ED,
00EB,
00EA,
00EE,
00F2,
00F5,
00FC,
0000,
00FF,
00FB,
00F7,
00F3,
00F0,
00F0,
00F4,
00F7,
00FB,
0000,
0004,
0002,
00FF,
00FC,
00F8,
00F6,
00F7,
00FB,
00FE,
0002,
0005,
0008,
0003,
0002,
0000,
00FE,
00FC,
00FB,
0000,
0005,
0005,
0008,
000A,
0004,
0002,
0001,
0001,
0001,
0002,
0004,
0007,
0009,
0009,
000B,
0001,
0001,
00FF,
0002,
0000,
00FC,
0004,
000D,
00FF,
00FB,
00FE,
0000,
0002,
0004,
0004,
00FC,
00F3,
00F5,
000D,
0015,
00FA,
00F9,
00FE,
00FE,
0001,
000E,
0009,
00ED,
00DD,
00F2,
001E,
0012,
00F2,
00FF,
00FD,
00F6,
000B,
0024,
000A,
00DA,
00D0,
0000,
0024,
0000,
0002,
00FE,
00F0,
00F2,
0021,
0036,
0003,
00CE,
00D4,
000E,
0014,
00FF,
0007,
00F9,
00E0,
00FA,
003C,
0037,
00F6,
00CF,
00E9,
000D,
00FC,
0006,
0007,
00EB,
00D8,
000D,
0041,
001F,
00F0,
00E7,
00FD,
00FD,
00FE,
0008,
0002,
00DC,
00DB,
001C,
002F,
0005,
00F2,
00FA,
00FE,
00FC,
0002,
0009,
00F8,
00D8,
00EF,
0020,
0012,
00F9,
00FC,
0001,
00FE,
0000,
0004,
0007,
00F5,
00E7,
00FE,
0014,
0004,
00FD,
0000,
0000,
0002,
0000,
0004,
0005,
00FA,
00F4,
0003,
0008,
0001,
0001,
0002,
0006,
000A,
000B,
000F,
0010,
0011,
0012,
000C,
000A,
00FE,
0000,
0002,
0000,
0002,
0002,
0004,
0007,
0004,
0002,
00FF,
0000,
0001,
0000,
0000,
00FF,
00FF,
0000,
0001,
0001,
0002,
00FD,
0002,
0001,
0003,
0003,
0002,
0003,
0002,
0000,
0001,
0001,
00FD,
0005,
0003,
0004,
0006,
0008,
000A,
0006,
0005,
0000,
0001,
00FD,
0001,
0000,
0002,
0002,
0005,
0007,
0006,
0001,
00FC,
00FF,
00F8,
0001,
0001,
0003,
0004,
0002,
0005,
0005,
0001,
00FD,
00FD,
00FC,
0003,
0004,
0002,
0000,
0000,
0000,
0001,
0002,
00FE,
00FE,
00FC,
0002,
0000,
0001,
00FE,
00FA,
00F7,
00F8,
00FA,
00F9,
00FC,
00FC,
0001,
0000,
00FF,
00FF,
00FC,
00F8,
00F8,
00F8,
00F8,
00FB,
00FA,
00F8,
00F8,
00F5,
00F5,
00F2,
00EF,
00EF,
00F0,
00F5,
00F9,
00F8,
0007,
000A,
000E,
0012,
0014,
0016,
0018,
0015,
0011,
000D,
0009,
00F9,
00FB,
00FB,
0001,
0005,
0006,
0004,
0000,
00FC,
00F8,
00F6,
00F8,
00F5,
00ED,
00E6,
00E0,
00DC,
00DB,
00E4,
00EE,
00F5,
00FA,
00FF,
00F9,
00ED,
00E0,
00D5,
00D4,
00D7,
00E5,
00F5,
00FE,
0004,
0002,
0004,
0006,
000A,
000B,
000D,
0009,
0001,
00FD,
00FF,
0000,
0006,
0010,
0021,
0032,
003F,
0042,
0039,
0027,
0015,
0008,
0002,
0005,
0007,
000F,
0018,
001C,
001F,
001E,
001E,
0014,
000A,
0005,
00FE,
00F8,
00EF,
00E4,
00E0,
00E1,
00E9,
00F4,
00FC,
0000,
0003,
00F9,
00F1,
00E8,
00DD,
00D3,
00D3,
00D8,
00DF,
00ED,
00F7,
00FD,
00FB,
00FE,
00FF,
0001,
00FD,
00F8,
00F5,
00F4,
00F4,
00F6,
00F6,
0005,
000C,
0010,
0015,
001A,
001A,
0018,
0014,
0010,
0009,
0005,
0001,
0005,
0006,
0005,
00FA,
00F0,
00EC,
00ED,
00F5,
00FB,
0000,
00FA,
00F7,
00FD,
000E,
0029,
003E,
0041,
0033,
001E,
000B,
00FF,
0002,
00FC,
00ED,
00D8,
00C3,
00BB,
00C4,
00DA,
00F0,
00FD,
0003,
0004,
000D,
0012,
000D,
0003,
00F5,
00E7,
00E4,
00EC,
00F5,
00FA,
00F8,
00FB,
0008,
001F,
0039,
004C,
004B,
003B,
001F,
000B,
0000,
0001,
00F9,
00E9,
00D9,
00D1,
00CE,
00D3,
00E2,
00F1,
00FB,
0001,
0001,
0009,
000E,
0009,
0007,
0005,
0003,
0002,
0003,
0003,
0001,
0000,
00FF,
0002,
0008,
0009,
0009,
0005,
0004,
0000,
0000,
0001,
0002,
00FF,
00FC,
00FA,
00FC,
00FF,
0000,
00FF,
00FF,
0001,
0002,
00FE,
0003,
0003,
0000,
00FE,
00FF,
0001,
0003,
0002,
0000,
0001,
0000,
00FF,
0000,
0002,
0003,
0001,
00FF,
00FF,
0000,
0000,
00FF,
0000,
00FF,
0009,
00F3,
0009,
0006,
00F1,
0008,
0002,
00FD,
0001,
00FF,
00FC,
0010,
00E8,
000B,
000F,
00E8,
0013,
00FE,
00FC,
0000,
0000,
00F9,
0019,
00DA,
000C,
001A,
00D3,
001C,
00FC,
00FC,
0001,
0001,
00F4,
0021,
00D5,
000E,
0027,
00C4,
0023,
00F8,
00FE,
0001,
0001,
00EF,
0029,
00D0,
0011,
0030,
00B8,
002B,
00F6,
00FF,
0000,
0002,
00ED,
002D,
00CF,
000B,
0032,
00B5,
002D,
00F7,
0002,
00FF,
0001,
00EE,
002C,
00D2,
0009,
002E,
00BE,
0028,
00F8,
00FF,
00FF,
0002,
00EF,
0025,
00DB,
0003,
0022,
00CD,
001F,
00FA,
00FD,
0000,
0002,
00F3,
001F,
00DF,
0002,
001B,
00D9,
0014,
0000,
00FC,
0001,
0002,
00F6,
0017,
00E9,
0005,
0010,
00EA,
000C,
0001,
00FD,
0000,
0002,
00FB,
000E,
00F0,
0006,
0008,
00F3,
0005,
0001,
00FD,
0001,
0005,
0005,
0007,
0008,
0006,
0008,
000C,
0009,
0001,
00FC,
00FF,
0007,
0008,
0008,
000A,
000D,
0014,
0015,
0013,
000E,
0006,
0006,
0005,
000A,
000B,
000D,
0011,
0019,
0017,
0013,
0013,
000C,
000C,
0000,
0005,
000A,
000F,
0014,
0018,
0014,
000E,
000F,
000B,
000D,
00FE,
0004,
0006,
000B,
0012,
0011,
000A,
0007,
000B,
0007,
0007,
00FA,
00FE,
00FE,
0000,
0002,
0000,
00FD,
00FF,
0005,
0003,
0005,
00F8,
00FA,
00F5,
00F7,
00F8,
00F4,
00F5,
00FB,
0000,
00FF,
0002,
00F4,
00F4,
00F0,
00F1,
00EF,
00ED,
00F2,
00F7,
00FA,
00FA,
00FD,
00F5,
00F3,
00EE,
00EC,
00EA,
00E7,
00EE,
00F1,
00F3,
00F5,
00FB,
00FB,
00F9,
00F2,
00EC,
00EB,
00EB,
00F0,
00F1,
00F3,
00F7,
00F9,
00FB,
00FC,
00F7,
00F1,
00F0,
00F2,
00F3,
00F4,
00F4,
00F8,
00F6,
00FD,
00FD,
000D,
0008,
00E5,
00EA,
0001,
000F,
000B,
00FD,
00FC,
00FE,
000F,
0015,
00E7,
00D3,
0001,
001D,
0017,
00FB,
00F4,
00FE,
0009,
0015,
00F8,
00C3,
00EA,
002C,
0028,
0003,
00E8,
00F7,
0004,
000E,
0003,
00D5,
00D1,
0027,
0043,
000C,
00DE,
00E2,
0006,
0009,
0005,
00EA,
00D6,
000C,
004C,
0025,
00D9,
00CA,
00F8,
001A,
0008,
00FB,
00E9,
00F9,
0031,
0035,
00ED,
00BC,
00E0,
0020,
001B,
00F8,
00FC,
00F8,
000E,
0023,
0005,
00CF,
00D0,
0012,
002A,
0000,
00F1,
0000,
00FF,
000E,
000D,
00EC,
00DB,
0001,
0024,
000B,
00EE,
00FF,
00FE,
00FC,
0008,
00FF,
00EB,
00F9,
0011,
000B,
00F8,
00F7,
0001,
00FC,
0001,
0007,
00FC,
00F4,
0006,
0005,
0001,
00FB,
00FF,
0000,
00FE,
0003,
0003,
00FA,
00FD,
0002,
0000,
0006,
00FE,
00FE,
00FE,
0001,
0002,
00FE,
00F5,
00F8,
000D,
001C,
0008,
00F1,
00F2,
00FB,
0001,
0006,
0004,
00F7,
00E3,
00F3,
001C,
0025,
0007,
00F1,
00F3,
0002,
0004,
0005,
0001,
00E8,
00D9,
00FD,
0026,
0020,
0003,
00F2,
0001,
0005,
0008,
000F,
00FE,
00D1,
00D4,
000B,
0024,
0015,
00FD,
00FD,
0004,
000B,
0018,
0017,
00E9,
00C5,
00E4,
0012,
0019,
0008,
00F8,
00FB,
0007,
0014,
0023,
000A,
00D7,
00CF,
00FC,
0012,
0009,
00F9,
00F3,
00FE,
000B,
001D,
001F,
00F8,
00D9,
00EE,
0009,
0008,
0000,
00F3,
00F1,
0000,
000F,
0019,
0010,
00F1,
00E8,
00FE,
0006,
0006,
00FB,
00EE,
00F3,
0002,
000F,
0014,
0003,
00F1,
00F9,
0004,
0004,
0004,
00F8,
00F2,
00FB,
0007,
000C,
0005,
00FC,
00FA,
0001,
0002,
0004,
0000,
00F6,
00F8,
0000,
0006,
0004,
0003,
00FC,
00FE,
0006,
0005,
0004,
00FD,
00F7,
00F1,
00F4,
00F9,
0000,
0006,
0009,
0007,
0008,
0005,
00FE,
00F6,
00F1,
00F6,
00FD,
0003,
0006,
0008,
000A,
000A,
0004,
00FB,
00F3,
00EC,
00F2,
00FB,
0003,
0008,
000B,
000E,
000C,
0008,
00FD,
00F0,
00E8,
00F0,
00F9,
0006,
000C,
000E,
000F,
000D,
0009,
00FE,
00ED,
00E1,
00EB,
00F7,
0006,
000E,
000F,
0013,
000F,
0009,
00FB,
00EA,
00E1,
00EC,
00FB,
0009,
000F,
0011,
0015,
0011,
0008,
00F7,
00E8,
00E3,
00F0,
00FF,
000B,
0010,
0010,
0015,
000F,
0006,
00F5,
00E9,
00E8,
00F5,
0003,
000C,
000C,
000D,
0011,
000C,
0003,
00F3,
00EA,
00EB,
00F8,
0003,
000B,
000B,
000B,
000C,
0008,
0000,
00F6,
00F0,
00F1,
00FB,
0003,
0008,
0008,
0009,
000F,
0004,
00FC,
00F4,
00ED,
00F1,
00FB,
0000,
0004,
0008,
000A,
0006,
00FF,
00F5,
00F4,
00FD,
0010,
0012,
0007,
00F8,
00F5,
0004,
0007,
0004,
00F4,
00EF,
00FA,
000E,
0014,
0004,
00F1,
00F4,
0009,
000A,
0007,
00EF,
00E7,
00F9,
0015,
001B,
0002,
00E7,
00F1,
000D,
000B,
0007,
00EC,
00E5,
00FC,
001B,
001D,
00FD,
00E1,
00F4,
000E,
000D,
0007,
00E8,
00E3,
00FF,
0021,
0020,
00F9,
00DE,
00F4,
0012,
000F,
0005,
00E5,
00E6,
0004,
0023,
001D,
00F5,
00DE,
00F8,
0011,
000E,
0001,
00E2,
00E8,
0009,
0024,
0019,
00F4,
00DF,
00F9,
000D,
000E,
0000,
00E4,
00ED,
000B,
0020,
0013,
00F5,
00E6,
00FB,
000B,
000C,
00FE,
00E8,
00F1,
000A,
001C,
000E,
00F7,
00EC,
00FC,
0008,
000A,
00FD,
00EE,
00F8,
0007,
0012,
0009,
00FC,
00F3,
00FD,
0006,
0008,
00FA,
00F1,
00FC,
0009,
0010,
0008,
00FE,
00F7,
00FB,
0002,
00EB,
00ED,
00E6,
00E2,
00E1,
00E2,
00E4,
00E6,
00E8,
00EF,
00EE,
00F6,
00F8,
00F2,
00F2,
00F0,
00F3,
00F3,
00F2,
00F2,
00F8,
00F6,
00FB,
00FC,
00F7,
00F9,
00F9,
00F8,
00FB,
00F8,
00F5,
00FB,
00FA,
00FC,
00FD,
00F9,
00F8,
00FA,
00F9,
00FC,
00FC,
00F8,
00FC,
00FA,
00FE,
0000,
00FD,
00FA,
00FD,
00FD,
00FD,
0000,
00FA,
00FC,
00FD,
0001,
0001,
0001,
00FE,
0001,
0004,
00FD,
0001,
0000,
00FC,
0001,
0006,
00FF,
0002,
0005,
0000,
0009,
0007,
0000,
0007,
0002,
0003,
0007,
0005,
0003,
0009,
0009,
0008,
000D,
0007,
0003,
0007,
0005,
0008,
0008,
0007,
0008,
000B,
0006,
000A,
000C,
0005,
0006,
0007,
000B,
0006,
000B,
000C,
000B,
000D,
000D,
000E,
000D,
0007,
000A,
0012,
000F,
0016,
0017,
0017,
001B,
0019,
001A,
0017,
0010,
0015,
0002,
0005,
0009,
000A,
000A,
0008,
0002,
0003,
0004,
0003,
0000,
0004,
0009,
000B,
000B,
000A,
0006,
0002,
0004,
0004,
0002,
0000,
0006,
000B,
000B,
000B,
0009,
0004,
0003,
0002,
0003,
0001,
0002,
0006,
000B,
000B,
0009,
0007,
0000,
0000,
0000,
0001,
0000,
0001,
0006,
000A,
0008,
0006,
0003,
00FD,
00FD,
00FE,
00FE,
00FD,
00FF,
0005,
0007,
0005,
0003,
00FE,
00F8,
00F9,
00FB,
00FA,
00FA,
00FD,
0006,
0005,
0002,
0000,
00F8,
00F4,
00F8,
00F6,
00F7,
00F8,
00FA,
0003,
0003,
00FF,
00FB,
00F6,
00F5,
00F6,
00F4,
00F6,
00F9,
00F9,
0001,
0000,
00FC,
00F7,
00F5,
00F5,
00F4,
00F4,
00F6,
00F7,
00FA,
0001,
00FF,
00FB,
00F9,
00F7,
00F6,
00F4,
00F3,
00F5,
00F7,
00FC,
0002,
0000,
00FD,
00FB,
00F8,
00F8,
00F8,
00F7,
00F6,
00F8,
00FC,
0002,
00FF,
00FB,
0004,
0006,
00FA,
00FF,
000C,
00F5,
0001,
0004,
0000,
0001,
0000,
00F5,
0010,
0001,
00EB,
000C,
0007,
00FB,
00FE,
0000,
00FE,
0009,
00F5,
00FB,
0018,
00F9,
00ED,
0010,
0003,
00FE,
0005,
00FC,
0001,
000A,
00EA,
000B,
0009,
00F4,
0007,
00F6,
000A,
0007,
00F8,
0002,
0013,
00D9,
0012,
0023,
00D0,
0015,
000A,
00F3,
0000,
0009,
00F1,
0011,
0004,
00D5,
0036,
00FE,
00D0,
002E,
00F3,
00EF,
001C,
00F3,
00EB,
0043,
00BC,
00ED,
0060,
00C2,
00F2,
001C,
00FE,
00F6,
001E,
00E3,
000B,
0020,
00C6,
0015,
0027,
00DD,
0006,
0012,
00E7,
000B,
000D,
00DB,
0031,
00F4,
00D4,
002E,
00FE,
00F3,
0001,
0008,
00F0,
000D,
00FB,
00FB,
0010,
00F8,
00FC,
0003,
0002,
00F9,
000A,
00FE,
00FD,
0007,
00F5,
000C,
00FC,
00F6,
000B,
00FB,
00FF,
0004,
00F9,
0002,
00FE,
00FB,
000F,
00FB,
00FD,
00FF,
0000,
0001,
0001,
00F5,
000B,
00F6,
0001,
000B,
00F9,
00FD,
00FE,
0002,
0004,
00F9,
00FC,
0011,
00EB,
000C,
000D,
00F1,
00FC,
0004,
0002,
0001,
00F6,
000A,
0005,
00E9,
001C,
0000,
00E7,
0006,
0008,
0000,
0000,
00F8,
000B,
00F8,
00FB,
001B,
00F4,
00E8,
0012,
0002,
00FD,
00FE,
00F9,
000C,
00F5,
00FF,
001D,
00E4,
00EF,
0021,
00F1,
0003,
00FC,
0001,
000F,
00E7,
0012,
0017,
00C4,
0016,
001A,
00E3,
000C,
00F9,
000A,
0002,
00E9,
0031,
00E5,
00D2,
003F,
00EB,
00F7,
000A,
00FC,
000D,
00EF,
0009,
001B,
00C4,
0014,
0023,
00D5,
0019,
00F7,
0004,
0001,
00F4,
0017,
00F1,
00E4,
002A,
00F1,
00F7,
0013,
00F1,
0004,
00FA,
0003,
0007,
00ED,
0005,
0012,
00EF,
000D,
00F9,
00FE,
0000,
0002,
0004,
00FC,
00F3,
0010,
00F9,
00F0,
000B,
0001,
0001,
0003,
00FF,
00FC,
00F7,
0016,
0008,
00D6,
000A,
0012,
00FB,
0001,
00FE,
00FB,
00FF,
000D,
0010,
00D5,
00E9,
0027,
0009,
00F9,
00FC,
00FB,
0001,
000B,
0008,
00EB,
00D8,
001D,
002D,
00F7,
00EE,
0000,
00FF,
000B,
00FD,
00F7,
00E7,
00FA,
0038,
0013,
00D5,
00F6,
000F,
0005,
00FF,
00F1,
00FE,
00F2,
0011,
0033,
00E2,
00D1,
001B,
0008,
0000,
00F8,
00FC,
0005,
00F9,
0021,
0012,
00C0,
0008,
0024,
00F1,
00FD,
00FA,
0006,
0000,
0000,
001F,
00E3,
00E1,
002C,
00FD,
00F3,
00FC,
0000,
0004,
00FA,
000E,
0004,
00E1,
0010,
0012,
00EB,
0003,
00FF,
0003,
00FE,
0002,
000A,
00F4,
00FF,
000D,
00F9,
00FC,
0006,
0000,
0001,
0000,
0008,
00FB,
00FC,
0004,
00FB,
0001,
0004,
00FC,
0001,
00FD,
0003,
0003,
00F7,
0007,
0004,
00F4,
0008,
00FF,
0000,
0001,
00FC,
0001,
000B,
00ED,
000C,
0003,
00ED,
0011,
00FA,
0002,
0000,
00FC,
00FA,
0018,
00DD,
0014,
0009,
00E2,
001B,
00F4,
0001,
0000,
0001,
00F2,
0028,
00CA,
001E,
000E,
00D9,
0024,
00F1,
0003,
00FF,
0006,
00EC,
0033,
00BD,
0025,
000F,
00CF,
0028,
00F0,
0003,
00FC,
0008,
00E7,
003A,
00B8,
0029,
0012,
00CC,
0028,
00F2,
0001,
00FD,
0007,
00E9,
0035,
00BB,
0024,
0013,
00CE,
0026,
00F4,
0003,
00FE,
0003,
00EF,
002B,
00CB,
0018,
0013,
00D5,
001F,
00F5,
0003,
00FF,
00FE,
00F7,
001E,
00DD,
000D,
0013,
00E0,
0014,
00F8,
0002,
0002,
00FC,
00FE,
0010,
00EC,
0004,
000E,
00EA,
000D,
00FC,
0001,
0002,
00F9,
0003,
0008,
00F5,
0000,
000A,
00F1,
0009,
00FE,
0000,
00FD,
00FC,
00F9,
00F4,
00F5,
00FA,
0001,
0006,
0001,
0000,
00FF,
0003,
0008,
0012,
001C,
0021,
0017,
0007,
00FC,
00FA,
00FB,
00FC,
00FE,
00F7,
00EC,
00DD,
00D1,
00CE,
00DA,
00EC,
00F9,
00FF,
0000,
0000,
0002,
0008,
0010,
001E,
002D,
0030,
002A,
001B,
0010,
000B,
0001,
0006,
0009,
000F,
000F,
0005,
00F8,
00F1,
00F1,
00F7,
00F8,
0000,
00FA,
00F3,
00E8,
00DC,
00D6,
00DE,
00E7,
00F2,
00FA,
0000,
0006,
0008,
000C,
0016,
0025,
0030,
0031,
0029,
001C,
000E,
0007,
00FD,
00FC,
00F7,
00F1,
00E9,
00E4,
00E0,
00E4,
00EE,
00F8,
00FE,
0000,
0001,
0006,
0009,
000C,
000B,
000A,
0009,
0002,
0000,
00FD,
0004,
0002,
00FD,
00FD,
00FA,
00FA,
00FD,
0001,
0003,
0003,
0005,
00FE,
00FF,
0002,
0001,
0003,
0002,
0000,
0001,
00FF,
0001,
00FF,
0000,
00FD,
00FA,
00F9,
0003,
000B,
000E,
0010,
000B,
0006,
0004,
0002,
0009,
0008,
00FA,
00E5,
00D7,
00D2,
00DB,
00E9,
00F2,
00F7,
00FC,
00FE,
000F,
0028,
003F,
0043,
0032,
001D,
000F,
0006,
0002,
00FA,
00F0,
00DC,
00CA,
00CB,
00E3,
0000,
000D,
0010,
000B,
0006,
0005,
000C,
0012,
0009,
00EA,
00D4,
00CE,
00D7,
00E5,
00F2,
00F8,
0004,
0005,
0013,
0033,
0046,
0042,
002C,
0015,
000C,
0005,
0004,
00FB,
00F5,
00E3,
00D2,
00D5,
00E8,
00FD,
0004,
0003,
0001,
00FF,
0001,
0007,
0010,
000D,
0001,
00F6,
00F5,
00FB,
0000,
0000,
0001,
0002,
0001,
0000,
0006,
000B,
000A,
0000,
00FC,
00FE,
0001,
0004,
0001,
0001,
0000,
00FB,
00FC,
0003,
0009,
0007,
0001,
00FF,
00FE,
00FF,
00FF,
0000,
0003,
00FE,
00FD,
00FC,
00FE,
0001,
0001,
0001,
0003,
00FE,
00F6,
00EE,
00F6,
0000,
0004,
0007,
0006,
0001,
0001,
0000,
00FB,
00F2,
00F4,
0001,
0009,
0007,
0005,
0000,
00FF,
0001,
00FD,
00F3,
00F1,
00FE,
0009,
000D,
000B,
0003,
00FF,
0000,
0001,
00F7,
00EE,
00F8,
0007,
000E,
000E,
0008,
0000,
0000,
00FF,
00FC,
00F2,
00F2,
0000,
0010,
0015,
000E,
0002,
00F8,
00F8,
00F8,
00FD,
00F3,
00FA,
0007,
001A,
001B,
000B,
00FB,
00F1,
00F3,
00F9,
0002,
00F8,
0005,
000E,
0018,
0012,
00FC,
00EE,
00EC,
00F5,
0000,
0009,
00FE,
000E,
0011,
000E,
0003,
00EE,
00E5,
00F0,
0001,
000A,
0007,
0002,
000C,
0009,
0002,
00F4,
00E8,
00EE,
00FC,
000A,
0007,
0001,
0004,
0005,
0004,
00FC,
00F0,
00F0,
00FC,
0006,
0009,
0001,
0000,
0005,
0000,
00FD,
00F7,
00F5,
00FC,
0006,
0009,
0004,
00FF,
0000,
0000,
0006,
00F3,
00FE,
0019,
00F4,
00F3,
000B,
0000,
0002,
00FF,
00FC,
000E,
0005,
00D8,
000A,
0023,
00EE,
00F4,
0002,
00FD,
0005,
00FB,
00FF,
0028,
00EA,
00D2,
0021,
0018,
00F4,
00FE,
00FC,
0003,
00FD,
00EB,
0029,
001F,
00C9,
00EC,
0019,
0008,
00FF,
00FE,
00FD,
0004,
00DB,
0008,
0042,
00F5,
00D9,
00FD,
0004,
0005,
0002,
00FF,
0011,
00E4,
00D0,
0039,
0021,
00EC,
00FB,
00F8,
0001,
0004,
0001,
000F,
0015,
00B7,
00FD,
002E,
0000,
00FF,
00F7,
00FB,
0001,
0000,
00F3,
0039,
00E6,
00CB,
001C,
0007,
0003,
0007,
00F6,
00FE,
0000,
00E5,
0016,
0025,
00D5,
00F8,
0007,
00FC,
000E,
0000,
00FB,
00FF,
00FA,
00EC,
0020,
0005,
00EE,
0004,
00FB,
00FE,
0008,
0002,
00FF,
0009,
00F3,
00F9,
000A,
0000,
00FD,
0002,
00FB,
0000,
0002,
0000,
00FE,
00FF,
0001,
00FE,
00FF,
0002,
00FF,
00FE,
0000,
00FF,
00FE,
00FC,
00FF,
0003,
0003,
0000,
0001,
0004,
0002,
00FF,
0000,
0000,
00FD,
0000,
0001,
0002,
0001,
0002,
0002,
0002,
0000,
00FF,
00FE,
00FF,
0001,
0000,
0002,
0005,
0005,
0003,
0002,
00FF,
00FF,
00FE,
00FD,
0000,
0001,
0004,
0008,
000A,
0006,
0001,
00FF,
0001,
00FD,
00FD,
0002,
0003,
0002,
0007,
0007,
0008,
0005,
0000,
00FE,
00FC,
00FE,
0000,
0004,
0004,
0005,
0007,
0007,
0006,
0000,
00FE,
00FC,
0002,
00FF,
0000,
0006,
0004,
0007,
0006,
0001,
0000,
0000,
00FE,
0004,
0001,
00FE,
0003,
0005,
0006,
0004,
00FE,
00FF,
00FF,
00FD,
00FE,
0003,
00FF,
00FF,
0003,
0004,
0003,
0000,
00FC,
00FC,
00FD,
00FA,
0000,
0002,
0001,
0001,
0002,
0002,
0000,
00FD,
00FE,
00FD,
00FA,
00F7,
00F4,
00F6,
00F9,
0000,
0000,
0002,
0002,
0000,
00FD,
0003,
00FE,
00F8,
00EF,
00EB,
00E9,
00EB,
00F0,
00F6,
00FB,
00FD,
000C,
0010,
0014,
000E,
0009,
0001,
00FA,
00F8,
00FB,
00FC,
0001,
0005,
000D,
0019,
0022,
0025,
0023,
001D,
0015,
000B,
0003,
0004,
00F6,
00F5,
00FB,
0006,
000E,
0014,
0018,
0016,
0010,
0008,
0005,
00F8,
00F2,
00EA,
00E8,
00E9,
00ED,
00F8,
0001,
0008,
000A,
0008,
00FE,
00FB,
00F1,
00E8,
00E3,
00DD,
00DF,
00E7,
00F1,
00FA,
00FF,
0001,
0004,
0004,
0004,
0002,
00FB,
00F1,
00EE,
00EE,
00F0,
00F4,
0006,
000A,
000F,
0010,
0013,
0017,
0013,
000D,
0008,
0003,
0000,
0000,
0002,
0003,
0002,
0004,
0008,
000B,
000D,
000B,
0008,
0006,
00FC,
00FA,
00FA,
00F9,
00F7,
00F9,
00F7,
00FB,
00FD,
00FE,
00FF,
0004,
0003,
0003,
0002,
0002,
0002,
0002,
0002,
0004,
0005,
0004,
0004,
0002,
0001,
00FF,
00FE,
00FE,
00FE,
0001,
0005,
0006,
0006,
0002,
0000,
00FD,
00FA,
00F8,
00F9,
00FA,
00FE,
0004,
0004,
0005,
00FF,
00FD,
00F7,
00F3,
00F0,
00F2,
00F5,
00FA,
00FF,
0003,
0006,
00FB,
00F6,
00F2,
00ED,
00E9,
00EC,
00EE,
00F5,
00FB,
00FF,
0003,
00F9,
00F3,
00EF,
00EA,
00E6,
00EA,
00EB,
00F2,
00F9,
00FF,
0002,
00F9,
00F1,
00ED,
00E9,
00E6,
00E9,
00EA,
00F1,
00F7,
00FE,
0002,
00FC,
00F4,
00EF,
00EB,
00E8,
00E8,
00EB,
00F3,
00FB,
0000,
0004,
00FD,
00F8,
00F3,
00EF,
00ED,
00EA,
00EE,
00F6,
00FD,
0003,
0006,
00FF,
00FC,
00F7,
00F4,
00F2,
00F1,
00F5,
00FC,
0001,
0006,
0009,
0004,
0001,
00FE,
00FB,
00F8,
00F9,
00FD,
0001,
0005,
0009,
000A,
00FF,
0006,
00F7,
0003,
0007,
00F8,
00FD,
000D,
00F3,
0006,
00FF,
00FF,
0008,
00F4,
0002,
0010,
00E9,
0004,
000D,
00F0,
0009,
00FF,
00FD,
000C,
00EF,
0000,
001E,
00D8,
0011,
0009,
00EE,
000B,
00FE,
00FD,
000F,
00EC,
00FE,
002C,
00C6,
0020,
0001,
00EF,
000A,
00FF,
00FB,
0011,
00EA,
00FC,
0036,
00B7,
002C,
00FE,
00F0,
000A,
00FF,
00FC,
0013,
00EA,
00FA,
0036,
00AE,
0032,
00FB,
00F0,
000B,
0000,
00FC,
0012,
00E8,
00FE,
0030,
00B4,
0031,
00FB,
00ED,
000D,
00FE,
00FB,
000F,
00EB,
0003,
0023,
00C4,
0029,
00FD,
00ED,
000B,
00FD,
00FC,
000B,
00ED,
0006,
0017,
00D8,
0019,
0003,
00EE,
000C,
00FE,
00FE,
0008,
00F2,
0008,
000A,
00EA,
000C,
0007,
00F1,
000A,
00FF,
00FF,
0006,
00F6,
0008,
0002,
00F6,
0003,
0007,
00F4,
0007,
00FF,
00FF,
00FB,
00FB,
00F9,
00FC,
00FE,
00FD,
00FE,
00FE,
00FD,
0000,
00FD,
00FC,
00FD,
00FE,
00FF,
00FE,
00FA,
00FA,
00FB,
00FD,
00FF,
0001,
0000,
0001,
00FF,
00FA,
00F8,
00F9,
00FD,
0001,
0004,
0005,
0001,
00FE,
00FE,
00F9,
00F8,
0000,
0007,
000D,
000D,
0009,
0009,
0003,
0000,
00FF,
0005,
000F,
0017,
0019,
0016,
0010,
0009,
0003,
0006,
0004,
000B,
0017,
001E,
0018,
000E,
0003,
00FC,
00F8,
00F6,
0008,
000E,
0014,
0012,
0007,
00F7,
00ED,
00EC,
00ED,
00F2,
00F5,
0006,
0004,
00FA,
00EB,
00E1,
00DC,
00E0,
00EA,
00F1,
00F7,
00FC,
00FB,
00F3,
00E8,
00E5,
00E9,
00F1,
00F9,
00FF,
0002,
0005,
0006,
00F4,
00F4,
00F7,
00FF,
0005,
000A,
000C,
000C,
000C,
0009,
0005,
0001,
0006,
000A,
000B,
000C,
000A,
0007,
0006,
0005,
00FF,
0000,
00FE,
0001,
0001,
0002,
00FC,
00F8,
00FA,
00FF,
0003,
0005,
0001,
00FF,
0002,
00FF,
00F3,
00F2,
00F9,
0007,
000C,
0007,
0002,
00FC,
0001,
00FB,
00ED,
00F3,
000A,
0016,
0017,
000B,
00FE,
00F9,
00F8,
00F6,
00F0,
00FE,
001B,
0023,
0015,
0003,
00F2,
00EC,
00F5,
0000,
00FB,
000C,
0024,
0023,
000D,
00ED,
00E1,
00E4,
00F6,
0005,
000A,
0010,
001B,
0010,
00F1,
00DB,
00D3,
00E4,
00FD,
0010,
000E,
0006,
000D,
00FB,
00E2,
00D7,
00DE,
00F3,
0013,
0021,
0017,
0005,
00FD,
00F8,
00EB,
00E7,
00F6,
000C,
0026,
002D,
0011,
00FA,
00F3,
00FA,
00F4,
00FA,
0006,
0018,
0026,
0019,
00F8,
00E8,
00EE,
00FC,
0001,
0000,
000A,
0011,
0010,
00FF,
00E7,
00E7,
00F7,
0003,
0006,
0002,
0004,
0005,
0000,
00F7,
00F1,
00FD,
0008,
0009,
0005,
0000,
00FE,
00F9,
00F6,
00F2,
00EF,
00EC,
00E8,
00E9,
00EA,
00EE,
00F5,
00F7,
0004,
0002,
0000,
00FF,
00FB,
00F8,
00F7,
00F4,
00F5,
00F8,
00F8,
0007,
0004,
0002,
0003,
0004,
0002,
0000,
00FD,
00FB,
00FA,
00FA,
000E,
000B,
000D,
000F,
0010,
000D,
000A,
0006,
0005,
0002,
0000,
000C,
0009,
000D,
0010,
0010,
000E,
000D,
000A,
0009,
0006,
0006,
0007,
0002,
0003,
0004,
0005,
0005,
0006,
0006,
0004,
0004,
0005,
0001,
00FE,
00FC,
00FB,
00FB,
00FB,
00FE,
0001,
00FF,
0000,
00FF,
0000,
00FF,
00FC,
00FA,
00FA,
00F9,
00FA,
00FC,
00FD,
00FE,
00FE,
0004,
0004,
0000,
0000,
00FD,
00FD,
00FF,
00FF,
00FF,
0000,
0000,
0002,
0004,
0001,
0001,
00FF,
00FF,
0000,
0001,
0000,
0001,
0000,
00FD,
00FF,
00FB,
00FD,
00FD,
00FC,
00FC,
00FD,
00FE,
00FF,
00FB,
0000,
0003,
0001,
0001,
0003,
0006,
0007,
0005,
0004,
0001,
0001,
00FE,
0000,
00FF,
0002,
0001,
0003,
0005,
0003,
0003,
0002,
00FF,
00FD,
00FE,
0000,
00FE,
00FC,
00FC,
00FD,
00FE,
0000,
0002,
00FD,
0002,
0003,
0002,
0000,
00FF,
00FF,
00FF,
00FE,
00FF,
0001,
00FD,
0003,
0004,
0003,
0002,
0001,
0004,
0005,
0001,
0000,
00FF,
00FD,
0000,
00FF,
0000,
0000,
0001,
0003,
0002,
00FF,
00FE,
00FF,
00FE,
0000,
00FE,
0000,
0001,
0000,
0000,
00FF,
00FB,
00FA,
00FE,
00FE,
0003,
0002,
0001,
0001,
00FF,
00FD,
00FB,
00FC,
00FC,
00FE,
00FD,
0005,
0004,
0002,
0000,
00FF,
0000,
0000,
00FF,
00FD,
00FE,
00FC,
0009,
0006,
0007,
0004,
0002,
0004,
0002,
0003,
00FE,
00FD,
00FF,
0009,
0009,
0009,
0007,
0006,
0005,
0003,
0003,
0003,
0004,
0006,
000A,
000A,
000C,
0008,
0005,
0002,
00FF,
00F9,
00F4,
00F5,
00F5,
000D,
000E,
000E,
000A,
0007,
0003,
0000,
00F9,
00F3,
00F2,
00F5,
0013,
0015,
0015,
000F,
0007,
0003,
00FD,
00F5,
00EB,
00EA,
00EF,
0019,
0019,
0017,
000E,
0004,
00FF,
00F9,
00F0,
00E9,
00E5,
00EA,
001E,
001B,
0017,
000C,
0002,
00FC,
00F6,
00ED,
00E5,
00E2,
00E6,
0022,
001E,
0019,
000E,
0003,
00FB,
00F4,
00EA,
00E2,
00E0,
00E4,
0021,
0020,
001C,
0012,
0007,
00FE,
00F6,
00EC,
00E5,
00E4,
00E6,
0021,
0021,
001F,
0016,
000A,
0001,
00F9,
00EF,
00E7,
00E5,
00E7,
001D,
001D,
001A,
000F,
0003,
00FC,
00F7,
00F0,
00E8,
00E5,
00EB,
0014,
0015,
0013,
000A,
0001,
00FD,
00F8,
00F3,
00EC,
00EB,
00F1,
000F,
0010,
000F,
0007,
00FF,
00FC,
00F7,
00F3,
00EE,
00EE,
00F5,
00F6,
00EF,
00ED,
00EE,
00F8,
0005,
0011,
0016,
0013,
000C,
000B,
00F3,
00EA,
00E6,
00EB,
00F7,
0006,
0012,
0018,
0016,
000F,
000C,
00EB,
00E3,
00DF,
00E5,
00F0,
0000,
000C,
0015,
0017,
0012,
000E,
00EC,
00E8,
00E4,
00E5,
00EC,
00F7,
0002,
000B,
0010,
000E,
000C,
00F5,
00F5,
00F2,
00F1,
00F1,
00F4,
00F9,
0000,
0005,
0007,
0008,
0000,
0004,
0001,
0000,
00FB,
00F8,
00F7,
00F8,
00FA,
00FD,
0000,
000E,
0015,
0014,
0012,
000B,
0004,
00FB,
00F4,
00F3,
00F6,
00FA,
0018,
001F,
0024,
0021,
0018,
000A,
00FB,
00EE,
00EB,
00EF,
00F5,
0012,
001D,
0023,
0020,
0015,
0006,
00F6,
00EC,
00EA,
00EC,
00F2,
000A,
0014,
001B,
0014,
000B,
0000,
00F7,
00EE,
00EA,
00ED,
00F3,
000A,
000E,
0013,
000F,
0009,
0001,
00FB,
00F2,
00EF,
00F1,
00F4,
00FF,
00FB,
00F9,
00F7,
00F6,
00F8,
00FB,
00FE,
0001,
0001,
0004,
000B,
000F,
0010,
000E,
000E,
000D,
000D,
000D,
000F,
000F,
000B,
0005,
000D,
0017,
0020,
0025,
0024,
0022,
001B,
0012,
000C,
0007,
00F7,
00F7,
00F6,
00F6,
00F6,
00F4,
00F2,
00F1,
00EE,
00F2,
00F5,
00F0,
00E5,
00D1,
00C0,
00B7,
00B7,
00BE,
00CA,
00D9,
00E9,
00F1,
00F3,
00EA,
00DE,
00D6,
00CF,
00D0,
00DB,
00E5,
00F0,
00F9,
00FA,
0005,
000D,
001A,
0025,
002D,
002A,
0025,
001A,
000E,
0005,
0000,
0013,
0022,
0036,
0046,
004F,
004B,
003F,
002C,
001B,
000B,
0004,
000B,
000B,
000B,
0007,
0007,
0008,
0008,
0009,
000A,
0008,
0005,
00FB,
00F3,
00EB,
00E1,
00DC,
00DD,
00E6,
00EE,
00F7,
00FD,
00FF,
00F9,
00F8,
00F9,
00FA,
00F9,
00F9,
00FA,
00FB,
00FA,
00FC,
00FD,
0012,
0017,
001D,
0020,
0021,
001F,
001B,
0015,
000D,
0007,
0001,
0009,
000C,
0007,
0001,
00F6,
00ED,
00EC,
00ED,
00EF,
00F5,
00F8,
00F9,
00EE,
00DB,
00CE,
00C5,
00C3,
00C9,
00D4,
00E2,
00EF,
00F8,
00E5,
00D5,
00C4,
00BE,
00BF,
00C6,
00D1,
00DF,
00EE,
00F7,
0001,
00E8,
00E0,
00DA,
00DF,
00E4,
00EE,
00F8,
00FF,
0008,
000A,
000E,
00F1,
00F4,
00F7,
00FD,
0005,
000C,
000F,
0012,
0013,
000F,
0010,
00F7,
0000,
0006,
0010,
0016,
001C,
001E,
001F,
001A,
0013,
000F,
0001,
000D,
0017,
001F,
0028,
0033,
0035,
0032,
0029,
0019,
000D,
000F,
0019,
0022,
0029,
0030,
0035,
0034,
002C,
0020,
000F,
0001,
0010,
0013,
0017,
0019,
0015,
0012,
000C,
0003,
00F9,
00F4,
00F1,
0001,
00FB,
00F6,
00F0,
00E8,
00E3,
00DC,
00D9,
00DC,
00E2,
00ED,
0007,
0001,
00FD,
00F6,
00F1,
00F2,
00FA,
0009,
0015,
0016,
000E,
000A,
0008,
0005,
00FF,
00F1,
00E4,
00E2,
00EE,
0007,
0015,
0017,
0005,
0007,
0009,
0008,
00F9,
00E3,
00D2,
00D2,
00ED,
0008,
0018,
0001,
0009,
000F,
0011,
0007,
00ED,
00D5,
00C6,
00D1,
00EF,
000C,
00FA,
0005,
0013,
001C,
0017,
0001,
00E8,
00D3,
00CF,
00DF,
00FB,
00F6,
0002,
0013,
0025,
0026,
0019,
0000,
00E8,
00DD,
00DC,
00EF,
00EF,
00FA,
0010,
0029,
0035,
002D,
0019,
0005,
00F3,
00E9,
00ED,
00EA,
00F0,
0004,
0020,
0032,
0035,
002E,
001C,
0009,
00F8,
00F0,
00EB,
00E5,
00EE,
0001,
0014,
001F,
0026,
001F,
0013,
0003,
00F7,
00F5,
00E5,
00E2,
00EC,
00FA,
0008,
0012,
0015,
0010,
0008,
00FB,
0003,
00F1,
00E5,
00E2,
00E9,
00F3,
00FD,
0005,
0009,
000A,
0004,
0004,
00FF,
00FD,
00FD,
00FF,
0002,
0004,
0006,
0006,
0006,
0004,
00FF,
00FD,
00FB,
00FA,
00FB,
00FD,
0000,
0005,
0006,
0006,
0004,
00FA,
00F4,
00F1,
00F0,
00F4,
00FA,
0001,
0007,
0008,
0008,
000A,
00F3,
00EA,
00E7,
00E8,
00F1,
00FA,
0005,
000E,
0011,
0011,
000D,
00EB,
00E5,
00E2,
00E8,
00F3,
00FE,
000A,
0015,
001A,
001B,
0013,
00E7,
00E2,
00E1,
00E6,
00F2,
0000,
000E,
001C,
001E,
001E,
0015,
00E8,
00E3,
00E3,
00E8,
00F5,
0006,
0014,
001F,
0022,
001E,
0013,
00EC,
00E9,
00E6,
00EB,
00F7,
0006,
0014,
001E,
0020,
001A,
000C,
00EF,
00EC,
00EC,
00F1,
00FA,
0007,
0014,
001B,
0019,
0010,
0005,
00F7,
00F1,
00F0,
00F4,
00FD,
0004,
000D,
0012,
000F,
0006,
0001,
00F9,
00F4,
00F1,
00F3,
00F9,
0001,
0008,
000B,
0007,
0002,
00FF,
00FB,
00FA,
0008,
0014,
000D,
00FF,
00F2,
00ED,
00F6,
0005,
0004,
00F8,
00F2,
0005,
001B,
0016,
00FE,
00EA,
00E7,
00FB,
000E,
0007,
00F3,
00E8,
000A,
002D,
0022,
00FE,
00DC,
00D8,
00FB,
0015,
000A,
00EE,
00E2,
000D,
0039,
002C,
00FC,
00D0,
00CF,
00FD,
001B,
000A,
00E9,
00DE,
0010,
0040,
0032,
00FA,
00C9,
00C9,
00FE,
001F,
0009,
00E9,
00DD,
000E,
003C,
0034,
00FB,
00CA,
00CB,
00FE,
0022,
0008,
00EA,
00E0,
000A,
0034,
0030,
00FF,
00CE,
00CD,
00FD,
0021,
0006,
00ED,
00E4,
0006,
002A,
0028,
0001,
00D7,
00D5,
0000,
001C,
0003,
00EF,
00EB,
0004,
0021,
001D,
0001,
00E2,
00DE,
00FF,
0014,
0001,
00F6,
00F3,
0003,
0017,
0014,
0001,
00EF,
00EB,
00FF,
000C,
0001,
00F9,
00FC,
0008,
0013,
000C,
0000,
00F4,
00EF,
00F8,
0006,
0002,
0001,
00FA,
00F6,
00F8,
0003,
0009,
0006,
0004,
0002,
00FF,
00FC,
00FC,
00F0,
00F1,
0002,
0018,
0012,
0006,
00FE,
00FB,
00F9,
00FB,
00F2,
00EC,
00FF,
0020,
0027,
000F,
00FA,
00F1,
00F4,
00FA,
00FF,
00ED,
00F8,
0018,
002E,
001D,
00F9,
00E6,
00E5,
00F2,
00FD,
0005,
00F5,
000A,
0023,
0025,
0008,
00E6,
00D8,
00E3,
00F8,
0004,
000D,
0004,
0014,
001D,
0013,
00EF,
00D3,
00D6,
00EC,
0003,
0012,
0012,
000C,
0014,
0013,
00FC,
00D7,
00D3,
00E8,
0000,
0015,
001C,
000D,
000B,
000C,
0002,
00E5,
00D4,
00E4,
0001,
0015,
001F,
0014,
00FE,
0007,
0001,
00F2,
00DE,
00E5,
00FD,
0010,
0019,
0014,
0002,
00F4,
0003,
00F8,
00EF,
00EB,
00F9,
000F,
0016,
0012,
0004,
00FB,
00F8,
0000,
00F8,
00F7,
00FF,
000A,
0013,
000D,
0001,
00FB,
00FB,
00FB,
00FF,
00FE,
00FD,
00FE,
0002,
0001,
0004,
0005,
0004,
0004,
0006,
00FF,
00FE,
00FE,
00FE,
00FF,
0001,
0001,
0001,
0002,
0003,
0004,
00FE,
00FE,
00FF,
00FF,
00FD,
0001,
0001,
0000,
0002,
0004,
0004,
0000,
00FE,
0000,
00FF,
00FF,
00FD,
00FE,
00FF,
0000,
0003,
0004,
0001,
00FF,
0000,
00FE,
00FD,
00FB,
00FA,
00FD,
0000,
0003,
0005,
00FE,
0000,
0001,
0000,
00FD,
00FA,
00FA,
00FA,
00FF,
0001,
0003,
0002,
0001,
0001,
0002,
00FF,
00FB,
00F9,
00FA,
00FF,
0002,
0003,
0001,
0000,
0002,
0002,
00FE,
00FB,
00F8,
00F8,
00FC,
0000,
0001,
0002,
0002,
0001,
0003,
0001,
00FD,
00FC,
00FC,
00FD,
00FE,
00FD,
0001,
0001,
0003,
0002,
0002,
00FF,
00FF,
00FD,
00FE,
00FE,
00FE,
0008,
0006,
0008,
0006,
0005,
0001,
0000,
00FF,
00FF,
00FE,
00FB,
0000,
0000,
00FF,
0000,
0000,
0000,
00FF,
00FF,
00FD,
00FE,
0000,
0001,
0000,
00FF,
00FF,
0002,
0002,
0002,
0001,
0001,
0001,
0002,
00FC,
00FC,
00FB,
00FB,
00FE,
00FE,
00FC,
00FE,
00FE,
00FE,
0000,
00FB,
00FB,
00FB,
00FA,
00FB,
00FC,
00F8,
00FB,
00FB,
00FD,
0000,
0002,
0000,
00FF,
00FE,
00FF,
00FD,
00FD,
00FF,
0001,
0002,
0006,
0008,
0006,
0006,
0006,
0006,
0006,
0007,
0008,
0008,
0007,
0009,
000A,
0009,
000D,
000E,
000F,
0010,
0011,
0012,
000D,
0008,
0008,
0008,
0009,
000C,
000B,
000E,
000E,
000D,
000B,
0007,
0002,
0003,
0003,
0002,
0003,
0002,
0001,
00FE,
00FC,
00FA,
00FA,
00FB,
00FF,
00FD,
00FB,
00F9,
00F6,
00F5,
00F4,
00F3,
00F4,
00F8,
00FB,
00FC,
00F5,
00F3,
00F0,
00EB,
00EC,
00ED,
00F0,
00F4,
00F7,
00F9,
00F9,
00FC,
00FC,
00FA,
00FB,
00FD,
00FF,
0000,
0001,
00FF,
00FF,
0000,
00FD,
00FE,
00FD,
00FE,
0000,
0002,
0002,
0000,
0002,
0000,
00FE,
00FB,
00FD,
00FB,
00FA,
00FD,
0000,
0003,
0001,
0001,
0001,
0001,
00FC,
00FE,
00FB,
00FB,
00FD,
0003,
0004,
0004,
0005,
0003,
0002,
00FA,
00FC,
00FB,
00FB,
00FC,
0002,
0004,
0003,
0004,
0003,
0003,
00FB,
00FD,
00FC,
00FD,
00FF,
0001,
0005,
0006,
0005,
0003,
0003,
00FC,
00FE,
00FD,
00FF,
0000,
0002,
0004,
0006,
0007,
0004,
0003,
00FB,
00FF,
00FC,
00FE,
00FF,
0001,
0004,
0007,
0007,
0004,
0003,
00FC,
0000,
00FF,
00FF,
00FF,
0002,
0006,
0004,
0003,
0002,
0001,
00FC,
0000,
00FE,
00FF,
00FF,
0000,
0002,
0002,
0002,
0001,
0000,
00FC,
0002,
0001,
0004,
0004,
0005,
0006,
0004,
0004,
0000,
00FE,
00FD,
00FE,
0000,
0003,
0003,
0001,
00FF,
00FF,
00FF,
00FF,
00FA,
00FD,
00FF,
0001,
0004,
0002,
0002,
0000,
00FF,
0001,
0001,
00FD,
00FC,
0001,
0003,
0006,
0005,
0001,
00FE,
00FC,
00FD,
00FF,
00FA,
00FE,
0002,
0004,
0006,
0004,
0001,
00FC,
00FD,
00FD,
00FF,
00FB,
00FE,
0002,
0006,
0009,
0006,
0001,
00FA,
00FA,
00FD,
00FE,
00F9,
0001,
0003,
0007,
000B,
0006,
0001,
00FD,
00FC,
00FD,
00FE,
00F9,
0001,
0005,
0006,
0007,
0008,
0002,
00FD,
00FD,
00FE,
00FE,
00F9,
0001,
0005,
000A,
000A,
0007,
0001,
00FB,
00FA,
00FE,
00FE,
00F9,
0000,
0003,
0008,
000B,
0008,
0003,
00FD,
00FA,
00FC,
00FE,
00F8,
0000,
0003,
0006,
0008,
0004,
0001,
00FC,
00FB,
00FC,
00FE,
00FA,
00FE,
0002,
0008,
000C,
000A,
0006,
0002,
00FE,
00FC,
00FC,
00F6;