memory_initialization_radix=16;
memory_initialization_vector=
0000,
00FE,
00FA,
0001,
0000,
00FB,
0005,
0001,
00FD,
00FD,
0002,
00FD,
00FD,
0000,
0002,
00FF,
00FD,
0000,
0003,
00FE,
00FF,
0002,
0005,
0003,
0004,
000B,
000E,
00FD,
00FC,
00FC,
0001,
00FF,
00FD,
0005,
0000,
00FF,
00FD,
00FF,
00FF,
00FC,
00FB,
00FB,
00FD,
00FE,
0002,
0001,
0001,
0002,
00FD,
00FC,
00FB,
00FB,
00F9,
00FB,
00F9,
00FC,
00FB,
0004,
0007,
00FE,
0007,
000A,
0000,
0003,
0000,
0001,
0003,
0000,
00FE,
0008,
0000,
00FD,
00FD,
00FF,
0000,
00FC,
00FD,
00FE,
00FE,
00FE,
0002,
00FB,
00F9,
00FC,
00FC,
00FA,
00FE,
00FC,
00FE,
0002,
00FD,
00FD,
0002,
00FA,
00FB,
00FF,
00FB,
00FC,
00FD,
0004,
00FC,
0004,
0005,
0001,
0003,
0005,
0000,
00FB,
00FA,
00FA,
00F8,
00F9,
00FA,
00F9,
0004,
0003,
0000,
00FB,
00FC,
00FA,
0001,
0002,
0000,
00F8,
00F9,
00F7,
00FC,
00FE,
0000,
00FC,
00FF,
0002,
0002,
00FE,
0000,
00FD,
00FB,
00FD,
0003,
0002,
0002,
0007,
0002,
00FE,
00FE,
00F8,
00FD,
0002,
00FD,
00FB,
00FF,
00FA,
00FC,
0003,
0006,
0001,
00FF,
0001,
00FE,
00FD,
00FD,
00FE,
00FC,
00F9,
00F8,
00FD,
00FA,
00FA,
00FE,
00FC,
00FD,
0000,
0004,
00FD,
0005,
000A,
0004,
0005,
0007,
0002,
000B,
000C,
000F,
000B,
0009,
0008,
0005,
0000,
00FD,
00FE,
0004,
0003,
00F9,
00FE,
00FD,
00FD,
00FE,
00FB,
00FB,
00FE,
00FC,
00F7,
00F9,
00FB,
00F8,
00F8,
00FB,
0005,
00FD,
00FB,
0004,
00FD,
00FA,
0001,
00FD,
00FA,
00FC,
0004,
0002,
0005,
0009,
0006,
00FB,
00FE,
00FD,
00F6,
00FD,
0000,
00F6,
00FD,
00FE,
00F8,
00FE,
0003,
00FB,
00FB,
00FB,
00FD,
00FC,
00FB,
00FB,
00FA,
00FA,
00FC,
00FD,
00FB,
0003,
0001,
0000,
00FC,
00F9,
00FC,
0000,
00FB,
00FC,
0001,
0000,
0000,
0003,
0004,
00FD,
00F8,
00FF,
00FA,
00FB,
0004,
0006,
00FF,
00FC,
0003,
0001,
0000,
00FE,
00FD,
00FE,
0002,
00FB,
00FF,
0000,
0000,
0003,
00FF,
00FE,
00FF,
00FE,
0002,
0001,
0000,
0001,
0005,
00FE,
0002,
0004,
00FC,
0000,
00FD,
00FB,
00FB,
00FB,
00F7,
00FD,
00FA,
00FA,
00FE,
00FF,
00FD,
0002,
0002,
0006,
0001,
00FF,
0001,
00FE,
00FE,
00FB,
00FF,
0003,
0003,
00FF,
00FD,
00FD,
0001,
00FD,
00FD,
0002,
0002,
0000,
00FD,
00FF,
00FA,
00FE,
0000,
00FA,
00FD,
00FA,
00F9,
0003,
0002,
0003,
0005,
0002,
0006,
0001,
00FD,
00FF,
0001,
00FA,
00FC,
0004,
00FC,
0000,
0002,
00FF,
00FB,
0001,
00FD,
00FD,
00FB,
00FB,
00FD,
00FB,
00FC,
00FB,
00FF,
00FF,
00FE,
0000,
00FF,
00FF,
00FF,
00FB,
00FE,
00FE,
00FB,
0001,
0000,
00FF,
0002,
00FD,
00FA,
0002,
00FA,
0001,
0007,
0000,
0001,
0007,
0000,
0003,
0001,
0002,
0001,
00FF,
00FD,
00FE,
00FF,
0006,
0005,
0001,
0000,
0001,
00FD,
0003,
0006,
0002,
00FC,
0001,
00FF,
0006,
000E,
0009,
00FE,
0001,
00FF,
00FD,
0015,
0004,
0000,
0019,
0004,
00F8,
0008,
00FD,
00FD,
00FA,
00FD,
00F9,
00F9,
00FC,
00F9,
00F6,
00FE,
0000,
00FE,
00FE,
0001,
0002,
0000,
0001,
0004,
0006,
0004,
00FD,
00FB,
00FF,
00FB,
00FC,
00FD,
00FD,
0000,
00FD,
00F9,
00FA,
00FA,
00F9,
00FA,
00FA,
00F7,
00FA,
00FE,
00FF,
00FD,
00FE,
0001,
00FC,
0001,
0003,
00FC,
0000,
0003,
0006,
0008,
0008,
000B,
0004,
0009,
0006,
0002,
00FE,
00FE,
00FD,
00F7,
00FA,
0005,
0001,
0000,
0004,
0002,
00FE,
0008,
0000,
0000,
0001,
00FC,
0001,
00FF,
0002,
0003,
0002,
0004,
0004,
00FF,
0004,
0000,
0008,
000F,
0002,
0000,
0006,
00FF,
00FE,
0003,
0001,
00FD,
00FB,
0001,
00FD,
00FA,
00FF,
00FF,
00FE,
0001,
00FF,
00FC,
00FB,
0000,
00FA,
00FC,
00FF,
00F9,
00FE,
0005,
0008,
000B,
00FC,
0001,
00FE,
00FC,
00FF,
00FF,
0005,
0002,
0004,
0003,
0003,
0001,
0002,
0001,
00FE,
0004,
00FE,
0000,
0004,
00FF,
00FF,
0003,
0002,
0000,
0006,
00FE,
0003,
0001,
00FC,
00FD,
0002,
00F9,
00FC,
00FD,
00FA,
00F9,
0000,
0002,
00FE,
0004,
0005,
00FE,
00FC,
00FE,
00FF,
00FE,
0001,
0001,
0000,
00FF,
00FF,
0001,
00FE,
00FE,
00FE,
0000,
00FD,
00FF,
00FE,
00FC,
0001,
0002,
0002,
00FD,
00FF,
0001,
00FF,
0002,
0005,
0000,
00FE,
00FF,
0000,
00F8,
00FC,
00FF,
00F8,
00FE,
0001,
00FF,
00FD,
000A,
000A,
0006,
0004,
0003,
00FC,
00FD,
00FE,
0000,
00FE,
00F9,
00FD,
00FD,
00FB,
00FE,
00FF,
0006,
0006,
0000,
0006,
0005,
0000,
0004,
00FF,
00FD,
00FE,
0000,
00FA,
00FE,
00FE,
00FB,
00FE,
00FD,
00FD,
00FD,
00FA,
00FF,
0002,
00FD,
0001,
00FC,
00FA,
00FD,
00FD,
00FB,
0001,
0001,
0002,
00FD,
0000,
0005,
00FC,
00FD,
0000,
00FC,
00FD,
00FD,
00FC,
00FC,
00FC,
00FF,
00FF,
00FE,
00FF,
00FB,
00FB,
0001,
00FE,
00FF,
00FB,
00FA,
00FC,
00FB,
00FC,
00FD,
0008,
0005,
0000,
00F9,
00FB,
00F7,
00F7,
00FC,
00FA,
00FB,
00FD,
00F9,
00FA,
00FC,
0001,
00FB,
00F9,
00FF,
0005,
0000,
0008,
00FE,
0002,
0004,
0002,
0007,
0005,
00FC,
00FE,
0001,
0004,
0005,
0002,
0001,
0001,
0004,
00FF,
00FE,
00FD,
00FA,
00FD,
00FD,
00FC,
00FD,
00FA,
00FE,
00FE,
00FE,
0004,
000C,
0008,
0006,
000B,
0006,
00FA,
00FE,
00FB,
0002,
00F9,
00FE,
00FF,
00F9,
00FD,
00FE,
00FE,
00FF,
0001,
0002,
0005,
00F8,
00FE,
0000,
00FA,
00FB,
00FF,
0005,
0000,
0004,
00FD,
00FA,
00FD,
00FC,
00FA,
00FA,
0001,
00FC,
00FC,
0000,
00FE,
00FC,
00FF,
00FD,
00FC,
0002,
0002,
00FC,
0000,
00FD,
00FE,
0000,
00FC,
00FD,
00FE,
00FE,
00FE,
00FF,
0004,
0000,
00FF,
0005,
00FF,
0002,
0015,
0002,
0000,
0015,
0003,
00FF,
0008,
00FC,
00FF,
00FC,
0007,
00FF,
00FD,
0004,
00FC,
00FD,
0003,
00FC,
00FE,
00FB,
00FE,
0003,
00FF,
00FE,
0001,
00FE,
0006,
00FC,
00F9,
0000,
00FA,
00FD,
0000,
00FD,
0002,
0004,
00FE,
00F8,
0001,
0001,
00FB,
0002,
0004,
00FD,
0002,
0004,
00FE,
0009,
0006,
0000,
000C,
0005,
0007,
00FC,
00FA,
0000,
00FE,
00FA,
00FF,
0001,
0001,
0002,
0005,
0008,
0007,
00FE,
00FE,
00FE,
00FB,
00FA,
00FE,
0008,
0001,
0003,
0002,
00FA,
00FC,
0002,
00FE,
00FE,
00FE,
00FB,
0002,
0000,
00FA,
00FD,
0005,
0000,
00FE,
0004,
0002,
0003,
00FF,
0000,
00FC,
00FA,
00FB,
00F9,
0004,
0005,
0005,
0001,
0003,
0004,
0005,
0005,
0009,
00FC,
00FB,
0000,
00F9,
00F6,
00FB,
00F6,
00F7,
00FB,
00FD,
00F7,
00FB,
00FB,
00F2,
00F7,
0001,
00FA,
00FD,
00FF,
0000,
00FC,
0000,
0001,
00FC,
0001,
0002,
00FC,
0001,
0007,
000D,
00FC,
0001,
000A,
0000,
0001,
0005,
0007,
0006,
0008,
00FD,
0003,
0003,
0000,
0009,
0003,
0004,
0000,
0000,
0005,
00FA,
00F7,
0004,
00FB,
00F5,
0003,
00FB,
00FB,
0003,
00FC,
00FB,
0004,
00FA,
00FC,
0002,
000C,
00FE,
0007,
0009,
00F8,
0003,
0002,
00F7,
0005,
00FC,
00F5,
0006,
00FF,
0001,
0007,
00FF,
0000,
00FD,
0002,
0001,
00FF,
0002,
0000,
0002,
0002,
0000,
00FD,
00FF,
00FC,
0001,
0008,
0003,
0001,
0006,
0003,
0009,
00FE,
00FD,
0001,
00FC,
0000,
00FE,
00FF,
0005,
00FF,
0003,
00FD,
00FC,
00FD,
00FC,
0002,
00FC,
00FC,
00FF,
0005,
000A,
00FD,
0000,
0002,
00FB,
00FC,
00FD,
00F8,
00F9,
00FB,
00F3,
00F9,
00FD,
00F6,
00FF,
0001,
0000,
00FA,
0004,
0002,
00FB,
0002,
0003,
00FE,
00FF,
000B,
0004,
00FF,
0000,
00F8,
00F9,
0000,
00F9,
0000,
000E,
0004,
0009,
000B,
00FF,
0006,
0001,
00FA,
00FC,
0004,
0000,
00FE,
00FD,
00FC,
00FF,
00FE,
00FE,
0000,
00FC,
00FD,
00F9,
00FC,
00FD,
00FE,
00FE,
00FE,
0001,
0001,
0004,
0001,
0000,
0000,
00FB,
00FF,
00FD,
00FB,
00FC,
0004,
0001,
00FB,
0002,
00FB,
00FE,
00FD,
00FC,
0000,
0004,
00FD,
0000,
0000,
00FB,
00FE,
00FD,
00FD,
0009,
0004,
0006,
0006,
0002,
0007,
0006,
0005,
000F,
0000,
0000,
00FC,
0006,
0005,
00FE,
0003,
0004,
00FF,
00FA,
00FA,
00FA,
00FA,
00FA,
00F9,
00FD,
0000,
00FF,
00FE,
0001,
00FC,
00FD,
0002,
00FC,
00FE,
0002,
00FE,
00FF,
00FE,
000B,
00FA,
00FA,
0005,
00FF,
00FB,
00FB,
00FE,
00FF,
00FE,
0001,
00FF,
00FE,
0003,
00FE,
00FE,
00FE,
0000,
00FD,
0000,
00FF,
0000,
00FF,
0001,
0003,
00FB,
00FA,
00FA,
00FA,
00F7,
00FA,
00FB,
00F4,
00F7,
00F9,
00FB,
00FD,
0005,
0002,
00FC,
0005,
00FD,
00FE,
00FC,
0000,
0000,
00FE,
0001,
00FE,
00FF,
0005,
0000,
00FF,
00FD,
0004,
0000,
00FE,
0006,
0000,
00FF,
0002,
0000,
0002,
0001,
0003,
0004,
0001,
0006,
0006,
0005,
00FE,
0003,
0004,
00FF,
00FF,
0000,
0002,
0003,
0008,
00FE,
00FF,
00FB,
00FE,
00FB,
00FB,
0003,
00FA,
00FC,
0003,
0002,
0000,
0004,
0009,
0003,
0005,
000B,
0006,
0001,
0007,
000E,
00FB,
00FC,
0005,
00FF,
00FD,
0002,
00FD,
0000,
00FF,
00FE,
00FC,
00FA,
00FC,
00F9,
00FA,
0003,
0002,
00FD,
0002,
00FD,
00FB,
0003,
00FD,
00FB,
0001,
00FB,
0002,
0005,
00F8,
00FE,
0005,
00FD,
00FC,
0002,
0002,
00FE,
0002,
0004,
00FF,
0002,
00FF,
00FE,
0002,
00FF,
00FB,
00FE,
00FD,
00FE,
00FB,
00FB,
0001,
0003,
000C,
0008,
00FF,
00FE,
00FF,
00FE,
00F8,
00FC,
00FF,
00FD,
00FE,
00FE,
00FD,
0001,
0001,
00FD,
00FD,
00FF,
0002,
0004,
0000,
0005,
0009,
00FF,
0001,
0000,
0005,
0001,
00FF,
0000,
00FA,
00FE,
0000,
00FA,
00FD,
00FD,
00F9,
00FD,
0000,
00FC,
00FC,
00FD,
00F8,
00FB,
00FE,
0002,
00FD,
00FF,
0003,
00FF,
0004,
0002,
0004,
0001,
00FE,
00FD,
00FC,
00FF,
00FB,
00FF,
0006,
00FB,
00FC,
00FB,
00FF,
00FE,
00FF,
00FF,
0002,
0000,
00FE,
00FB,
00FA,
00FF,
00FD,
00FD,
00FE,
00FD,
00FE,
0003,
0000,
00FC,
00FD,
00FC,
00F9,
00F7,
00FA,
00F8,
00F7,
00FF,
00FA,
00F9,
0000,
00FA,
00FF,
00FF,
00FC,
00FF,
00FF,
0001,
00FF,
0000,
00FD,
00FC,
0001,
00FD,
00FC,
0000,
0001,
0000,
00FC,
00FE,
00FB,
0000,
0000,
00FF,
0004,
0003,
0004,
0003,
0000,
0002,
0004,
00FF,
0000,
00FB,
00FC,
00FF,
00FC,
00FD,
00FF,
00FB,
00FF,
0003,
00FF,
00FC,
0000,
00FD,
00F6,
00F8,
00FF,
00FC,
00F8,
000B,
0007,
0007,
0006,
0000,
0007,
0003,
0004,
0006,
0000,
0005,
00FD,
00FD,
0001,
00FE,
00FA,
0003,
0002,
00FD,
00FA,
00FD,
0000,
0000,
0002,
00FC,
0000,
00FC,
00FF,
00FE,
00FA,
00FE,
00FC,
00FC,
00FD,
0000,
00FE,
0000,
00FD,
0000,
00FF,
0000,
0000,
0002,
0003,
0003,
00FF,
00FD,
00FB,
0002,
00FD,
00FB,
0002,
0000,
00FC,
00FB,
00FB,
00FD,
00FF,
0008,
000C,
00FD,
0002,
0006,
0002,
0005,
0004,
0003,
0005,
0004,
0008,
0009,
0007,
00FA,
00FC,
00FD,
00FE,
00FC,
00FC,
0000,
00FF,
00FB,
0004,
00FD,
00FA,
0002,
00FF,
00FA,
0000,
00FE,
00FD,
00FF,
00FB,
00FE,
0005,
0003,
0007,
0007,
0002,
0006,
00FF,
0005,
0002,
0003,
0006,
0004,
0002,
00FF,
00FA,
0003,
0007,
0001,
0008,
0006,
0005,
0006,
00FC,
0000,
0002,
00FA,
00FC,
00FE,
00FB,
00FD,
00FB,
00F7,
00FC,
00FE,
00FB,
00FC,
0002,
00FF,
00FD,
0001,
0002,
00FF,
00FF,
0002,
00FA,
0001,
0000,
00FA,
0002,
0002,
00FD,
00FF,
0000,
0001,
0001,
00FD,
00FF,
0002,
0002,
00FE,
0002,
0002,
00FD,
00FB,
0000,
00FF,
00F6,
00FD,
00FC,
00FD,
00FF,
0003,
00FE,
00F9,
00FF,
0002,
00FE,
0001,
00FF,
00FF,
00FD,
0000,
0000,
00FB,
00FF,
00FE,
00FD,
0009,
0005,
0005,
0005,
0002,
00FF,
00FF,
0004,
0002,
0001,
00FE,
00FB,
00FD,
00FD,
00FB,
00F9,
00FA,
00FB,
0006,
000C,
0004,
0000,
0000,
0000,
00FE,
00FB,
0000,
00FF,
00FE,
0001,
0003,
00FE,
00FF,
0007,
00FE,
00FF,
00FD,
00FB,
00FF,
00FE,
00FD,
00FB,
00FC,
00F7,
00FA,
0004,
0001,
0006,
0000,
00FD,
0000,
00FC,
00F9,
00F9,
00FD,
00FB,
00FB,
0000,
00FE,
00FE,
00FF,
00FD,
00FD,
00FA,
00F8,
00F9,
00F9,
00F8,
00FA,
00F9,
00F8,
00FC,
0001,
0002,
00FA,
00FF,
00FF,
00FC,
0003,
00FF,
00FF,
0000,
0002,
00FD,
00FE,
0001,
00FD,
0006,
0009,
0005,
00FF,
00F7,
00F7,
0000,
00FC,
00FC,
0003,
0003,
0001,
00FD,
0000,
0000,
0003,
0003,
0000,
00FD,
00FD,
0001,
00FF,
0002,
0009,
00FC,
0005,
0000,
0001,
00FA,
00FE,
0007,
0006,
0000,
0006,
0002,
0003,
0005,
00FF,
0003,
00FD,
00FC,
0001,
0001,
00FC,
00FD,
00FB,
00F9,
00FF,
0002,
0005,
0001,
00FF,
0000,
0005,
00FF,
00F9,
0001,
0006,
00FF,
00FE,
00FF,
00FC,
00FF,
0003,
0001,
00FB,
0009,
0009,
00FE,
0012,
000B,
00F9,
0006,
00FF,
00FF,
0001,
0000,
0004,
00FC,
00FC,
0001,
0005,
0001,
0006,
00FE,
00FE,
00FE,
00FF,
0002,
00FD,
0000,
0002,
0001,
0005,
0003,
0000,
0001,
0012,
00FF,
00FC,
0001,
00FB,
0002,
0007,
0006,
0001,
0004,
0003,
00FF,
0001,
00FF,
00FC,
00FE,
00F7,
0006,
0003,
00FE,
0005,
0006,
0002,
00FE,
00FC,
0002,
0002,
00FF,
00FF,
0005,
00FF,
00FD,
0003,
00FF,
0004,
00FC,
00FC,
0001,
0000,
0002,
0006,
0004,
00FF,
00FA,
00F9,
00FE,
00F9,
00FA,
00FB,
00FD,
0002,
0006,
0001,
0009,
0005,
00FF,
00FE,
00FF,
00FE,
0000,
0000,
0002,
0005,
0005,
000B,
0001,
0002,
0004,
0002,
0000,
00FC,
0005,
0000,
00FF,
0001,
00FC,
00FD,
00FD,
00FD,
00FE,
00FE,
0002,
0003,
00FF,
0001,
0000,
000A,
0001,
0001,
0004,
0000,
0003,
00FE,
0002,
0005,
0000,
00FD,
00FC,
0003,
0000,
0000,
0009,
0004,
0005,
0004,
0001,
0000,
0000,
0002,
0001,
00FF,
00FE,
0000,
0001,
00FD,
0002,
00FF,
00FD,
00FC,
0000,
00FE,
0001,
0003,
0000,
00FA,
0003,
0004,
00FD,
00FB,
0001,
00FB,
0001,
00FF,
00FA,
00FD,
0002,
00FB,
0001,
0008,
00FE,
0004,
0001,
00FD,
0006,
0007,
0001,
00FF,
00FF,
00F8,
00FF,
0003,
00F7,
00FB,
000C,
00FD,
00F7,
0003,
0004,
00FC,
00F8,
00FB,
00FC,
0000,
00FD,
0000,
0002,
0004,
0008,
00FE,
0000,
0003,
00FA,
00FB,
00FD,
0000,
00FF,
0000,
00FE,
0001,
0000,
00FE,
0002,
0002,
0001,
0000,
00F7,
00FB,
00FA,
0004,
0008,
00F9,
00FC,
00FF,
00FF,
0005,
0008,
0002,
0000,
0006,
00FD,
0001,
0001,
0002,
00FE,
00F9,
00FA,
00FA,
00FA,
00FC,
00FB,
00FF,
00FF,
0003,
001B,
00FF,
00FD,
000C,
00FB,
00FF,
0001,
00F9,
00FD,
0002,
00FD,
0001,
0000,
0006,
00FD,
00FF,
0005,
00FE,
0000,
00FD,
0002,
0000,
0001,
0003,
0000,
0003,
00FE,
00FB,
00FC,
0000,
0001,
00FF,
0003,
0006,
0005,
0002,
0002,
0000,
0008,
0002,
0000,
0009,
0002,
0003,
0006,
00FD,
00FC,
000C,
0000,
00FA,
0000,
00FD,
00FD,
0001,
00FC,
00FB,
00FF,
00FD,
00FF,
0004,
0004,
0003,
0001,
00FD,
00FD,
0001,
0000,
00FF,
00FD,
00FF,
00FC,
00FF,
0000,
00FE,
00FC,
00FD,
0000,
00FC,
00FB,
0000,
0001,
0001,
0006,
00FE,
00FE,
0005,
0000,
0002,
00FE,
00FD,
0009,
0002,
00FB,
0006,
0003,
00F8,
00F8,
0008,
0003,
0003,
0005,
0004,
0001,
0009,
0002,
0000,
0005,
00FE,
00F8,
00FB,
00FF,
00FE,
00FC,
00FD,
0001,
00FF,
0004,
0006,
0005,
0000,
0001,
0001,
00FF,
00FC,
00FD,
00FC,
00F9,
00FA,
00FF,
0001,
00FB,
00FC,
0008,
0000,
0006,
0006,
0001,
00FD,
0003,
0001,
00FA,
00FB,
0002,
00FD,
0001,
0000,
00FC,
00FC,
00FE,
00FA,
00FD,
00FF,
0004,
0003,
0007,
00FA,
00FD,
0001,
00FF,
00FC,
0001,
00FE,
00FE,
0005,
00FD,
00FB,
0001,
00FF,
00FD,
00FF,
00FB,
00FE,
0000,
00FD,
00FF,
0000,
00FF,
0001,
0003,
0001,
0009,
0008,
00FC,
000C,
0004,
00FD,
0004,
0001,
00FF,
0000,
00FF,
0002,
0001,
00FD,
0002,
0003,
0001,
0002,
00FF,
00FE,
00FF,
00FD,
00FE,
00FF,
0000,
00F9,
0001,
00FC,
00FC,
0011,
00FD,
00FB,
0008,
00FD,
00F8,
00FD,
00FE,
0002,
00F7,
00FC,
0003,
00F8,
00FA,
0000,
0002,
0005,
0003,
00FF,
0005,
0000,
0000,
0000,
00FD,
0007,
0004,
00FF,
0004,
0001,
00FF,
00FE,
00FF,
0003,
00FF,
00FD,
0002,
00FC,
00FD,
0000,
00FB,
00FF,
0000,
00FF,
0002,
00FF,
00FF,
0000,
00FE,
0003,
0003,
0003,
0000,
0001,
00FB,
0002,
0004,
00FD,
0001,
0005,
00FC,
00FC,
00F9,
00F9,
0000,
00FB,
0000,
0001,
00FE,
00FD,
00F7,
00FA,
00FF,
00FA,
00FB,
0003,
0004,
0005,
0002,
00FF,
00FF,
0002,
0006,
0001,
00FE,
0006,
0002,
0001,
0000,
00FF,
00F8,
0001,
0003,
00FE,
000A,
0004,
0001,
00FE,
00FF,
0001,
0002,
00FE,
00FD,
0008,
0003,
00FD,
00FF,
00F9,
00FD,
0002,
00FB,
00FD,
0001,
00FD,
00FD,
000A,
0006,
0005,
00FB,
0002,
0003,
00F7,
00FD,
00FC,
0004,
0001,
00FF,
0002,
0001,
00FF,
0000,
0002,
0002,
00F9,
00F7,
00FB,
00FA,
00FF,
00FE,
0000,
0002,
00FF,
0001,
00FF,
0001,
00FF,
00FE,
00FF,
0000,
0000,
0002,
00FF,
0001,
00FC,
00FD,
0000,
00FE,
00FF,
00FE,
00FD,
0003,
0000,
00F9,
0003,
00FF,
00FB,
0006,
0001,
0000,
0001,
0002,
00FF,
00FE,
0003,
0005,
0006,
0002,
0002,
000A,
000E,
0001,
00FE,
00F9,
00FD,
00FE,
00FA,
00FD,
0000,
00FD,
00FD,
00FF,
00FD,
00FA,
0001,
0001,
0005,
0000,
0007,
0002,
00FC,
00FE,
0002,
00F6,
00F6,
00FD,
0005,
0005,
00FB,
0009,
0008,
00FC,
0002,
0002,
00FA,
00FE,
0004,
0007,
00F9,
00FB,
0001,
00FD,
00FE,
00FD,
00F7,
0004,
00FD,
000A,
0010,
00FF,
00FE,
0004,
00FE,
0001,
0003,
0005,
00FC,
0003,
0000,
0002,
0000,
0000,
00F5,
00FC,
00FE,
00F8,
00F9,
00F9,
00F9,
00FD,
00FC,
00FE,
00FF,
0001,
0002,
0001,
0000,
0000,
0002,
0002,
00F9,
00FE,
0005,
00F7,
00F9,
00FE,
00FD,
0005,
0001,
00FD,
0003,
00FA,
00FC,
00FD,
00FC,
0000,
0000,
0000,
0001,
0001,
0003,
00FF,
0002,
0001,
0000,
0000,
00FE,
0000,
0000,
00FD,
00FC,
0000,
00FE,
00FE,
0001,
0000,
00FC,
00FC,
00FE,
0003,
0005,
0001,
0006,
0004,
0002,
00FD,
00FA,
00FC,
00FD,
00FA,
00FC,
00FE,
00FB,
00FB,
00FD,
00FE,
00FA,
00F6,
0002,
00FB,
00FB,
00FE,
00FC,
0002,
00FD,
0002,
00FC,
00FE,
0002,
00FF,
0002,
0004,
00FF,
00FC,
00FC,
0003,
00FC,
00FF,
0009,
00FF,
00FD,
00FC,
00FF,
0000,
0000,
0002,
0000,
00FF,
00FE,
0002,
0001,
00FC,
00FC,
0002,
0000,
0001,
0003,
00FD,
0000,
0000,
00FF,
0001,
0006,
0003,
00FE,
0006,
0001,
00FD,
00FC,
00FB,
00FB,
00FC,
00FE,
0001,
00FD,
0005,
0005,
0000,
00FA,
00FB,
00FA,
0001,
0001,
00FD,
0000,
0000,
00FF,
00FE,
0000,
0000,
00FF,
00FF,
0001,
00FF,
00FE,
00FC,
0001,
0006,
0000,
0000,
0002,
0004,
00FC,
0001,
0001,
0000,
0003,
0000,
00FA,
00FC,
0001,
0004,
0006,
0002,
0002,
0000,
0002,
0001,
0002,
0003,
00FD,
0002,
00F5,
00FB,
0001,
0009,
000B,
0003,
00FB,
0003,
0000,
0000,
00FD,
00FE,
000F,
0004,
00FF,
0004,
0000,
00FB,
000A,
0005,
0000,
00FE,
0004,
0006,
00FD,
00FE,
0005,
000A,
0009,
0008,
0005,
00FF,
0000,
00FD,
00FA,
00F8,
00FC,
00FF,
00FE,
0001,
0004,
0003,
0001,
0004,
0004,
00FD,
00FE,
0005,
00FC,
00FB,
0005,
0001,
00FF,
0005,
000A,
0006,
0002,
00FD,
00FD,
00FA,
00FF,
00FD,
00FE,
00FD,
0001,
0002,
00FE,
0000,
0000,
00FF,
0002,
0001,
00FA,
00FB,
0000,
00FC,
0002,
0001,
0002,
0001,
0005,
0003,
00FD,
00FF,
0001,
0002,
0001,
0000,
0002,
0007,
00FD,
00FE,
0002,
00FD,
00FB,
0001,
00FC,
00FB,
0000,
0001,
0001,
0001,
00FC,
00FF,
00FF,
00FA,
00FC,
00FF,
00FD,
00FB,
00F9,
00FE,
00FE,
00FC,
0002,
0002,
0003,
00FB,
00FD,
0002,
00FA,
00FB,
0001,
0005,
0001,
0003,
00FF,
0005,
00FE,
0001,
0000,
00FF,
0001,
0001,
0004,
00FA,
00FF,
0004,
00FE,
0001,
0006,
0000,
0000,
0003,
000D,
000A,
0004,
0004,
000A,
0002,
00FC,
0002,
0002,
001A,
0005,
00F5,
0023,
001E,
00F5,
00F7,
00FE,
00FF,
0002,
0002,
00FD,
0004,
0006,
00FD,
0001,
00FF,
00FE,
0000,
0007,
00FE,
00FC,
0003,
0005,
00FC,
0001,
0003,
0006,
00FF,
00FE,
0007,
0003,
0002,
00FE,
0002,
0000,
00FF,
0000,
0004,
0008,
0003,
000A,
0005,
0005,
0006,
0002,
0004,
0007,
0001,
0005,
0003,
00FB,
0002,
0005,
0002,
0002,
0000,
00FE,
00FC,
00FC,
0001,
00FE,
00FF,
00F9,
00F6,
00FD,
00FF,
00FD,
0000,
0003,
0001,
0001,
00FC,
00FF,
0001,
0000,
0004,
0007,
00FA,
00FD,
0003,
0002,
00FD,
00FE,
00FF,
0001,
0004,
0000,
0006,
0003,
00FD,
00FD,
00F6,
00FE,
0007,
0001,
00FF,
0007,
0001,
00FD,
0004,
0006,
0003,
0000,
0003,
0002,
0000,
00FF,
0007,
00FE,
0000,
0007,
0004,
00FF,
00F7,
0003,
00FD,
00FE,
00FF,
00FD,
00FB,
00F8,
00FE,
00FE,
00FB,
0000,
000D,
00FF,
00FA,
0010,
0009,
00FB,
000D,
000E,
0000,
0005,
0002,
0000,
0007,
0000,
00FF,
0004,
00FF,
00FE,
0002,
0000,
0002,
0001,
0002,
0000,
0001,
0001,
0001,
00FE,
0000,
0001,
00FE,
00FE,
0001,
0002,
00FE,
0000,
00FC,
0002,
00FF,
0002,
0003,
0001,
0003,
0002,
0003,
0001,
0001,
0006,
00FB,
0003,
0004,
00F7,
00FD,
0001,
0009,
0000,
00FA,
000A,
0003,
0001,
00FF,
0006,
0000,
00FE,
0003,
00FD,
00FF,
0006,
0005,
0000,
0002,
0003,
00FD,
00FF,
00FC,
00FD,
0000,
00FD,
0002,
0003,
0001,
0008,
000E,
00FC,
00FF,
00FF,
00FB,
00FB,
00F8,
00FE,
0004,
00FE,
00FF,
00F8,
00FD,
00FC,
00FC,
0004,
0000,
0000,
00FD,
0000,
0000,
0007,
00FC,
00F9,
0009,
0000,
00FE,
00FD,
00FD,
00FD,
00FC,
00FC,
0000,
00FE,
00FC,
0003,
00FE,
0003,
0007,
0000,
0003,
0002,
00FF,
0000,
00FB,
0002,
00FE,
00FE,
00FF,
0001,
00FD,
00FE,
0001,
00FB,
00FD,
0000,
00FA,
0003,
0003,
00FC,
0001,
0004,
0005,
00FD,
00FC,
0001,
00FF,
0004,
00FE,
00FC,
0002,
00FE,
0001,
0000,
00FE,
00FD,
0004,
0001,
0001,
0001,
00FA,
00FE,
0002,
00FF,
0001,
0002,
00FE,
0000,
0000,
00FE,
00FF,
00FD,
0000,
0008,
0000,
0001,
0002,
00FF,
0008,
0005,
00FE,
0003,
0003,
00FC,
0001,
00FE,
00FA,
0001,
0000,
00FC,
0002,
0002,
00FC,
00FB,
00FE,
00FD,
0001,
0001,
0002,
00F9,
00FD,
0000,
00FC,
00FC,
00FB,
000E,
0009,
00FF,
00FD,
00FD,
0001,
00FA,
0000,
00FD,
00F0,
00F8,
00FC,
000D,
0012,
00F7,
0008,
000E,
00FD,
00FF,
0000,
0003,
00FC,
00FC,
0000,
0000,
00FE,
00FE,
0004,
00FD,
00FD,
0000,
00FF,
00FF,
00FF,
0002,
0001,
00FF,
00FF,
0006,
0001,
00FF,
0000,
0005,
0004,
0001,
0003,
0000,
0002,
0000,
0005,
0003,
00FD,
00FF,
0000,
0000,
0008,
0004,
000C,
000E,
0002,
0009,
000D,
00FF,
0000,
0001,
0001,
0000,
0001,
0004,
00FF,
0000,
0004,
0003,
00FC,
00FB,
00FC,
00FF,
00FE,
00FD,
0000,
00FB,
00F6,
00FB,
00FD,
00FE,
00FF,
0002,
0005,
0006,
0001,
0000,
0000,
00FE,
00FB,
0000,
00FE,
00FB,
00FD,
0000,
0003,
0001,
0002,
00FF,
00FB,
0002,
0002,
00FF,
0003,
00FE,
00FE,
00FF,
00FD,
00FD,
0005,
00FB,
00FE,
0003,
0002,
0003,
0004,
0000,
0003,
0000,
0002,
0000,
00FB,
00F9,
00FE,
0002,
00FD,
00FE,
0000,
00FD,
00FC,
00FA,
000A,
0003,
0001,
0002,
00FF,
0003,
00FE,
00FF,
0001,
000B,
000A,
0005,
00FB,
00F9,
0004,
0001,
00FB,
0001,
0002,
0005,
00FE,
0002,
0005,
00FD,
00FF,
0006,
0002,
00FE,
0004,
0006,
0004,
0005,
0002,
0002,
0000,
0002,
000C,
000B,
00FD,
00FE,
0003,
00FF,
00F9,
00FB,
00FD,
00FE,
00FA,
00FB,
00FF,
00FB,
00FB,
00FD,
00FD,
00FD,
0009,
00FE,
00FE,
0004,
0003,
00FF,
0007,
0005,
0006,
00F7,
00FA,
00FF,
00FF,
00FC,
0003,
00FF,
00FC,
0000,
00FC,
0000,
0001,
00FD,
0000,
0002,
0001,
0002,
0002,
00FB,
00FE,
00FC,
00FE,
0001,
0002,
0003,
0005,
0002,
0002,
00FB,
00FE,
00F9,
00F8,
00F9,
00FA,
00FF,
00FD,
00FA,
00F9,
00F9,
00FA,
00FB,
00FC,
00FB,
00FC,
00FF,
00FF,
00FD,
00FD,
0001,
00FA,
00FF,
0003,
0001,
0004,
0003,
0001,
0004,
00F9,
00FF,
00FE,
00FB,
0002,
00FD,
00FA,
00FA,
00FC,
00FE,
00FC,
00FE,
0005,
0008,
00FF,
0001,
00FE,
0000,
0002,
00F9,
00FC,
0003,
00FE,
0002,
0009,
0009,
0005,
00FE,
0005,
0006,
0000,
0004,
0000,
0002,
00FF,
00FD,
0002,
0000,
00FC,
00FF,
0005,
0004,
00FB,
00F9,
00FC,
0001,
00FF,
00FE,
00FF,
00FD,
00FD,
00F9,
00FB,
00F9,
00FD,
00FC,
00FC,
0001,
0004,
0002;