memory_initialization_radix=16;
memory_initialization_vector=
0003,
0008,
0007,
00FF,
00FC,
00FA,
00FC,
0005,
0005,
00FE,
00FD,
0005,
0009,
0006,
00FD,
00FC,
00FC,
00FF,
0008,
0003,
00FD,
00FD,
0004,
0008,
0004,
00F9,
00FA,
00FA,
0000,
0009,
0000,
00FA,
00FB,
0006,
0009,
0004,
00F8,
00FA,
00FB,
0002,
0009,
0000,
00FB,
00FE,
0006,
0009,
0002,
00F9,
00FC,
00FE,
0002,
0007,
00FE,
00FB,
00FF,
0006,
0009,
0002,
00FA,
00FD,
00FF,
0003,
0006,
00FC,
00FB,
0003,
0006,
0008,
0000,
00FA,
00FD,
00FF,
0001,
0004,
00FB,
00FB,
0004,
0007,
0008,
0000,
00FB,
00FF,
00FE,
0001,
0000,
00FB,
00FB,
0005,
0007,
0008,
00FF,
00FC,
0001,
0000,
0000,
0000,
00FB,
00FD,
0005,
0006,
0006,
0000,
00FD,
0000,
00FF,
00FF,
00FF,
00FA,
00FD,
0005,
0004,
0005,
00FD,
00FD,
0001,
0002,
0000,
00FF,
00F9,
00FC,
0001,
00EE,
00E6,
00E1,
00E5,
00F0,
0001,
0010,
0019,
0019,
0014,
000C,
00E5,
00DA,
00D5,
00DD,
00EE,
0002,
0015,
0023,
0024,
001D,
0013,
00E0,
00D2,
00D0,
00DA,
00EE,
0006,
0018,
0027,
002A,
0022,
0017,
00E4,
00D9,
00D9,
00E2,
00F1,
0004,
0015,
0021,
0022,
001D,
0013,
00EC,
00E9,
00E8,
00EE,
00F6,
0000,
000B,
0014,
0013,
0010,
000B,
00FD,
00FF,
00FE,
00FE,
00FD,
00FD,
00FE,
0000,
0001,
00FF,
00FE,
000E,
0014,
0014,
000E,
0005,
00FC,
00F4,
00EF,
00EE,
00EF,
00F3,
0017,
0022,
0023,
001C,
000D,
00FC,
00ED,
00E3,
00DE,
00E2,
00E9,
001D,
002B,
002D,
0023,
0011,
00FC,
00E9,
00DA,
00D5,
00DD,
00E9,
001D,
002A,
002C,
0023,
0011,
00FD,
00EA,
00DC,
00D8,
00E1,
00EC,
0017,
0020,
0023,
001E,
0011,
0000,
00F1,
00E8,
00E4,
00E9,
00F2,
00F5,
00F6,
00F7,
00FA,
00FE,
0003,
0002,
0005,
0004,
0005,
0005,
00F8,
00F8,
00FB,
00FC,
00FF,
0001,
0000,
0000,
0001,
0003,
0002,
00FB,
00FA,
00FE,
00FF,
0001,
0002,
0002,
0003,
0005,
0004,
0004,
00FD,
00FD,
00FE,
0000,
0001,
0002,
0002,
0002,
0003,
0003,
0002,
0000,
00FD,
0000,
00FF,
0001,
0003,
0003,
0002,
0003,
0003,
0003,
00FF,
00FE,
0000,
0001,
0003,
0002,
0002,
0001,
0002,
0002,
0004,
00FE,
00FE,
0001,
0002,
0001,
0003,
0002,
0004,
0005,
0003,
0005,
00FF,
0000,
0000,
0002,
0003,
0004,
0005,
0005,
0004,
0001,
0001,
00FE,
0000,
0003,
0005,
0006,
0006,
0003,
0000,
00FF,
00FC,
00FD,
00FD,
0000,
0001,
0003,
0004,
0001,
00FF,
00FE,
00FD,
00FA,
00FC,
0002,
0003,
0003,
0002,
0002,
0000,
00FF,
00FD,
00F9,
00F8,
00F7,
00FF,
0000,
0003,
0007,
0008,
000B,
000D,
000D,
000F,
000D,
000C,
00FE,
00FF,
0002,
0006,
0008,
000B,
000D,
000E,
000E,
000E,
000C,
00FC,
00FD,
00FF,
0004,
0006,
0009,
000B,
000E,
000E,
000F,
000B,
00FA,
00FA,
00FD,
0001,
0005,
0008,
000A,
000D,
000E,
000F,
000C,
00F9,
00F8,
00FA,
00FE,
0003,
0008,
0009,
000C,
000D,
000E,
000D,
00F7,
00F6,
00F6,
00FC,
0000,
0004,
0007,
000A,
000C,
000D,
000C,
00F5,
00F4,
00F6,
00F8,
00FC,
0001,
0004,
0008,
0009,
000B,
0009,
00F3,
00F4,
00F6,
00F7,
00FB,
0000,
0004,
0006,
0007,
0009,
0009,
00F3,
00F3,
00F6,
00F8,
00FA,
0000,
0003,
0004,
0007,
0008,
0008,
00F2,
00F4,
00F5,
00F7,
00F9,
00FD,
0001,
0003,
0004,
0007,
0008,
00F2,
00F4,
00F6,
00F9,
00FB,
00FD,
0000,
0001,
0005,
0006,
0007,
0004,
0009,
000D,
0011,
0012,
0013,
0012,
000E,
000A,
0005,
0003,
0000,
0004,
0009,
000C,
0011,
0013,
0014,
0012,
000E,
0009,
0005,
00FC,
00FF,
0003,
0009,
000E,
0012,
0015,
0015,
0012,
000D,
000B,
00F7,
00FA,
00FE,
0004,
0009,
000F,
0013,
0015,
0015,
0011,
000F,
00F5,
00F6,
00F9,
00FC,
0003,
0008,
000E,
0011,
0015,
0013,
0011,
00F3,
00F5,
00F5,
00F7,
00FC,
0002,
0008,
000D,
0010,
0011,
0011,
00F3,
00F2,
00F4,
00F4,
00F7,
00FA,
00FF,
0005,
000A,
000C,
000E,
00F3,
00F3,
00F1,
00F1,
00F2,
00F4,
00F8,
00FD,
0001,
0006,
0008,
00F4,
00F3,
00F1,
00F0,
00EF,
00EF,
00F1,
00F6,
00FB,
00FF,
0002,
00F3,
00F3,
00F1,
00EF,
00EE,
00EE,
00EF,
00F1,
00F6,
00FA,
00FD,
00F4,
00F2,
00F1,
00EF,
00EE,
00EB,
00EC,
00EF,
00F2,
00F5,
00F9,
000C,
000E,
0011,
0011,
000F,
000B,
0007,
00FF,
00FA,
00F5,
00EF,
000C,
000F,
0011,
0011,
000E,
000A,
0003,
00FB,
00F5,
00F1,
00EE,
000E,
0011,
0013,
0013,
000F,
000B,
0003,
00F9,
00F0,
00EE,
00EB,
000F,
0012,
0014,
0013,
0010,
000A,
0000,
00F3,
00EC,
00E8,
00E7,
0010,
0012,
0014,
0013,
0011,
0009,
00FE,
00F0,
00E7,
00E5,
00E6,
0010,
0014,
0015,
0014,
0010,
0007,
00FA,
00EC,
00E6,
00E2,
00E6,
0012,
0013,
0012,
0011,
000C,
0004,
00F8,
00EB,
00E3,
00E2,
00E7,
0011,
0011,
0011,
000D,
000A,
0004,
00F7,
00EB,
00E5,
00E5,
00EA,
000F,
000D,
000E,
000A,
0005,
00FE,
00F5,
00EC,
00E7,
00E9,
00ED,
000E,
000C,
000A,
0007,
0003,
00FD,
00F7,
00EF,
00ED,
00ED,
00F1,
000B,
0008,
0005,
0000,
00FE,
00FB,
00F5,
00F0,
00EE,
00F0,
00F4,
0005,
0006,
0007,
0005,
0003,
00FF,
00FC,
00FA,
00FA,
00FA,
00FC,
0005,
0006,
0005,
0003,
00FE,
00F8,
00F4,
00F5,
00F7,
00FA,
00FE,
0002,
0002,
0001,
00FC,
00F5,
00F0,
00EF,
00F1,
00F7,
00FD,
0002,
00FF,
00FE,
00FA,
00F1,
00EA,
00E6,
00EA,
00F2,
00FB,
0002,
0007,
00FA,
00F8,
00F2,
00E8,
00E3,
00E5,
00F0,
00FC,
0006,
0008,
0009,
00F6,
00F1,
00EC,
00E8,
00E9,
00F3,
0001,
000B,
0010,
000D,
000C,
00F4,
00F3,
00F0,
00F1,
00FB,
0006,
0010,
0015,
0014,
000F,
000D,
00FA,
00FA,
00FC,
0002,
000A,
0013,
0016,
0016,
0010,
000A,
0009,
00FF,
0000,
0005,
0009,
000F,
0013,
0010,
000C,
0007,
0004,
0003,
0001,
0003,
0006,
0009,
000D,
000B,
0008,
0004,
0002,
0001,
0002,
0003,
0004,
0006,
0006,
0007,
0006,
0005,
0004,
0001,
0001,
0001,
00FF,
0001,
0002,
0002,
0004,
0002,
0002,
0002,
0002,
0001,
00FF,
00FF,
0000,
00FF,
0000,
0002,
0001,
0000,
0001,
0001,
0001,
0000,
00FE,
0000,
00FE,
00FF,
0001,
0003,
0001,
0001,
0002,
0002,
0002,
00FD,
0001,
00FE,
00FD,
0000,
0002,
0001,
0001,
0003,
0002,
0004,
00FE,
0000,
00FE,
00FB,
00FD,
00FF,
0000,
00FF,
0001,
0001,
0004,
00FE,
0001,
00FF,
00FC,
00FA,
00FC,
00FF,
0000,
0001,
00FF,
0002,
00FF,
0001,
00FF,
00FE,
00FC,
00FC,
00FF,
00FF,
0000,
0000,
0003,
00FE,
0000,
00FF,
00FC,
00FD,
00FC,
00FF,
00FD,
00FE,
00FF,
0002,
0000,
0001,
00FF,
00FD,
00FF,
00FC,
00FE,
00FD,
00FF,
00FD,
0001,
0001,
0002,
0000,
0000,
0000,
0001,
0000,
00FF,
0000,
0000,
0000,
00FF,
0001,
00FE,
00FE,
00FF,
00FE,
00FF,
00FD,
00FE,
00FF,
0000,
0004,
0001,
00FD,
0000,
0002,
0003,
0001,
00FE,
00FF,
0002,
0001,
0001,
0006,
0004,
00FB,
00FB,
00FE,
0004,
0004,
00FC,
00FD,
0001,
00FE,
00FF,
0007,
0007,
0000,
00FD,
00FE,
0002,
0003,
0000,
00FD,
0002,
0001,
00FC,
0001,
00FF,
00FF,
0001,
0006,
0004,
0002,
0002,
00FD,
0004,
000A,
0008,
00FE,
00F2,
00EF,
00FE,
000A,
0007,
0002,
00FA,
00F3,
00FB,
0014,
0021,
0013,
00F8,
00E4,
00F0,
0006,
0005,
0002,
00F9,
00E2,
00E4,
000B,
0025,
0028,
0012,
00EF,
00F0,
0001,
00FF,
000B,
0004,
00DC,
00D5,
00EF,
0006,
0025,
0021,
0002,
00F9,
00FD,
0000,
0016,
000F,
00EC,
00E3,
00E6,
00ED,
000A,
0016,
0007,
00FE,
00F9,
00FE,
0011,
000E,
00FC,
00FC,
00F4,
00EE,
00FB,
0009,
0004,
0001,
00FB,
00FA,
0007,
0005,
00FF,
0001,
0000,
00F9,
00FC,
0002,
0000,
00FE,
00FA,
00FB,
00F6,
00F9,
0000,
0005,
0004,
0009,
00FC,
00F8,
00F5,
00F7,
00F9,
00F6,
00F9,
00FF,
0004,
0007,
0007,
00FC,
00F4,
00F1,
00EF,
00F1,
00F4,
00F8,
00FD,
0000,
0005,
0006,
00F5,
00F1,
00ED,
00E6,
00E8,
00EE,
00F2,
00F8,
00FF,
0000,
0004,
00F5,
00F0,
00E5,
00D9,
00DE,
00EA,
00F3,
00F8,
00FE,
0002,
0003,
00F7,
00F1,
00E5,
00D4,
00CF,
00DD,
00EB,
00F6,
00FC,
0001,
0005,
00F8,
00F4,
00EC,
00E2,
00D5,
00DA,
00E4,
00F0,
00FD,
0005,
0008,
00FC,
00F6,
00EB,
00E9,
00E7,
00EA,
00F2,
00F2,
00FA,
0002,
0007,
00FB,
00F7,
00EF,
00E9,
00EE,
00F5,
00FE,
0001,
00FF,
0002,
0006,
0000,
00FD,
00F8,
00EE,
00F1,
00F7,
00FF,
0004,
0008,
0009,
0008,
0001,
00FE,
00FD,
00FA,
00F7,
00F8,
00FE,
0002,
0005,
000B,
000B,
00FD,
00FC,
0000,
0000,
0002,
0002,
0003,
0004,
0003,
0003,
0002,
00FB,
00FD,
00FE,
0000,
0004,
0005,
0003,
0003,
0004,
0002,
0001,
00FB,
00FF,
0000,
0003,
0005,
0005,
0005,
0005,
0003,
0002,
0001,
00FC,
00FF,
0002,
0003,
0006,
0006,
0005,
0003,
0003,
0002,
0000,
00FE,
0000,
0003,
0004,
0005,
0005,
0005,
0003,
0004,
0003,
0002,
00FF,
0000,
0002,
0004,
0004,
0002,
0004,
0003,
0002,
0003,
0001,
00FF,
0002,
0002,
0003,
0002,
0001,
0003,
0002,
0002,
0002,
0002,
00FF,
0001,
0001,
0001,
0002,
0002,
0002,
00FF,
0001,
0001,
0001,
00FC,
00FE,
0000,
00FE,
00FF,
00FE,
00FF,
00FF,
00FF,
00FE,
0001,
00FB,
00FA,
00FC,
00FD,
00FD,
00FD,
00FB,
00FB,
00FD,
00FC,
00FD,
00FB,
00FB,
00FA,
00FC,
00FD,
00FC,
00FC,
00FC,
00FC,
00FB,
00FF,
0003,
0002,
0005,
00FD,
00F8,
00FF,
0003,
00FD,
00F9,
00FB,
00FF,
0006,
0002,
0005,
00FE,
00F6,
00FD,
0002,
00FF,
00FA,
00FB,
00FE,
0007,
0001,
0005,
0001,
00F5,
00F8,
0006,
0002,
00FA,
00FA,
00FE,
0006,
0003,
0005,
0006,
00F7,
00F2,
0002,
0005,
00FC,
00F9,
00FC,
0007,
0004,
0004,
0009,
00FC,
00EE,
00FD,
0005,
00FD,
00F9,
00FC,
0008,
0003,
0004,
0009,
0001,
00ED,
00F6,
0004,
00FF,
00F9,
00FC,
0006,
0003,
0004,
000A,
0007,
00F2,
00F2,
00FE,
0000,
00F9,
00F8,
0007,
0005,
0005,
000C,
000F,
00F8,
00F2,
00FB,
00FF,
00FA,
00F9,
0006,
0005,
0005,
000A,
0013,
0000,
00F3,
00F8,
00FD,
00FB,
00F9,
0006,
0005,
0005,
0009,
0012,
0008,
00F9,
00F9,
00FE,
00FB,
00FA,
0004,
0007,
0007,
0007,
000F,
0009,
00FE,
00F9,
00FC,
00FC,
00FB,
00FA,
00F7,
00F5,
00F1,
00EE,
00EC,
00EB,
00EB,
00ED,
00F0,
00F4,
00FB,
00FA,
00F8,
00F4,
00F0,
00EF,
00F0,
00F0,
00F0,
00F3,
00F4,
00FF,
00FD,
00FB,
00F8,
00F4,
00F1,
00F1,
00F2,
00F2,
00F6,
00F8,
00FF,
0000,
00FF,
00FE,
00FC,
00F7,
00F5,
00F5,
00F5,
00FA,
00FC,
0002,
0002,
0002,
0001,
0002,
00FF,
00FE,
00FE,
00FC,
00FE,
0000,
0000,
0003,
0006,
0005,
0007,
0007,
0006,
0006,
0005,
0004,
0003,
0002,
0003,
0004,
0006,
000A,
000D,
000D,
000D,
000A,
0008,
0006,
0001,
0003,
0005,
0008,
000C,
000F,
0011,
0011,
0010,
000D,
0009,
0003,
0004,
0004,
0006,
000B,
000D,
0011,
0012,
0010,
000D,
000A,
0006,
0008,
0005,
0005,
0007,
000C,
000E,
0011,
000F,
000F,
000A,
0007,
0005,
0006,
0003,
0004,
0006,
000A,
000A,
000B,
000B,
0009,
0005,
0004,
0002,
00FF,
00FC,
00FF,
0001,
0003,
0003,
0004,
0004,
0004,
0002,
0002,
0000,
00FA,
00F9,
00FB,
00FE,
0002,
0003,
0005,
0003,
0007,
0007,
0003,
00FC,
00F6,
00F6,
00FA,
00FE,
0000,
0001,
0000,
0007,
000C,
000C,
0007,
00FE,
00F8,
00F7,
00FA,
00FE,
00FF,
00FA,
0000,
0009,
000E,
000F,
0009,
0001,
00FD,
00FB,
00FD,
00FE,
00F5,
00FC,
0003,
000A,
000E,
000E,
000A,
0005,
0002,
0001,
0001,
00F4,
00F5,
00FD,
0004,
0008,
000C,
0008,
0006,
0006,
0003,
0004,
00F6,
00F1,
00F4,
00FC,
0002,
0006,
0007,
0004,
0004,
0004,
0004,
00FA,
00F5,
00F1,
00F5,
00FB,
00FF,
0002,
0003,
0001,
0001,
0004,
0004,
00FB,
00F6,
00F3,
00F7,
00FB,
00FB,
00FE,
0000,
00FF,
0003,
0008,
0002,
00FC,
00F8,
00F5,
00F6,
00F9,
00F8,
00FA,
00FC,
00FF,
00FD,
00F3,
00E9,
00F8,
0011,
000E,
0007,
0009,
0005,
0003,
0000,
0001,
00F9,
00E9,
00ED,
000A,
0011,
0007,
0007,
0006,
0001,
0000,
0003,
00FD,
00E9,
00E4,
0001,
0016,
000D,
0008,
0006,
0004,
0000,
0005,
0004,
00EF,
00DB,
00F3,
0012,
0012,
0008,
0006,
0004,
00FF,
0006,
0008,
00F6,
00D8,
00E5,
000B,
0014,
0008,
0007,
0005,
0001,
0002,
000B,
0000,
00DE,
00DB,
00FE,
0013,
000B,
0007,
0007,
0002,
0002,
0008,
000C,
00EB,
00DA,
00F2,
000E,
000C,
0009,
0008,
0005,
0000,
0003,
0010,
00F9,
00DF,
00EB,
0007,
000C,
0007,
0008,
0007,
0000,
00FF,
000C,
0005,
00E7,
00E6,
00FC,
0008,
0007,
0007,
0008,
0000,
00FD,
0006,
0009,
00F2,
00EA,
00F9,
0006,
0006,
0007,
000A,
0001,
00FC,
0000,
0009,
00FA,
00EB,
00F1,
0001,
0005,
0006,
0009,
0007,
0004,
0006,
0004,
00FE,
00FD,
00FD,
00FC,
00FB,
00FE,
0002,
0006,
0002,
0003,
0001,
00FC,
00FA,
00F9,
00F9,
00FA,
00FA,
00FF,
0003,
0000,
00FF,
00FE,
00F8,
00F5,
00F4,
00F4,
00F5,
00F8,
00FC,
0002,
00FD,
00FB,
00FA,
00F5,
00ED,
00ED,
00EE,
00F1,
00F4,
00FC,
0001,
00FC,
00F7,
00F4,
00EF,
00E8,
00E5,
00E7,
00ED,
00F3,
00FB,
0002,
00FB,
00F8,
00F2,
00EC,
00E4,
00DF,
00E2,
00E9,
00F2,
00FA,
0003,
0000,
00F8,
00F3,
00ED,
00E4,
00DD,
00DE,
00E5,
00F1,
00FB,
0002,
00FF,
00FA,
00F5,
00F1,
00E8,
00E0,
00E0,
00E8,
00F4,
00FA,
0001,
00FF,
00FC,
00F9,
00F6,
00F1,
00EB,
00E7,
00EB,
00F5,
00FB,
0002,
0000,
00FD,
00FB,
00FA,
00F6,
00F4,
00F1,
00F3,
00F9,
00FD,
0003,
0000,
00FF,
00FB,
00FA,
00FA,
00F8,
00F9,
00F8,
00FD,
0000,
00FD,
00FC,
00FB,
00F7,
00F3,
00EF,
00F0,
00F4,
00F6,
00FA,
00FE,
0000,
00FE,
00FE,
00FB,
00F6,
00F1,
00EF,
00F1,
00F4,
00F8,
00FB,
0003,
0000,
0000,
00FE,
00FA,
00F3,
00F0,
00EF,
00F2,
00F6,
00FA,
0005,
0002,
0002,
0003,
0000,
00F8,
00F2,
00EF,
00EF,
00F3,
00F6,
0007,
0006,
0006,
0006,
0004,
00FF,
00F6,
00F3,
00F2,
00F3,
00F5,
0008,
0008,
0009,
000A,
000A,
0007,
00FE,
00F9,
00F3,
00F3,
00F5,
0008,
0007,
0009,
000A,
000E,
000D,
0006,
0000,
00FA,
00F7,
00F6,
0008,
0007,
0008,
000A,
000E,
000E,
000A,
0004,
0000,
00FB,
00F8,
0007,
0007,
0007,
0008,
000B,
000E,
000B,
0008,
0003,
00FE,
00FB,
0005,
0005,
0006,
0008,
000B,
000F,
000D,
000A,
0006,
0002,
00FF,
0003,
0003,
0004,
0005,
0007,
000D,
000D,
000C,
0007,
0006,
0002,
00F8,
00F9,
00FC,
00FC,
00FE,
00FF,
00FF,
0000,
0002,
0004,
0003,
00F7,
00FA,
00FC,
00FE,
00FF,
0002,
0002,
0001,
0003,
0004,
0003,
00F5,
00F8,
00FC,
00FF,
0002,
0003,
0004,
0004,
0004,
0004,
0001,
00F4,
00F6,
00FB,
00FF,
0003,
0006,
0006,
0005,
0003,
0002,
0000,
00F2,
00F5,
00FA,
00FF,
0004,
0008,
0008,
0007,
0004,
0001,
00FE,
00F0,
00F3,
00F8,
0000,
0006,
000A,
0009,
0008,
0005,
0000,
00FD,
00EE,
00F2,
00F9,
0000,
0007,
000B,
000C,
0008,
0005,
0000,
00FD,
00EE,
00F0,
00F8,
0001,
0007,
000A,
000C,
000A,
0005,
0001,
00FF,
00F1,
00F3,
00FA,
0001,
0008,
000A,
0009,
0008,
0006,
0003,
0001,
00F3,
00F7,
00FD,
0003,
0006,
0009,
000A,
0008,
0007,
0005,
0003,
00F5,
00F9,
00FE,
0002,
0005,
0006,
0006,
0005,
0005,
0005,
0004,
0004,
0006,
0008,
000A,
000B,
000A,
0008,
0007,
0006,
0003,
0000,
0007,
0008,
000A,
000B,
000C,
000B,
0007,
0005,
0003,
0001,
00FD,
0009,
0009,
000C,
000D,
000D,
000A,
0007,
0005,
0002,
0001,
00FC,
000B,
000C,
000C,
000C,
000C,
0009,
0004,
0002,
0000,
00FC,
00F9,
000C,
000C,
000C,
000B,
0008,
0003,
00FE,
00FC,
00F9,
00F7,
00F6,
000C,
000B,
000B,
0008,
0002,
00FB,
00FA,
00F6,
00F6,
00F4,
00F5,
000B,
0007,
0006,
0003,
00FC,
00F8,
00F4,
00F5,
00F5,
00F4,
00F6,
0007,
0004,
0003,
00FE,
00F6,
00F5,
00F2,
00F3,
00F5,
00F5,
00F5,
0003,
0001,
00FF,
00FC,
00F6,
00F2,
00F1,
00F4,
00F5,
00F6,
00F7,
0001,
00FE,
00FE,
00FA,
00F5,
00F2,
00F3,
00F4,
00F7,
00F7,
00F9,
00FD,
00FC,
00FB,
00F7,
00F4,
00F3,
00F4,
00F6,
00F8,
00F9,
00FC,
00F7,
00FC,
0000,
0005,
000B,
000F,
0011,
0012,
0010,
000E,
000B,
00F3,
00F9,
00FC,
0001,
0006,
000C,
000F,
0011,
0011,
000F,
000C,
00EF,
00F5,
00F8,
00FF,
0005,
0009,
000F,
0011,
0010,
000E,
000E,
00EC,
00EF,
00F2,
00FA,
0003,
0007,
000D,
0010,
0011,
000F,
0010,
00EA,
00EC,
00EE,
00F5,
00FF,
0006,
000D,
0010,
000E,
000E,
000F,
00EB,
00EB,
00EC,
00F1,
00FC,
0004,
000B,
000F,
0010,
000F,
000F,
00EC,
00EB,
00EB,
00EF,
00F9,
0003,
0009,
000D,
000E,
000E,
0010,
00EE,
00EA,
00E9,
00EC,
00F6,
00FD,
0005,
000A,
000B,
000C,
0010,
00F2,
00ED,
00E9,
00EC,
00F3,
00F8,
00FD,
0005,
0008,
0009,
000E,
00F5,
00F2,
00EE,
00ED,
00F3,
00F6,
00F9,
0000,
0003,
0006,
000A,
00F6,
00F4,
00F1,
00EF,
00EF,
00F2,
00F6,
00FA,
00FE,
0001,
0006,
000C,
0008,
0004,
00FD,
00F4,
00EA,
00E3,
00E1,
00E4,
00EE,
00F6,
000F,
000B,
0006,
00FF,
00F0,
00E2,
00D5,
00D0,
00D2,
00E0,
00EE,
0014,
0010,
000C,
0003,
00F3,
00DF,
00CB,
00BF,
00C1,
00D3,
00E6,
0017,
0015,
0012,
0009,
00F9,
00E2,
00CB,
00BA,
00BC,
00CE,
00E2,
001A,
001A,
0017,
0011,
0002,
00EC,
00D4,
00C4,
00C3,
00D1,
00E4,
001C,
001D,
001C,
0016,
000A,
00FA,
00E5,
00D6,
00D2,
00DD,
00E9,
001E,
001E,
0020,
001C,
0014,
0006,
00F8,
00EC,
00E6,
00EB,
00F2,
001D,
001F,
0022,
0021,
001A,
0011,
0007,
00FD,
00F8,
00F9,
00FA,
001D,
001F,
0023,
0022,
001E,
0018,
0012,
000B,
0007,
0003,
0003,
001B,
001E,
0020,
001F,
001D,
001A,
0016,
0011,
000C,
0008,
0006,
0019,
001A,
001E,
001E,
001C,
001B,
0018,
0014,
0010,
000D,
000C,
00FF,
00FB,
00FE,
00FF,
00FE,
0000,
0004,
0007,
0002,
00FC,
00FF,
00FF,
00FE,
00FE,
00FE,
00FD,
0001,
0004,
0006,
00FD,
00F9,
0000,
0000,
00FE,
00FE,
00FC,
00FE,
0004,
0008,
0006,
00F9,
00F8,
0003,
0000,
00FE,
00FE,
00FE,
00FF,
0006,
000A,
0001,
00F4,
00FA,
0004,
0000,
00FE,
00FE,
00FF,
0002,
0008,
0007,
00FC,
00F2,
00FC,
0006,
0001,
00FF,
00FE,
0000,
0005,
0008,
0005,
00F7,
00F0,
00FE,
0008,
0001,
00FE,
00FF,
0001,
0006,
0007,
0001,
00F5,
00F2,
0003,
0009,
0001,
00FF,
0000,
0002,
0006,
0005,
00FB,
00F4,
00F9,
0007,
0009,
0003,
0000,
0001,
0001,
0006,
0003,
00FB,
00F7,
00FF,
0009,
0009,
0003,
0000,
0000,
0003,
0004,
0001,
00FC,
00FC,
0001,
0008,
0007,
0004,
0000,
0001,
0004,
0005,
00FE,
00FD,
00FE,
0003,
0009,
0009,
0003,
0003,
0003,
0002,
0004,
0003,
0004,
0003,
0004,
0003,
0004,
0003,
0003,
0003,
0002,
0003,
0002,
0002,
0002,
0002,
0001,
0001,
0002,
0002,
0002,
0002,
0003,
0003,
0003,
0004,
0004,
0003,
0002,
0002,
0001,
0002,
0002,
0003,
0002,
0004,
0007,
0005,
0002,
0003,
0002,
0000,
0002,
0001,
0002,
0001,
0003,
0004,
0004,
0002,
0002,
0002,
0000,
0001,
0002,
0002,
0002,
0003,
0005,
0005,
0002,
0003,
0003,
0001,
0000,
0001,
0001,
0002,
0003,
0005,
0004,
0002,
0003,
0003,
0000,
0000,
0001,
0000,
0001,
0003,
0005,
0003,
0001,
0003,
0004,
0000,
0000,
0001,
0001,
0001,
0002,
0004,
0003,
0002,
0004,
0002,
00FE,
0000,
00FF,
0000,
0000,
0001,
0003,
0001,
0000,
0002,
0002,
00FF,
00FF,
0000,
0001,
0001,
0002,
0003,
0002,
0001,
0003,
00FA,
00F7,
00F6,
00F5,
00F8,
00FA,
00FB,
00FD,
00FE,
00FF,
00FF,
00F7,
00F7,
00F7,
00F7,
00F8,
00FB,
00FD,
00FF,
0002,
0001,
0002,
00F5,
00F5,
00F5,
00F7,
00FA,
00FB,
00FF,
0000,
0002,
0002,
0002,
00F4,
00F4,
00F4,
00F6,
00F8,
00FC,
0001,
0001,
0003,
0003,
0006,
00F6,
00F5,
00F6,
00F8,
00FB,
00FF,
0003,
0004,
0006,
0005,
0008,
00F5,
00F6,
00F6,
00FB,
00FF,
0004,
0004,
0005,
0007,
0006,
0009,
00F6,
00F9,
00F9,
00FE,
0002,
0006,
0005,
0006,
0006,
0006,
0008,
00F9,
00FB,
00FE,
0002,
0004,
0007,
0007,
0007,
0007,
0006,
0007,
00FB,
00FF,
0003,
0006,
0005,
0006,
0005,
0005,
0006,
0004,
0005,
00FC,
00FF,
0001,
0004,
0003,
0004,
0003,
0003,
0004,
0005,
0004,
00FE,
0001,
0004,
0007,
0006,
0006,
0006,
0006,
0006,
0004,
0005,
0001,
0000,
0001,
0002,
0002,
0001,
0002,
0001,
0000,
00FF,
00FF,
0000,
0001,
0002,
0002,
0003,
0004,
0003,
0003,
0000,
0000,
00FF,
0001,
0001,
0002,
0001,
0001,
0000,
0002,
0002,
0001,
0000,
0000,
0001,
0000,
0001,
00FF,
00FB,
00FB,
00FD,
0000,
0001,
00FF,
00FF,
0000,
00FF,
0000,
00FC,
00FA,
00F8,
00FB,
00FE,
0001,
00FF,
00FF,
00FE,
00FF,
00FE,
00FD,
00FB,
00F9,
00FB,
00FE,
0000,
00FF,
00FF,
00FE,
00FD,
00FD,
00FC,
00FD,
00FC,
00FC,
00FD,
00FF,
00FE,
00FF,
00FE,
00FD,
00FF,
00FE,
00FE,
00FD,
00FD,
00FE,
00FF,
00FF,
00FF,
00FF,
0000,
0001,
0000,
0000,
00FF,
00FE,
00FF,
0000,
00FF,
00FF,
0000,
0000,
0000,
0002,
0001,
0000,
0001,
0001,
0000,
0000,
0000,
0000,
0001,
0000,
0001,
0000,
00FF,
00FF,
0000,
00FF,
00FF,
00FF,
0006,
00FE,
00F9,
00F8,
00FA,
00FC,
00FD,
00FE,
0001,
0003,
0001,
0008,
0002,
00FB,
00F7,
00F9,
00FD,
0000,
00FF,
0001,
0004,
0002,
0008,
0004,
00FB,
00F8,
00F7,
00FA,
0000,
0000,
0002,
0003,
0005,
0008,
0007,
00FE,
00F7,
00F5,
00F8,
00FE,
00FF,
0001,
0003,
0004,
0007,
0008,
0001,
00F9,
00F4,
00F6,
00FF,
0000,
0001,
0003,
0006,
0006,
0008,
0002,
00FA,
00F5,
00F5,
00FD,
0000,
0001,
0003,
0006,
0004,
0006,
0004,
00FF,
00F7,
00F4,
00FE,
00FF,
0002,
0002,
0005,
0002,
0006,
0005,
0003,
00FB,
00F5,
00FB,
0000,
0000,
0002,
0003,
0001,
0005,
0005,
0004,
0001,
00F9,
00FA,
00FF,
0001,
0002,
0003,
0001,
0002,
0002,
0002,
0001,
00FB,
00FC,
00FF,
0000,
0002,
0003,
0002,
0003,
0001,
0003,
0003,
00FE,
00FD,
00FF,
00FF,
0001,
0001,
00F0,
00FB,
00FE,
0000,
0001,
0004,
0002,
0001,
0002,
0002,
0003,
00EE,
00F8,
00FE,
0003,
0005,
0002,
0000,
0000,
0000,
0002,
0002,
00EA,
00F2,
00FE,
0008,
000A,
0006,
0001,
0000,
0000,
0000,
0001,
00EB,
00EE,
00FB,
0009,
000E,
0007,
0000,
0000,
0001,
0000,
0001,
00EA,
00EE,
00F9,
000A,
000E,
0007,
00FE,
00FF,
0001,
0001,
0001,
00EC,
00EF,
00FC,
0009,
000D,
0008,
0001,
0000,
0002,
0002,
0002,
00EF,
00F3,
00FE,
0006,
000A,
0009,
0003,
0002,
0002,
0002,
0001,
00F1,
00F6,
00FF,
0003,
0005,
0006,
0001,
0002,
0001,
0002,
0001,
00F4,
00FB,
0000,
0002,
0005,
0005,
0003,
0001,
0003,
0003,
0003,
00F9,
00FE,
0001,
0001,
0002,
0004,
0002,
0002,
0003,
0002,
0003,
00F7,
00FF,
00FF,
0001,
0002,
0005,
0002,
0003,
0004,
0005,
0005,
00F2,
00EE,
00EB,
00EC,
00F0,
00F4,
00F5,
00F7,
00F9,
00F9,
00FA,
00F2,
00EC,
00E6,
00E9,
00ED,
00F6,
00FA,
00FD,
00FE,
00FD,
00FE,
00F3,
00EC,
00E8,
00E8,
00EF,
00F7,
00FD,
00FF,
0000,
0002,
0002,
00F4,
00F2,
00EF,
00F1,
00F5,
00FB,
00FF,
0003,
0004,
0004,
0003,
00FA,
00F9,
00F8,
00FB,
00FF,
0001,
0003,
0004,
0005,
0004,
0003,
00FD,
00FF,
0002,
0004,
0005,
0006,
0006,
0005,
0003,
0004,
0004,
0002,
0006,
0007,
0009,
0008,
0009,
0007,
0005,
0002,
0001,
0002,
0005,
0008,
000A,
000C,
000B,
0009,
0007,
0004,
0002,
0002,
0002,
0008,
000B,
000D,
000E,
000D,
000C,
0009,
0005,
0003,
0002,
0004,
0008,
000A,
000C,
000E,
000C,
000C,
000A,
0008,
0006,
0005,
0006,
0009,
000B,
000C,
000D,
000D,
000C,
0009,
0008,
0007,
0008,
0006,
0001,
0005,
0007,
0009,
0008,
0004,
0002,
00FF,
00FF,
00FE,
0000,
00FC,
00FB,
00FE,
0001,
0007,
0007,
0004,
0003,
0002,
0001,
0002,
00FD,
00F9,
00F7,
00FB,
0002,
0007,
0007,
0005,
0004,
0004,
0004,
0001,
00FA,
00F0,
00ED,
00F6,
00FF,
0006,
0006,
0006,
0004,
0006,
0008,
0001,
00FC,
00EF,
00EB,
00F1,
00FC,
0001,
0003,
0002,
0006,
000B,
0009,
0009,
0000,
00F2,
00ED,
00F2,
00FA,
00FE,
0000,
0000,
0005,
0008,
000E,
000E,
0007,
00FC,
00F8,
00F8,
00FB,
00FF,
00FF,
0001,
00FF,
0004,
000A,
000B,
0007,
0002,
00FD,
00FD,
00FE,
00FE,
00FF,
00FF,
00FE,
0001,
0004,
0004,
0004,
0002,
0000,
0000,
00FE,
00FE,
00FD,
00FD,
00FE,
0000,
0000,
00FF,
0001,
0000,
00FF,
0000,
00FD,
00FD,
00FE,
00FF,
00FE,
00FF,
0001,
0000,
0001,
0001,
0000,
00FD,
00FC,
00FA,
00FA,
00F9,
00F4,
00EF,
00F0,
00F7,
00FD,
0004,
0004,
0002,
0002,
00FE,
00FA,
00F7,
00EB,
00E5,
00EC,
00F6,
00FD,
0005,
0005,
0007,
0009,
0005,
0001,
00F5,
00E2,
00DF,
00EB,
00F6,
0007,
0005,
0008,
000B,
000F,
0011,
0008,
00F3,
00E2,
00E3,
00ED,
0004,
0003,
0003,
0006,
000D,
0016,
0017,
000C,
00F7,
00EB,
00EC,
0000,
0002,
0002,
0002,
0004,
000E,
0017,
001A,
0008,
00FB,
00F5,
0001,
0000,
0001,
0001,
0001,
0005,
000B,
0015,
000E,
0002,
00FC,
0003,
0001,
0000,
0001,
0001,
0002,
0007,
000E,
000D,
0004,
00FD,
0002,
0001,
00FF,
0000,
00FF,
00FF,
0002,
0008,
000B,
0005,
00FF,
00FE,
0001,
0000,
00FF,
00FE,
00FF,
0000,
0004,
0007,
0006,
00FE,
00FE,
00FF,
00FF,
00FF,
00FE,
00FF,
00FF,
0002,
0004,
0005,
0001,
0012,
0010,
0011,
000F,
000F,
000E,
0010,
000F,
000D,
000B,
000C,
0010,
0010,
0010,
000F,
000C,
000D,
000F,
000E,
000B,
0009,
0009,
000E,
000E,
000F,
000D,
000E,
000E,
000E,
000D,
000B,
0009,
0006,
000D,
000D,
000E,
000D,
000E,
000E,
000D,
000C,
0008,
0006,
0004,
0008,
0008,
0009,
000A,
000B,
000C,
0008,
0006,
0002,
0001,
0000,
0004,
0004,
0002,
0003,
0003,
0003,
0003,
0000,
00FF,
00FF,
00FD,
0000,
00FD,
00FB,
00FA,
00FB,
00FC,
00FD,
00FC,
00FB,
00FB,
00FB,
00FC,
00F9,
00F5,
00F2,
00F1,
00F2,
00F4,
00F7,
00F7,
00F9,
00F9,
00F8,
00F4,
00F0,
00EB,
00E9,
00ED,
00EF,
00F1,
00F4,
00F5,
00F6,
00F8,
00F3,
00EE,
00EB,
00E8,
00EA,
00ED,
00F0,
00F2,
00F5,
00F6,
00F5,
00F1,
00ED,
00E8,
00E6,
00E7,
00E9,
00EB,
00ED,
00F0,
00F0,
0006,
0002,
00FE,
00F5,
00EC,
00E8,
00E8,
00EC,
00F4,
00FC,
0004,
0005,
0001,
00F9,
00EE,
00E1,
00DB,
00DA,
00E0,
00EC,
00F9,
0002,
0004,
00FF,
00F6,
00E7,
00D8,
00CE,
00CD,
00D6,
00E5,
00F4,
0000,
0003,
00FE,
00F4,
00E6,
00D4,
00C7,
00C7,
00D1,
00E2,
00F2,
00FF,
0003,
00FF,
00F6,
00E9,
00D9,
00CB,
00C8,
00D2,
00E2,
00F3,
0000,
0005,
0000,
00F9,
00EE,
00E1,
00D6,
00D2,
00D8,
00E8,
00F6,
0002,
0005,
0001,
00FC,
00F6,
00ED,
00E4,
00E0,
00E4,
00EF,
00FB,
0005,
0006,
0003,
0000,
00FC,
00F6,
00F0,
00EE,
00F2,
00F8,
0000,
0008,
0008,
0005,
0004,
0003,
00FE,
00FA,
00F9,
00FB,
0000,
0006,
000B,
0008,
0005,
0005,
0004,
0003,
0001,
00FF,
0001,
0005,
0008,
000D,
000B,
0008,
0007,
0006,
0007,
0005,
0005,
0007,
0008,
000D,
0011,
00FB,
00FB,
00F8,
00F1,
00ED,
00EA,
00ED,
00F1,
00F9,
00FE,
0002,
00FB,
00FC,
00FA,
00F6,
00F4,
00F2,
00F6,
00FC,
0002,
0005,
0006,
00FD,
00FE,
00FC,
00F8,
00F7,
00F6,
00FB,
00FF,
0002,
0004,
0005,
0000,
00FF,
00FE,
00FB,
00FB,
00FE,
0001,
0003,
0005,
0006,
0006,
00FF,
0003,
0002,
0000,
0000,
0001,
0003,
0003,
0005,
0004,
0005,
0003,
0003,
0002,
0004,
0004,
0004,
0005,
0005,
0005,
0005,
0005,
0002,
0004,
0002,
0004,
0006,
0004,
0004,
0003,
0002,
0005,
0003,
0003,
0003,
0003,
0003,
0005,
0005,
0004,
0005,
0005,
0005,
0004,
0003,
0005,
0005,
0004,
0004,
0005,
0006,
0005,
0005,
0005,
0003,
0003,
0003,
0001,
0002,
0002,
0002,
0003,
0003,
0003,
0003,
00FF,
0004,
0003,
0003,
0003,
0003,
0004,
0005,
0005,
0003,
0001,
00FE,
0000,
0001,
0002,
0001,
00FA,
00F5,
0003,
000C,
0002,
00FF,
0002,
0002,
0000,
0002,
0003,
00FD,
00EF,
00FA,
000D,
0003,
00FC,
0001,
0001,
0001,
0001,
0005,
0001,
00EE,
00F1,
000D,
000E,
00FC,
00FF,
0001,
0001,
00FF,
0005,
0009,
00F2,
00E4,
0003,
0014,
0001,
00FD,
0000,
0002,
0000,
0005,
000C,
00FB,
00E0,
00F5,
0012,
0008,
00FF,
00FF,
0003,
0001,
0002,
000D,
0006,
00E5,
00E9,
000B,
000F,
00FF,
00FF,
0002,
0003,
0000,
0008,
000C,
00F0,
00E3,
0000,
000F,
0003,
00FF,
0001,
0002,
0001,
0006,
000D,
00FA,
00E4,
00F7,
000A,
0005,
00FE,
0000,
0002,
0000,
0004,
0010,
0004,
00ED,
00F1,
0004,
0007,
0000,
0001,
0002,
0002,
0002,
000C,
0009,
00F7,
00F2,
00FF,
0009,
00FF,
0000,
0002,
0003,
0002,
000B,
000E,
00FD,
00F5,
00F9,
0006,
0001,
00FF,
0000,
00FC,
00FD,
00FC,
00FC,
00FB,
00FB,
00FD,
00FD,
0001,
0000,
0001,
0001,
0001,
0002,
0000,
0000,
00FF,
00FE,
00FD,
0002,
00FF,
0000,
00FF,
0000,
0001,
00FF,
00FD,
00FE,
00FE,
00FA,
0002,
00FF,
0001,
0000,
0001,
0001,
0000,
00FF,
00FF,
00FF,
00F9,
0003,
00FF,
0001,
0001,
0001,
0002,
0001,
0000,
0002,
0001,
00FA,
0002,
00FF,
0000,
00FF,
0002,
0003,
0002,
00FF,
0001,
0002,
00FB,
0003,
0000,
0000,
0001,
0003,
0003,
0003,
0003,
0001,
0002,
00FD,
0001,
00FF,
0000,
0000,
0003,
0000,
0001,
0002,
0001,
0002,
00FD,
00FF,
00FF,
0000,
0000,
0002,
0000,
0001,
0000,
0002,
0004,
0000,
00FE,
00FD,
00FF,
00FF,
0000,
00FF,
0000,
0000,
0001,
0003,
0001,
00FF,
00FF,
0001,
0001,
0001,
0003,
0003,
0003,
0002,
0005,
0001,
0002,
0003,
0003,
0003,
0006,
0006,
0004,
0004,
0001,
00FF,
00FF,
0000,
0001,
0002,
0002,
0002,
0004,
0003,
0004,
0004,
0002,
0001,
00FD,
00FE,
00FF,
0001,
0002,
0003,
0004,
0001,
0003,
0003,
0001,
00FD,
00FC,
00F8,
00F9,
00FE,
0001,
0003,
0005,
0002,
0006,
0004,
0002,
0000,
00FF,
00F6,
00F5,
00FA,
00FF,
0005,
0005,
0004,
0005,
00FE,
0006,
0009,
0007,
00FD,
00F7,
00F8,
00FF,
0002,
0004,
0004,
00F8,
00F9,
0003,
000C,
000D,
0009,
00FB,
00F9,
00FD,
0001,
0002,
00FC,
00F4,
00EF,
00F8,
0004,
000F,
000F,
0003,
00FD,
00FF,
0001,
0003,
0000,
00F5,
00EE,
00EE,
00F5,
0005,
000E,
0006,
0000,
0001,
0005,
0008,
0004,
00FD,
00F4,
00EF,
00F0,
00FB,
0006,
0005,
0004,
000B,
000A,
000A,
0007,
0005,
0001,
00F9,
00F3,
00F5,
00F9,
00FD,
0000,
0002,
0004,
0005,
0007,
0006,
0005,
0003,
0001,
00FF,
0001,
0003,
0006,
0006,
0005,
0002,
00FE,
00F8,
00F8,
00F8,
00FB,
0002,
0005,
0004,
0002,
00FE,
00F8,
00F3,
00F4,
00F8,
00FE,
0002,
0008,
0001,
0000,
00FC,
00F7,
00F1,
00F4,
00FB,
0003,
000B,
0009,
000B,
00FD,
00FB,
00F5,
00F5,
00FB,
0002,
000D,
0011,
000D,
0008,
0003,
00FA,
00F9,
00FA,
0001,
000C,
0014,
0015,
000F,
0005,
00FD,
00F7,
00FC,
0001,
0005,
000C,
0012,
0010,
0006,
00FE,
00F7,
00F5,
00F7,
0005,
0009,
000D,
000E,
0009,
0000,
00F6,
00F2,
00F3,
00FA,
00FD,
0007,
0005,
0006,
0001,
00F8,
00F2,
00F1,
00F2,
00F9,
0000,
0001,
0005,
00FE,
00FC,
00F7,
00F4,
00F7,
00FA,
00FE,
0002,
0002,
0003,
00FC,
00FA,
00F9,
00F9,
00FC,
00FF,
0003,
0005,
0005,
0003,
0004,
0002,
0000,
00FF,
00FD,
00FE,
0000,
0001,
0001,
0000,
00FE,
00FF,
0000,
0002,
0002,
0001,
00FC,
00FE,
00FE,
0000,
0001,
00FF,
0000,
0001,
0003,
0002,
0002,
0000,
00FC,
00FD,
00FF,
0001,
0001,
0000,
00FE,
0003,
0008,
000A,
0006,
0000,
00F8,
00FA,
00FF,
0002,
0001,
00F6,
00F8,
00FB,
0008,
0012,
0012,
0008,
00FD,
00FA,
00FD,
00FF,
0000,
00F3,
00EC,
00EB,
00FA,
000F,
0018,
0012,
0003,
00FE,
00FE,
000D,
0006,
00FA,
00EA,
00E0,
00E9,
0001,
000D,
000F,
0008,
0003,
0009,
0012,
0011,
0008,
00F5,
00E1,
00E1,
00EF,
00FF,
0007,
0007,
00FB,
0002,
0010,
0016,
0017,
0007,
00F5,
00ED,
00F0,
00F8,
0000,
00FB,
00F6,
00F9,
0001,
000C,
0015,
0010,
0006,
00FD,
00FB,
00F9,
0001,
00FE,
00FA,
00F8,
00F6,
00FF,
0007,
0009,
0009,
0007,
0003,
0001,
00FF,
00FF,
00FE,
0000,
0000,
0000,
0000,
0003,
0004,
0004,
00FF,
00FD,
00FB,
00F9,
00FA,
00FC,
0000,
0001,
0005,
0004,
0005,
00FF,
00FC,
00FA,
00F8,
00F9,
00F9,
00FE,
00FF,
0002,
0003,
0003,
00FE,
00FA,
00F6,
00F5,
00F6,
00F8,
00F9,
00FB,
00FD,
0000,
0001,
0000,
00FB,
00F8,
00F6,
00F4,
00F5,
00F5,
00F8,
00FC,
0000,
0001,
00FF,
00FA,
00F8,
00F5,
00F4,
00F3,
00F4,
00F6,
00FC,
00FE,
0002,
00FF,
00FB,
00F7,
00F5,
00F5,
00F7,
00F8,
00F9,
00FC,
0000,
0001,
00FF,
00F9,
00F6,
00F4,
00F5,
00F8,
00F9,
00FB,
00FD,
0001,
0004,
0001,
00FD,
00F8,
00F4,
00F6,
00F9,
00FC,
00FD,
0000,
0002,
0005,
0002,
00FD,
00FD,
00FA,
00F9,
00F9,
00FC,
00FD,
0001,
0003,
0006,
0005,
0002,
00FF,
00FB,
00FD,
00FD,
00FE,
0000,
0001,
0004,
0005,
0007,
0008,
000A,
000A,
0009,
0008,
0007,
0007,
0008,
0009,
0009,
0007,
0008,
0008,
0008,
0008,
0007,
0006,
0007,
0008,
0009,
0009,
0007,
0006,
0005,
0003,
0002,
0001,
0001,
0003,
0007,
0009,
000B,
0006,
0002,
00FE,
00FA,
00F7,
00F4,
00F7,
00FE,
0006,
0008,
0009,
0003,
00FE,
00F5,
00E8,
00E0,
00E1,
00E9,
00F7,
0004,
0007,
0008,
0001,
00F8,
00E9,
00D4,
00C7,
00CA,
00DB,
00F0,
00FF,
0006,
0008,
00FE,
00F2,
00DD,
00C6,
00B6,
00BD,
00D2,
00EC,
00FE,
0006,
0009,
00FE,
00F1,
00DC,
00C6,
00B5,
00BF,
00D5,
00EF,
0001,
0009,
000A,
0000,
00F7,
00E6,
00D5,
00CB,
00D0,
00E2,
00F7,
0006,
000C,
000B,
0001,
00FE,
00F3,
00EA,
00E6,
00E9,
00F5,
0002,
000A,
000E,
000E,
0003,
0003,
00FF,
00FD,
00FD,
00FF,
0005,
000A,
0010,
0010,
0011,
0000,
0000,
00FF,
00FF,
0001,
0000,
0001,
00FF,
00FE,
00FD,
00FD,
0001,
0001,
0002,
0002,
0001,
0002,
0003,
0002,
0001,
0000,
00FF,
00FE,
00FF,
0000,
0003,
0004,
0004,
0004,
0003,
0002,
0000,
00FE,
0000,
0002,
0002,
0004,
0007,
0009,
0008,
0003,
0002,
0001,
0001,
0002,
0004,
0007,
0007,
0008,
000B,
0008,
0002,
0003,
0003,
0001,
0002,
0006,
0007,
0008,
0009,
000B,
0007,
0004,
0004,
0004,
0001,
0002,
0007,
0006,
0009,
000B,
000B,
0007,
0003,
0003,
0003,
0000,
0000,
0002,
0004,
0007,
000A,
000C,
0008,
0005,
0002,
0001,
00FE,
0001,
0002,
0001,
0005,
0008,
000A,
0009,
0003,
0001,
0001,
00FD,
0000,
0001,
0004,
0008,
0007,
0005,
0004,
00FF,
00FF,
00FF,
00FC,
00FC,
00FE,
0000,
0003,
0002,
0002,
0000,
00FD,
00FD,
00FC,
00FD,
0002,
0002,
0003,
0004,
0005,
0007,
0005,
00FF,
00FC,
00FB,
00F7,
0002,
0001,
0002,
0003,
0003,
0006,
0006,
0002,
00FB,
00FB,
00F8,
0001,
0001,
0003,
0003,
0002,
0005,
000A,
0007,
00FE,
00F7,
00F2,
0000,
0000,
0004,
0003,
0002,
0005,
000C,
000A,
00FF,
00F2,
00ED,
00FD,
0000,
0003,
0002,
0001,
0003,
000D,
000D,
00FE,
00ED,
00E7,
0000,
0001,
0005,
0003,
0003,
0005,
0010,
0010,
00FE,
00E9,
00E5,
0000,
0002,
0004,
0004,
0004,
0006,
0010,
0010,
00FF,
00E9,
00E5,
0000,
0001,
0004,
0003,
0004,
0007,
000C,
000D,
00FE,
00EA,
00E6,
0000,
0003,
0005,
0004,
0004,
0005,
0009,
0009,
0000,
00F0,
00E9,
0000,
0003,
0004,
0002,
0002,
0002,
0004,
0004,
0000,
00F5,
00EC,
0001,
0002,
0002,
0000,
0001,
0002,
0002,
0002,
00FE,
00F8,
00EC,
0003,
0002,
0000,
0000,
00FE,
00FF,
00FF,
00FF,
00FD,
00FF,
0000,
0001,
0000,
00FE,
00FD,
00FC,
00FC,
00FE,
00FD,
00FB,
00FE,
00FF,
0000,
00FE,
00FD,
00FD,
00FB,
00FC,
00FD,
00FC,
00FC,
00FB,
00FE,
0000,
00FE,
00FE,
00FD,
00FC,
00FB,
00FC,
00FD,
00FC,
00FC,
00FE,
0000,
00FF,
0000,
00FC,
00FB,
00FB,
00FC,
00FC,
00FB,
00FC,
00FF,
00FF,
00FF,
00FE,
00FD,
00FD,
00FD,
00FC,
00FD,
00FD,
00FF,
0000,
0000,
0000,
00FF,
00FE,
00FC,
00FE,
00FE,
0000,
00FE,
00FF,
0001,
0001,
00FF,
00FF,
00FC,
00FE,
0001,
0001,
0001,
00FF,
00FF,
0001,
0002,
0001,
00FF,
00FF,
0001,
0002,
0001,
0002,
0001,
0002,
0001,
0002,
0003,
0001,
0003,
0000,
0001,
0002,
0002,
0001,
0002,
0001,
0000,
0001,
0001,
0000,
00FF,
0000,
0001,
0000,
00FF,
0001,
0000,
0002,
0004,
0005,
0002,
0005,
0003,
00FA,
00F3,
00F5,
00FD,
0006,
0002,
0004,
0003,
0003,
0006,
0003,
00F9,
00F3,
00F7,
0001,
000A,
0002,
0003,
0003,
0003,
0006,
0001,
00F4,
00EE,
00F8,
0004,
000D,
0002,
0004,
0002,
0004,
0006,
00FD,
00EE,
00EA,
00F9,
0008,
000F,
0003,
0004,
0004,
0005,
0006,
00F8,
00E6,
00E9,
00FF,
000D,
000E,
0004,
0004,
0003,
0005,
0004,
00F6,
00E5,
00ED,
0005,
0011,
000D,
0004,
0005,
0004,
0003,
0001,
00F4,
00E7,
00F5,
000C,
0012,
000C,
0005,
0003,
0003,
0002,
00FF,
00F3,
00EA,
00FB,
000F,
0012,
0009,
0003,
0003,
0003,
0002,
00FD,
00F2,
00F1,
0002,
0010,
0010,
0008,
0006,
0003,
0002,
0000,
00FC,
00F5,
00F7,
0006,
000E,
000C,
0008,
0003,
0001,
0001,
00FE,
00FA,
00F5,
00F9,
0006,
000C,
000C,
0008,
00F7,
00F8,
00FB,
00FD,
00FD,
00FE,
0000,
0001,
0001,
0000,
00FF,
00F8,
00FA,
00FD,
00FF,
0001,
0001,
0003,
0005,
0003,
0003,
0000,
00FC,
00FC,
0000,
0003,
0005,
0006,
0009,
000A,
0009,
0007,
0004,
00FD,
0000,
0004,
0008,
0009,
000C,
000E,
0010,
000D,
000B,
0007,
0000,
0004,
0009,
000C,
000F,
0011,
0013,
0013,
0011,
000F,
000A,
0003,
0007,
000B,
000F,
0012,
0016,
0016,
0017,
0014,
0011,
000B,
0006,
0009,
000E,
0012,
0014,
0017,
0019,
0019,
0015,
0011,
000B,
0006,
000B,
000D,
0013,
0016,
0018,
0019,
0019,
0016,
0011,
000A,
0005,
000A,
000D,
0012,
0014,
0017,
0017,
0017,
0013,
000E,
0008,
0005,
0008,
000A,
000C,
0010,
0011,
0013,
0012,
000F,
000C,
0007,
0003,
0005,
0009,
000A,
000C,
000D,
000D,
000D,
000A,
0008,
0004,
0000,
00FE,
00FD,
00FC,
00FC,
00FE,
00FE,
0000,
0001,
0000,
0000,
00FF,
00FE,
00FD,
00FB,
00FD,
00FF,
0000,
0001,
0002,
0002,
0001,
00FE,
00FC,
00FB,
00FC,
00FE,
00FF,
0002,
0002,
0003,
0001,
0002,
00FD,
00FB,
00FA,
00FB,
00FE,
0001,
0003,
0003,
0002,
0001,
0002,
00FC,
00FA,
00FC,
00FC,
0000,
0002,
0003,
0003,
0003,
0001,
0002,
00FC,
00FB,
00FD,
00FE,
0002,
0003,
0004,
0003,
0002,
0000,
0001,
00FD,
00FB,
00FC,
00FE,
0002,
0004,
0003,
0003,
0002,
0003,
0002,
00FD,
00FD,
00FE,
00FF,
0002,
0003,
0003,
0001,
0002,
0002,
0002,
00FD,
00FD,
00FF,
0000,
0002,
0003,
0001,
0001,
0002,
0003,
0002,
00FE,
00FE,
00FF,
0000,
0001,
0001,
0002,
0002,
0002,
0001,
0002,
00FF,
00FF,
0000,
0000,
0001,
0002,
0002,
0003,
0001,
0002,
0002,
0014,
0013,
0016,
0017,
0017,
0016,
0012,
000E,
000C,
0009,
0006,
0012,
0013,
0016,
0016,
0015,
0014,
0011,
000D,
0008,
0004,
0001,
0012,
0012,
0015,
0015,
0014,
0012,
000E,
0009,
0003,
00FF,
00FC,
0012,
0012,
0013,
0014,
0013,
000F,
000A,
0003,
00FD,
00FA,
00F7,
0012,
0012,
0011,
0011,
000F,
000A,
0002,
00FA,
00F5,
00F4,
00F4,
000E,
000E,
000D,
000C,
0008,
0002,
00FA,
00F3,
00EE,
00EE,
00F0,
000A,
000A,
0009,
0006,
0001,
00F9,
00F1,
00E9,
00E6,
00E9,
00ED,
0006,
0005,
0003,
00FF,
00F9,
00F1,
00E7,
00E2,
00E1,
00E6,
00ED,
0002,
0001,
00FE,
00F9,
00F3,
00EC,
00E5,
00DF,
00E0,
00E8,
00ED,
00FF,
00FD,
00FA,
00F5,
00F0,
00EA,
00E2,
00DF,
00E3,
00EC,
00F2,
00FD,
00FA,
00F6,
00F2,
00EE,
00E8,
00E5,
00E3,
00E8,
00EF,
00F5,
00FD,
00FE,
00FE,
00FE,
00FC,
00FB,
00FA,
00F9,
00FA,
00FC,
00FA,
0000,
0001,
00FF,
00FF,
00FE,
00FD,
00FC,
00FC,
00F9,
00FC,
00FB,
0000,
0001,
0001,
00FF,
00FE,
00FD,
00FC,
00FB,
00FA,
00FC,
00FA,
0003,
0003,
0003,
0002,
0000,
00FD,
00FB,
00FB,
00FB,
00FC,
00FB,
0003,
0003,
0003,
0002,
0000,
00FF,
00FD,
00FD,
00FC,
00FC,
00FC,
0003,
0003,
0005,
0004,
0003,
0002,
0000,
00FD,
00FD,
00FD,
00FC,
0002,
0004,
0005,
0004,
0003,
0003,
0001,
0001,
00FF,
00FF,
00FD,
0003,
0003,
0006,
0005,
0004,
0004,
0003,
0002,
0000,
00FF,
00FD,
0003,
0003,
0004,
0004,
0006,
0005,
0003,
0002,
0001,
0000,
0000,
0000,
0002,
0002,
0002,
0004,
0005,
0002,
0001,
0001,
00FF,
00FE,
00FD,
00FE,
00FF,
0002,
0003,
0005,
0005,
0004,
0003,
0001,
0001,
00FD,
00FE,
00FF,
0000,
0000,
0004,
0007,
0005,
0003,
0000,
00FE,
0004,
0004,
0006,
0003,
00FF,
00F6,
00EF,
00F2,
00FA,
00FE,
0002,
0001,
00FE,
00FF,
0006,
000F,
001E,
0026,
0022,
0019,
000B,
0002,
00FD,
00FF,
00FA,
00F1,
00E1,
00CE,
00C6,
00CA,
00D4,
00E4,
00F3,
0002,
0000,
0008,
0011,
001F,
002D,
0031,
0033,
0029,
001C,
000D,
00FF,
00FE,
00F8,
00F1,
00EE,
00F2,
00F7,
00F7,
00F4,
00F4,
00F9,
00FF,
0003,
0008,
0005,
00F6,
00DF,
00CD,
00D0,
00E1,
00F2,
00FD,
0004,
0001,
0001,
000A,
0020,
003B,
004C,
0046,
0031,
0018,
0007,
00FF,
00FF,
00FC,
00F0,
00E0,
00D1,
00CB,
00CF,
00DD,
00EE,
00FB,
00FF,
00FD,
0002,
000D,
0012,
0015,
0017,
0015,
0010,
0009,
0001,
0002,
0003,
0003,
00FF,
00FC,
00FC,
00FC,
00FB,
00FC,
00FE,
0002,
0003,
0001,
0001,
0006,
000B,
0007,
00FE,
00F9,
00FA,
0000,
0003,
0000,
0004,
0005,
00FA,
00E9,
00E3,
00F6,
0009,
0012,
0009,
0000,
00FE,
00F5,
00E8,
00E8,
00FA,
001B,
0029,
0017,
00FD,
00F2,
00F9,
00FE,
0005,
001A,
0039,
0041,
0022,
00F4,
00DD,
00E5,
00FB,
0002,
0002,
0008,
0007,
00E8,
00BB,
00A5,
00C0,
00F0,
0010,
000D,
0003,
00FE,
00F8,
00E6,
00DC,
00F6,
0028,
004A,
003F,
0019,
00FE,
00FC,
00FE,
00FB,
0004,
0024,
0037,
0027,
00FE,
00D9,
00D9,
00ED,
00FA,
00FC,
0003,
000A,
00FF,
00E0,
00C9,
00CE,
00EC,
0009,
000E,
0007,
0002,
0005,
00FF,
00F5,
0000,
0014,
0028,
0028,
0015,
0004,
0003,
0003,
00FD,
00FD,
0005,
000A,
0004,
00F9,
00ED,
00ED,
00F7,
00FD,
00FF,
0001,
0004,
0003,
00FE,
00FB,
00FC,
0001,
0006,
0003,
0001,
00FE,
0007,
0004,
00FA,
00F5,
00FD,
0006,
0008,
0005,
00FF,
00FA,
00FB,
0007,
0008,
00FD,
00F2,
00F8,
0006,
000C,
0006,
00FE,
00FA,
00F9,
0008,
000C,
00FE,
00EE,
00F1,
0006,
0013,
000C,
00FA,
00F7,
00F9,
0006,
0012,
0006,
00ED,
00E7,
0003,
0019,
000F,
00F9,
00F5,
00F6,
0004,
0014,
000C,
00EA,
00DD,
0001,
0021,
0014,
00F7,
00F4,
00F6,
0003,
0015,
0012,
00EB,
00DB,
00FF,
0024,
0015,
00F6,
00F5,
00F7,
0002,
0014,
0011,
00EE,
00DB,
00FB,
0020,
0015,
00F7,
00F4,
00F8,
0002,
0010,
000E,
00F2,
00E2,
00FA,
0018,
0013,
00FC,
00F5,
00F9,
0003,
000D,
000B,
00F8,
00EA,
00F8,
000F,
0011,
0000,
00F6,
00FB,
0003,
0006,
0006,
00FD,
00F2,
00F8,
0009,
000C,
0001,
00F8,
00FC,
0002,
0004,
0002,
00FD,
00F4,
00F8,
0006,
0009,
0004,
00F9,
00F8,
00FB,
00FA,
00FC,
00FE,
00FF,
00FE,
00FB,
00F7,
00F6,
00F4,
00F7,
00FC,
00FD,
0000,
0006,
0009,
0007,
0003,
00FC,
00F9,
00F5,
00F7,
00FB,
0001,
0009,
0012,
0015,
0015,
000D,
0004,
00FE,
00F7,
00F8,
00FD,
0006,
0011,
001F,
0026,
0024,
001A,
000E,
0004,
00FC,
00F8,
0000,
0009,
0019,
002A,
0034,
0031,
0023,
0015,
0009,
00FE,
00F7,
00FF,
0009,
001A,
002A,
0032,
0031,
0026,
0017,
000A,
00FE,
00F4,
00FA,
0004,
0011,
001E,
0027,
0028,
001E,
0013,
0004,
00F8,
00F0,
00F3,
00FB,
0007,
0012,
0019,
001A,
0011,
0007,
00FC,
00F3,
00ED,
00EF,
00F3,
00FB,
0004,
0008,
0009,
0005,
00FD,
00F5,
00EF,
00E9,
00EB,
00EB,
00F1,
00F5,
00FA,
00FA,
00F8,
00F3,
00ED,
00EA,
00E7,
00E6,
00E8,
00E8,
00ED,
00F1,
00F0,
00EC,
00EB,
00E8,
00E6,
00FF,
00FF,
00FD,
0009,
0005,
00F9,
0002,
00FC,
0001,
0003,
00FF,
00FE,
00FF,
0007,
0007,
00F3,
000B,
0002,
00F3,
0005,
00FE,
0000,
00FE,
0002,
0009,
00F1,
0008,
0014,
00E5,
00FB,
000C,
00FF,
0001,
00FF,
0008,
00F7,
00FA,
0026,
00F4,
00D6,
000D,
000D,
00FF,
0000,
0003,
0000,
00F0,
0021,
001A,
00C4,
00E7,
0025,
000C,
00FB,
00FC,
00FF,
00F8,
0011,
0028,
00E1,
00BB,
0012,
0034,
0002,
00F0,
00FC,
00FD,
000A,
0018,
00FE,
00C2,
00E2,
0040,
0026,
00E1,
00F2,
0003,
0007,
000A,
00FD,
00E8,
00D3,
0019,
004C,
00EE,
00D3,
0008,
0008,
0006,
00F9,
00F9,
00EB,
00F4,
0039,
0019,
00C3,
00F8,
0018,
00FF,
00FD,
00FB,
00FE,
00F4,
0014,
0028,
00DC,
00DF,
001D,
0003,
00FC,
00FD,
00FF,
00FC,
0001,
0015,
00F9,
00E3,
000D,
000A,
00F6,
0006,
0001,
0001,
0006,
00FA,
0001,
0004,
00F8,
00FE,
00FA,
00F9,
00F9,
0005,
0006,
0000,
00FF,
0006,
00FC,
00FA,
00FD,
00F4,
00FA,
0003,
00FF,
0000,
0002,
000C,
00FF,
00F0,
00F9,
00F9,
00F9,
0006,
0002,
00FE,
0007,
0008,
0003,
00EA,
00EE,
0007,
00FE,
0000,
0005,
00FA,
0009,
0006,
00FA,
00F1,
00E8,
0008,
0011,
00F4,
00FF,
0000,
00FD,
0008,
00F8,
00F4,
00F1,
0000,
0016,
00F9,
00EE,
0002,
0000,
0002,
00FA,
00F9,
00F9,
00FB,
000D,
0005,
00E8,
00FC,
0007,
0002,
0001,
00F7,
00FF,
00FC,
0002,
0005,
00F4,
00F2,
0008,
0005,
00FD,
00FF,
00FC,
00FD,
00F9,
0006,
00FD,
00EF,
00FF,
000E,
0001,
00FA,
00FE,
00FB,
00FA,
0001,
0001,
00F3,
00F9,
0007,
0006,
00FF,
00FF,
0003,
00F5,
00FA,
00FD,
00F9,
00F8,
0003,
0004,
00FE,
0001,
0005,
0004,
0006,
0007,
0009,
000A,
0009,
0007,
0006,
0006,
0006,
0004,
0003,
0003,
0004,
0007,
000A,
000D,
000F,
000E,
000D,
000D,
000B,
0007,
00FD,
00FF,
0000,
0003,
0009,
000C,
000D,
000E,
000C,
0008,
0004,
00F9,
00FC,
00F8,
00F8,
00FC,
00FC,
00FD,
0001,
0002,
0002,
0000,
00F7,
00F9,
00F5,
00F2,
00EE,
00EB,
00EC,
00ED,
00F3,
00FA,
00FA,
00F8,
00F8,
00F5,
00F1,
00EB,
00E6,
00E7,
00E9,
00EB,
00F2,
00F4,
00FB,
00FD,
00FD,
00FB,
00FA,
00F7,
00F6,
00F7,
00F3,
00F6,
00F6,
00FF,
0002,
0001,
0002,
0005,
0006,
0003,
0001,
00FE,
00FD,
00FA,
0003,
0006,
0008,
0008,
000A,
000C,
000A,
0005,
0003,
0002,
0000,
0004,
0006,
0007,
000A,
000A,
000A,
000A,
0008,
0007,
0005,
0003,
0004,
0003,
0003,
0004,
0005,
0006,
0006,
0008,
0009,
0008,
0006,
00FD,
0001,
0006,
000A,
000B,
000C,
000B,
0009,
0005,
0001,
00FE,
0000,
0005,
000A,
000F,
0013,
0012,
0010,
000E,
0009,
0004,
00FF,
0002,
0009,
0010,
0016,
001B,
001A,
0018,
0014,
000D,
0006,
0001,
0005,
000C,
0014,
001B,
0020,
001F,
001C,
0018,
0010,
0008,
0002,
0005,
000E,
0017,
001E,
0023,
0021,
001E,
0018,
0011,
0009,
0002,
0005,
000D,
0015,
001E,
0021,
001F,
001D,
0016,
000E,
0006,
0000,
0003,
000B,
0012,
0019,
001C,
0019,
0017,
0011,
0008,
0002,
00FD,
00FF,
0006,
000D,
0012,
0015,
0014,
0012,
000B,
0003,
00FD,
00F9,
00FD,
0001,
0007,
000A,
000D,
000C,
000B,
0005,
0000,
00FA,
00F6,
00F9,
00FD,
0000,
0005,
0005,
0004,
0002,
00FF,
00FA,
00F6,
00F4,
00F7,
00F9,
00FB,
00FF,
00FF,
00FE,
00FC,
00FA,
00F8,
00F3,
00F2,
0000,
00FE,
00FE,
0002,
00FE,
00F9,
0003,
000F,
0002,
00FB,
0000,
00FF,
00FF,
0004,
0004,
00FC,
00EF,
00F0,
000E,
001A,
00FB,
00FB,
00FE,
00FD,
0002,
0012,
000E,
00ED,
00D5,
00EA,
001F,
0016,
00F6,
00FF,
00FB,
00F4,
000D,
002C,
0011,
00D6,
00C3,
00FA,
0028,
0006,
0003,
00FC,
00EA,
00EE,
0028,
0044,
000A,
00C8,
00C9,
000A,
0017,
0002,
0007,
00F7,
00D8,
00F6,
0047,
0046,
00FA,
00CA,
00E4,
000D,
00FF,
000A,
000B,
00E5,
00CD,
000C,
004C,
0028,
00F2,
00E5,
00FC,
0000,
0003,
000D,
0003,
00D4,
00D2,
001C,
0036,
000B,
00F2,
00FA,
0000,
00FE,
0004,
000F,
00F8,
00D0,
00E9,
0022,
0015,
00F9,
00FC,
0002,
00FF,
0002,
0008,
000C,
00F4,
00E1,
00FD,
0014,
0004,
00FB,
0001,
0002,
0003,
0004,
0008,
0006,
00F7,
00F1,
0003,
0006,
00FD,
0003,
0003,
0008,
000B,
000B,
000E,
000E,
000E,
000E,
0009,
0008,
0000,
0000,
0002,
00FF,
0000,
00FF,
0000,
0001,
00FF,
00FE,
00FD,
0001,
0000,
00FF,
00FE,
00FD,
00FC,
00FC,
00FD,
00FD,
00FF,
00FC,
0002,
0000,
0000,
0000,
00FF,
00FF,
00FE,
00FD,
00FE,
00FE,
00FB,
0005,
0003,
0002,
0004,
0006,
0007,
0002,
0002,
00FE,
00FF,
00FB,
0001,
0000,
0001,
0001,
0005,
0006,
0003,
0000,
00FD,
00FF,
00F9,
0002,
00FF,
0001,
0002,
0002,
0004,
0003,
0001,
00FD,
00FE,
00FD,
0003,
0002,
0000,
00FF,
00FE,
0000,
0001,
0002,
00FE,
00FF,
00FE,
0003,
00FF,
0000,
00FD,
00FB,
00F8,
00F9,
00FC,
00FB,
00FF,
0000,
0002,
0000,
00FF,
0000,
00FE,
00FB,
00FC,
00FB,
00FB,
00FF,
0000,
00FA,
00FA,
00F8,
00F7,
00F6,
00F5,
00F6,
00F6,
00FA,
00FE,
0000,
0003,
0006,
000A,
000D,
0010,
0012,
0014,
0010,
000E,
000A,
0006,
00F9,
00F7,
00F7,
00FB,
00FE,
00FF,
00FE,
00F9,
00F6,
00F4,
00F4,
00FA,
00F4,
00EB,
00E2,
00DB,
00D5,
00D5,
00E1,
00EB,
00F2,
00F8,
0003,
00FD,
00F1,
00E3,
00D7,
00D5,
00D8,
00E6,
00F8,
0000,
0006,
0007,
0009,
000F,
0013,
0015,
0017,
0012,
0008,
0005,
0005,
0006,
000A,
0016,
002A,
0040,
004F,
0053,
0048,
0031,
001D,
000C,
0005,
0006,
000A,
0012,
001F,
0025,
0028,
0028,
0024,
0018,
000B,
0005,
0000,
00F8,
00ED,
00E0,
00DC,
00DF,
00E7,
00F3,
00FC,
0000,
0005,
00F9,
00EE,
00E2,
00D5,
00CA,
00CA,
00D0,
00D8,
00E9,
00F5,
00FE,
00F8,
00F9,
00FA,
00FB,
00F7,
00F2,
00EE,
00ED,
00EF,
00F2,
00F4,
0002,
0009,
000E,
0014,
0019,
001A,
0017,
0012,
000E,
0007,
0003,
0000,
0003,
0006,
0004,
00FA,
00EF,
00EA,
00EB,
00F3,
00F9,
00FF,
00FB,
00F6,
00FC,
000E,
002A,
0041,
0049,
0039,
0020,
000C,
0001,
0006,
00FF,
00ED,
00D4,
00BB,
00B1,
00BB,
00D5,
00EE,
00FD,
0006,
0008,
0011,
0018,
0016,
000B,
00F7,
00E8,
00E3,
00E9,
00F4,
00FD,
00F9,
00FB,
000D,
002A,
0047,
005C,
005A,
0045,
0025,
000E,
0001,
0001,
00F6,
00E4,
00D5,
00CB,
00C9,
00D1,
00E2,
00F4,
00FE,
0003,
0000,
0008,
000C,
0007,
0000,
00FC,
00FD,
00FF,
0001,
0001,
0001,
00FE,
00FD,
0001,
000A,
000B,
0008,
0002,
0001,
00FE,
00FB,
00FD,
00FF,
00FD,
00F7,
00F9,
00FB,
00FB,
00FD,
00F9,
00FC,
00FE,
00FD,
0000,
0002,
0003,
0000,
00FD,
00FC,
00FF,
0001,
0001,
0000,
0000,
0002,
0001,
0002,
0004,
0004,
0002,
0002,
0001,
0002,
0002,
0001,
00FF,
00FE,
0009,
00F3,
0008,
0005,
00F5,
0009,
0002,
00FB,
0001,
00FF,
00FA,
000F,
00E8,
000A,
000E,
00E6,
0013,
00FE,
00FB,
0001,
0002,
00F8,
0019,
00DA,
000E,
001C,
00D3,
001C,
00FB,
00FB,
0002,
0004,
00F5,
0022,
00D4,
0010,
0028,
00BF,
0025,
00F8,
00FD,
0002,
0004,
00EF,
0029,
00CD,
0014,
0034,
00B3,
002E,
00F7,
0000,
0001,
0005,
00EA,
002E,
00CD,
000F,
0035,
00B0,
0031,
00F7,
0001,
0001,
0005,
00EB,
002E,
00D0,
000A,
0031,
00B8,
0029,
00F9,
0000,
0001,
0004,
00ED,
0027,
00D7,
0003,
0027,
00C8,
001E,
00FC,
00FE,
0001,
0004,
00F2,
0020,
00DE,
0005,
001D,
00D8,
0014,
00FF,
00FE,
0003,
0003,
00F5,
0017,
00E8,
0005,
000F,
00E9,
000C,
00FF,
00FE,
0002,
0003,
00FA,
0010,
00EE,
0006,
0008,
00F6,
0006,
0000,
00FF,
0002,
0000,
0003,
0005,
0008,
0007,
0009,
000C,
0009,
0002,
00FC,
00FC,
0004,
0006,
0008,
000A,
000E,
0014,
0015,
0011,
000F,
0005,
0005,
0003,
0008,
000B,
000D,
0013,
001A,
0018,
0014,
0014,
000B,
000A,
00FE,
0005,
000A,
000F,
0014,
0019,
0016,
0011,
0011,
000C,
000C,
00FE,
0004,
0006,
000A,
0010,
0010,
000D,
0008,
000C,
0007,
0007,
00FA,
00FE,
00FE,
0001,
0003,
0000,
0000,
0001,
0006,
0003,
0005,
00F9,
00F9,
00F5,
00F6,
00F8,
00F4,
00F6,
00FB,
0001,
00FE,
0002,
00F5,
00F5,
00EF,
00F0,
00EE,
00EB,
00F0,
00F5,
00F9,
00FA,
00FD,
00F7,
00F4,
00ED,
00EB,
00E9,
00E5,
00EB,
00F0,
00F3,
00F6,
00FC,
00FD,
00FA,
00F4,
00ED,
00EB,
00EA,
00F0,
00F1,
00F3,
00F8,
00FC,
0000,
00FF,
00FB,
00F3,
00F1,
00F2,
00F5,
00F4,
00F4,
00F9,
00F9,
00FF,
00FF,
000E,
0005,
00E2,
00ED,
0009,
0013,
000B,
00FD,
00FE,
00FE,
000F,
0013,
00E0,
00D0,
0009,
0029,
001C,
00F9,
00F1,
00FE,
0009,
0014,
00F2,
00BD,
00F2,
003F,
0034,
0002,
00DF,
00F2,
0004,
000D,
00FE,
00CF,
00D3,
003B,
0056,
000E,
00D1,
00D6,
0002,
000B,
0004,
00E9,
00D8,
001A,
005E,
0029,
00CB,
00B9,
00F1,
001D,
000B,
00FA,
00EC,
0001,
003C,
003B,
00E4,
00A9,
00D8,
0023,
0022,
00FC,
00FE,
00FB,
0016,
0028,
00FF,
00C0,
00C5,
0016,
0034,
0005,
00F1,
0002,
0000,
000F,
000B,
00E3,
00D0,
0002,
002E,
0010,
00EE,
00FE,
0000,
00FD,
0008,
00FC,
00E4,
00F6,
0016,
0011,
00F9,
00F7,
0001,
00FD,
0000,
0008,
00FC,
00F2,
0005,
0007,
0003,
00FC,
00FF,
00FF,
00FE,
0003,
0004,
00FA,
00FB,
0001,
0001,
0008,
00FF,
0000,
00FE,
0000,
0000,
00FB,
00F1,
00F4,
000C,
0021,
0010,
00F7,
00F4,
00FE,
0002,
0006,
0003,
00F2,
00DB,
00EC,
001E,
002C,
000F,
00F6,
00F6,
0004,
0007,
0007,
00FD,
00DE,
00CC,
00F6,
0027,
0028,
000A,
00F7,
0004,
000A,
000E,
0010,
00F9,
00C5,
00C7,
0006,
0028,
001B,
0002,
00FF,
0008,
0011,
001E,
0019,
00E3,
00B9,
00DA,
000F,
001A,
000B,
00F9,
00FE,
000D,
001D,
002A,
000C,
00D0,
00C6,
00F6,
000F,
0009,
00F9,
00F4,
0001,
0013,
0026,
0025,
00F8,
00D4,
00E8,
0006,
0006,
0000,
00F1,
00F1,
0004,
0016,
0022,
0015,
00F0,
00E6,
00FD,
0004,
0008,
00FC,
00EC,
00F5,
0007,
0014,
0018,
0004,
00F1,
00F9,
0004,
0006,
0005,
00F8,
00F1,
00FC,
0009,
0010,
0007,
00FC,
00FA,
0000,
0003,
0005,
0002,
00F7,
00FA,
0002,
0007,
0006,
0003,
00FE,
00FF,
0005,
0003,
0002,
00FB,
00F8,
00F4,
00F6,
00FA,
0000,
0002,
0003,
0006,
0006,
0003,
00FC,
00F7,
00F4,
00F9,
00FF,
0004,
0004,
0003,
0009,
0009,
0002,
00FA,
00F4,
00EF,
00F6,
00FF,
0007,
0008,
0006,
000C,
0009,
0005,
00FB,
00F2,
00EC,
00F4,
00FD,
0008,
000B,
000A,
000C,
0009,
0006,
00FC,
00F0,
00E7,
00EF,
00FB,
0008,
000D,
000B,
000E,
000B,
0005,
00FC,
00EE,
00E7,
00F1,
00FF,
000A,
000D,
000C,
0011,
000C,
0006,
00F9,
00ED,
00E8,
00F4,
0002,
000B,
000C,
000B,
0012,
000B,
0006,
00F7,
00ED,
00EE,
00F9,
0004,
000B,
000A,
0009,
000F,
000A,
0003,
00F5,
00EE,
00F1,
00FC,
0003,
0008,
0008,
0006,
000A,
0006,
0000,
00F8,
00F5,
00F8,
0000,
0003,
0005,
0005,
0005,
000A,
0003,
00FE,
00F6,
00F2,
00F5,
00FE,
0001,
0004,
0005,
0006,
0002,
00FE,
00F6,
00F5,
00FD,
000C,
000F,
0006,
00F6,
00F2,
0002,
0005,
0005,
00F6,
00F1,
00FB,
000E,
0014,
0004,
00EF,
00F3,
0008,
0008,
0007,
00F0,
00EA,
00FB,
0018,
001C,
0002,
00E5,
00F0,
000D,
000A,
0008,
00EC,
00E6,
00FD,
001E,
001E,
00FC,
00E0,
00F3,
0010,
000C,
0008,
00E9,
00E5,
0001,
0024,
0021,
00F8,
00DC,
00F5,
0014,
000F,
0006,
00E4,
00E6,
0006,
0026,
001E,
00F3,
00DB,
00F9,
0015,
000F,
0002,
00E2,
00E9,
000D,
0026,
001A,
00F4,
00DD,
00FB,
0012,
000F,
0000,
00E4,
00EF,
000F,
0023,
0012,
00F3,
00E5,
00FC,
000D,
000D,
00FE,
00E8,
00F4,
000D,
001D,
000C,
00F5,
00EC,
00FD,
000B,
0009,
00FD,
00EF,
00FA,
0008,
0012,
0007,
00FB,
00F4,
00FD,
0007,
0004,
00F9,
00F2,
00FC,
0008,
000F,
0007,
00FD,
00F6,
00FB,
0002,
00F1,
00F2,
00EC,
00E8,
00E8,
00EA,
00EB,
00EC,
00EF,
00F6,
00F5,
00FA,
00FC,
00F7,
00F7,
00F5,
00F7,
00F8,
00F7,
00F8,
00FD,
00FC,
00FC,
00FF,
00FA,
00FC,
00FC,
00FA,
00FD,
00FC,
00F9,
00FF,
00FE,
00FE,
0001,
00FB,
00F9,
00FB,
00FA,
00FC,
00FC,
00FB,
00FF,
00FD,
0000,
0002,
00FD,
00F9,
00FE,
00FD,
00FD,
0000,
00FB,
00FD,
0000,
0002,
0002,
0001,
00FE,
0000,
0004,
00FB,
00FF,
0001,
00FD,
0004,
0007,
0000,
0002,
0004,
00FE,
000A,
0005,
00FD,
0007,
0002,
0003,
0008,
0004,
0002,
0007,
0006,
0005,
000C,
0006,
0001,
0005,
0005,
0005,
0005,
0004,
0004,
0008,
0002,
0007,
000A,
0001,
0003,
0006,
0008,
0001,
0005,
0006,
0007,
0008,
0007,
0009,
0008,
0002,
0007,
000F,
0009,
0010,
0012,
0012,
0015,
0012,
0013,
0012,
000B,
0012,
00EE,
00EA,
00E7,
00E5,
00E7,
00EA,
00EA,
00EE,
00F3,
00F5,
00F7,
00EC,
00E9,
00E5,
00E3,
00E6,
00E8,
00EA,
00F1,
00F5,
00F8,
00F9,
00EB,
00E7,
00E5,
00E4,
00E8,
00EA,
00F1,
00F7,
00F9,
00FA,
00FC,
00EA,
00E9,
00E7,
00E7,
00ED,
00F0,
00F9,
00FF,
00FF,
00FF,
0000,
00EC,
00EC,
00EA,
00EE,
00F5,
00FB,
0004,
000A,
0009,
0007,
0005,
00EF,
00F0,
00F2,
00F9,
0000,
0008,
0011,
0016,
0014,
000F,
000B,
00F3,
00F5,
00FA,
0003,
0009,
0013,
001F,
001F,
001D,
0016,
000F,
00F8,
00FC,
0002,
000A,
0012,
001E,
0027,
0025,
0023,
001A,
0011,
00FB,
0001,
0008,
000E,
0017,
0022,
0027,
0028,
0025,
001A,
0011,
00FE,
0005,
000B,
0011,
0019,
0020,
0024,
0024,
0020,
0016,
000E,
0000,
0007,
000C,
0011,
0016,
001B,
001E,
001C,
0016,
0010,
0009,
0001,
00FF,
00FC,
0004,
0005,
00F4,
00FC,
0011,
00F6,
0000,
0004,
00FF,
0002,
0003,
00F4,
0012,
0005,
00E7,
0009,
000A,
00FB,
00FC,
00FE,
00FF,
000B,
00F1,
00F9,
0022,
00FA,
00E2,
0011,
0006,
00FE,
0004,
00F9,
0002,
000A,
00E5,
0011,
000F,
00EE,
0005,
00F7,
000C,
0008,
00F4,
0001,
0017,
00D3,
0010,
002A,
00CE,
0014,
000A,
00F1,
0003,
000E,
00ED,
0012,
0004,
00C7,
003E,
000A,
00C8,
0029,
00F4,
00EF,
0022,
00F0,
00EB,
004B,
00AD,
00EA,
0071,
00BB,
00E9,
0021,
00FE,
00F2,
0021,
00E7,
0010,
0022,
00BA,
0011,
002F,
00DB,
0004,
0012,
00E1,
000C,
000F,
00DC,
0039,
00ED,
00C8,
0038,
0002,
00F0,
0000,
0009,
00F0,
000D,
00FE,
00FE,
000D,
00F5,
00FD,
0004,
0005,
00F7,
000D,
00FF,
00FA,
0008,
00F8,
0010,
00FD,
00F5,
000D,
00FD,
00FD,
0004,
00FD,
0008,
00FF,
00F9,
000D,
00F7,
00FF,
0004,
00FF,
0001,
0002,
00FA,
0011,
00F3,
00FF,
000B,
00F7,
0002,
0001,
00FE,
0001,
00FA,
0003,
0011,
00E1,
000B,
000D,
00EF,
0000,
0007,
00FC,
00FF,
00FB,
000F,
00FD,
00E2,
0020,
00FF,
00E7,
000A,
0008,
00FA,
0002,
00FE,
000E,
00EC,
00F8,
0022,
00F0,
00EB,
0019,
00FF,
00F7,
0002,
00FD,
000C,
00EA,
0001,
0024,
00DE,
00F4,
0029,
00EB,
00FE,
00FF,
0002,
000B,
00DE,
001A,
001C,
00BE,
0020,
001B,
00D6,
000E,
00FC,
000A,
00FA,
00E5,
003C,
00DF,
00D0,
004E,
00E1,
00EC,
0012,
00FF,
000C,
00E7,
000E,
0023,
00BA,
001A,
002B,
00C4,
0019,
0001,
0005,
00FF,
00F1,
001F,
00F1,
00E1,
0031,
00EC,
00ED,
0018,
00F8,
0002,
00F7,
0005,
000A,
00EA,
0001,
0010,
00E9,
000B,
00FD,
0004,
0000,
0001,
0004,
00FF,
00F9,
0015,
00F8,
00F2,
000F,
00FF,
0000,
0003,
00FF,
00FD,
00FA,
001C,
0006,
00D1,
000F,
0014,
00F8,
0003,
00FD,
00FC,
0001,
0012,
000F,
00CC,
00E9,
0031,
0008,
00F6,
00FD,
00FC,
0005,
000C,
0007,
00E6,
00D3,
0027,
0036,
00F0,
00E9,
00FF,
0003,
000C,
00FB,
00F5,
00E8,
00FE,
0044,
0012,
00C5,
00F1,
0010,
0007,
00FD,
00F1,
0002,
00F7,
001A,
0038,
00D4,
00C3,
001F,
000D,
0001,
00F8,
0001,
0008,
00F8,
0023,
000C,
00AF,
0008,
002E,
00F4,
00FF,
00FE,
0009,
00FF,
00FD,
001D,
00DA,
00DB,
0035,
0002,
00F4,
00FE,
0002,
0005,
00F8,
000B,
0001,
00DB,
0012,
001A,
00EA,
0003,
0000,
0003,
00FD,
00FF,
0008,
00F3,
00FC,
0011,
00F8,
00FB,
0006,
0000,
00FE,
00FC,
0005,
00FB,
00FD,
0003,
00FD,
0001,
0005,
00FC,
0001,
00FB,
0001,
0002,
00F9,
0006,
0003,
00F8,
0009,
00FB,
0000,
0003,
00FB,
0000,
000B,
00EF,
000C,
0005,
00EF,
0013,
00F8,
0002,
0003,
00FC,
00FA,
0019,
00DC,
0017,
000B,
00E0,
001E,
00F3,
0003,
0003,
0000,
00F0,
0029,
00C6,
0022,
000E,
00D6,
0027,
00EF,
0003,
0001,
0006,
00E9,
0036,
00B7,
0029,
0011,
00CB,
002C,
00ED,
0005,
0001,
0007,
00E2,
003E,
00B1,
002D,
0015,
00C9,
002B,
00EE,
0003,
0000,
0006,
00E5,
003A,
00B8,
0027,
0016,
00CB,
002A,
00F0,
0002,
0001,
0003,
00EB,
002D,
00C9,
0019,
0015,
00D1,
0023,
00F3,
0002,
0003,
0001,
00F5,
001E,
00DC,
000E,
0014,
00DF,
001A,
00F8,
0001,
0004,
00FD,
00FC,
000F,
00ED,
0005,
0010,
00EC,
000F,
00FB,
0000,
0003,
00FA,
0001,
0006,
00F5,
0000,
000C,
00F2,
0007,
00FF,
0000,
0000,
00FD,
00FB,
00F8,
00F9,
00FE,
0005,
0009,
0006,
0005,
0003,
0008,
000D,
0017,
0024,
0027,
001C,
000A,
00FF,
00FA,
00FB,
00FE,
00FC,
00F5,
00E8,
00D6,
00CA,
00C7,
00D4,
00E8,
00F6,
00FB,
00FD,
00FE,
0000,
0007,
000F,
0020,
002F,
0034,
002C,
001B,
000F,
0009,
00FF,
0005,
000B,
000F,
000E,
0003,
00F5,
00EC,
00EB,
00F3,
00F6,
00FC,
00F7,
00F0,
00E0,
00D1,
00CA,
00D2,
00DE,
00EE,
00F9,
00FE,
0004,
0007,
000E,
0019,
0029,
0036,
0038,
0031,
0020,
000F,
0008,
00FC,
00FA,
00F8,
00F2,
00EB,
00E6,
00E2,
00E5,
00EE,
00F8,
00FD,
00FE,
0000,
0005,
0009,
000B,
0008,
0008,
0007,
0001,
00FE,
00FB,
0004,
0002,
00FD,
00FB,
00FA,
00FC,
00FE,
0001,
0003,
0003,
0005,
0000,
0001,
0002,
0002,
0004,
0001,
0001,
0002,
00FE,
0000,
00FE,
0002,
00FF,
00FC,
00F8,
0001,
0009,
000F,
0010,
000D,
0008,
0006,
0004,
000A,
000C,
00FD,
00E4,
00D2,
00CC,
00D4,
00E3,
00F0,
00F7,
00FA,
00FD,
0011,
002D,
0047,
004D,
003D,
0025,
0011,
0007,
0003,
00FA,
00EE,
00D7,
00C3,
00C3,
00DE,
0000,
000F,
0014,
000C,
0008,
0006,
000F,
0015,
0007,
00E7,
00CB,
00C4,
00CF,
00E0,
00F0,
00F8,
0003,
0006,
0017,
003A,
0050,
004D,
0032,
0017,
000B,
0004,
0003,
00F7,
00EF,
00DB,
00CA,
00CE,
00E5,
00FF,
0006,
0003,
0000,
00FD,
0003,
0008,
000F,
000A,
00FC,
00EF,
00F0,
00FB,
0001,
0001,
0002,
0002,
0002,
0001,
0009,
000F,
000B,
00FF,
00FB,
00FE,
0001,
0004,
00FF,
0000,
00FF,
00F9,
00FB,
0002,
0007,
0005,
00FF,
00FC,
00FD,
0000,
00FF,
0002,
0004,
0000,
00FD,
00FE,
00FF,
0003,
0001,
0001,
0007,
0002,
00FB,
00F6,
00FD,
0004,
0006,
0007,
0004,
00FF,
00FC,
0003,
00FD,
00F6,
00FA,
0008,
000D,
0008,
0003,
00FD,
00FD,
00FC,
0000,
00F6,
00F6,
0005,
000E,
000F,
000A,
0002,
00FE,
00FE,
00FD,
00FC,
00F3,
00FF,
000E,
000F,
000D,
0006,
00FE,
00FD,
00FC,
00FA,
00F7,
00F7,
0006,
0015,
0013,
000B,
00FF,
00F6,
00F5,
00F5,
00F9,
00F9,
0000,
000D,
001D,
0019,
0008,
00F6,
00EC,
00EF,
00F8,
0001,
00FE,
0008,
0011,
0016,
000E,
00F6,
00E7,
00E7,
00F3,
0001,
000A,
0004,
000E,
0010,
000A,
00FD,
00E8,
00E0,
00EC,
0001,
000A,
0009,
0003,
000A,
0007,
00FE,
00EF,
00E4,
00EB,
00FB,
000C,
000B,
0005,
0003,
0003,
0000,
00F8,
00EC,
00ED,
00FB,
0008,
000C,
0006,
0004,
0000,
00FC,
00F8,
00F2,
00F1,
00FA,
0006,
000C,
0007,
0003,
0003,
00FF,
0006,
00F1,
00FA,
0019,
00F7,
00F2,
000B,
0000,
0002,
00FE,
00FB,
0010,
0007,
00CF,
0006,
0029,
00F1,
00F5,
0004,
00FB,
0004,
00FD,
0000,
002E,
00E8,
00C6,
001E,
001C,
00F6,
0001,
00FD,
0000,
00FC,
00E9,
002F,
0028,
00C4,
00E3,
0018,
0009,
0002,
0001,
00FB,
0002,
00D2,
0007,
004F,
00FB,
00D4,
00F7,
0002,
0007,
0006,
00FF,
0014,
00DA,
00C4,
0040,
002D,
00EE,
00F9,
00F4,
00FE,
0006,
0003,
0019,
0014,
00A6,
00F6,
0035,
0006,
0002,
00F8,
00F8,
0000,
0001,
00FB,
0042,
00E0,
00BD,
001A,
0009,
0006,
000B,
00F7,
00FD,
0000,
00E7,
001E,
002C,
00D0,
00F2,
0006,
00F9,
000F,
0002,
00FE,
00FF,
00FA,
00ED,
0027,
0007,
00EB,
0004,
00F9,
00FD,
0008,
0003,
0000,
000B,
00F4,
00FB,
000C,
0001,
00FF,
0002,
00FA,
00FE,
0000,
0000,
0001,
0002,
0004,
0000,
00FF,
0002,
00FF,
00FF,
0001,
0000,
0000,
00FF,
0000,
0004,
0005,
0001,
0001,
0003,
0003,
0002,
0002,
0003,
00FF,
0000,
0000,
0003,
0003,
0003,
0002,
0003,
0002,
0001,
0001,
0002,
0002,
00FF,
0000,
0005,
0005,
0003,
0004,
0002,
0002,
0001,
0001,
0004,
0002,
0000,
0005,
000A,
0007,
0005,
0003,
0006,
0002,
0000,
0005,
0006,
0001,
0005,
0008,
000A,
0009,
0006,
0003,
0001,
0001,
0003,
0008,
0007,
0005,
0008,
000B,
000C,
0008,
0004,
0001,
0003,
00FF,
0004,
000C,
0007,
000A,
0009,
0007,
0007,
0006,
0004,
0005,
0002,
00FF,
0008,
000A,
0009,
0008,
0003,
0004,
0003,
0002,
0001,
0005,
0001,
0003,
0008,
0008,
0006,
0002,
00FE,
00FE,
00FF,
00FF,
0004,
0005,
0004,
0005,
0006,
0005,
0002,
0000,
0000,
00FF,
00FC,
00F9,
00F7,
00F8,
00FB,
0001,
0002,
0004,
0004,
0001,
00FF,
0005,
0001,
00FB,
00F2,
00ED,
00EB,
00EC,
00F1,
00F7,
00FC,
00FE,
000C,
0012,
0016,
0011,
000B,
0004,
00FB,
00FA,
00FC,
00FD,
0001,
0003,
000C,
0019,
0023,
0027,
0026,
001F,
0015,
000B,
0002,
0002,
00F3,
00F2,
00F9,
0005,
000D,
0016,
001B,
0016,
0010,
0007,
0003,
00F5,
00EF,
00E7,
00E5,
00E5,
00EC,
00F9,
0003,
0009,
000A,
0007,
00FB,
00F9,
00EF,
00E6,
00DE,
00D9,
00DB,
00E5,
00EF,
00F8,
00FC,
0000,
0003,
0004,
0003,
0000,
00FA,
00EF,
00EB,
00EA,
00ED,
00F1,
0006,
000A,
000F,
0012,
0016,
0017,
0012,
000B,
0005,
0000,
00FC,
0002,
0004,
0006,
0005,
0006,
0009,
000C,
000C,
000B,
0009,
0004,
00FD,
00FD,
00FD,
00FB,
00FB,
00FB,
00FA,
00FC,
00FD,
00FF,
00FF,
00F4,
00F8,
00FC,
00FC,
00FB,
00FD,
00FB,
00F7,
00F5,
00F5,
00F2,
00F7,
00FD,
0002,
0005,
0005,
0005,
0002,
00FE,
00FA,
00F6,
00F2,
00FA,
0003,
000A,
0011,
0014,
0013,
000B,
0006,
0000,
00F7,
00F3,
00FE,
000B,
0015,
0020,
0023,
0022,
0018,
000F,
0005,
00FC,
00F5,
0003,
0011,
0020,
002C,
002F,
0030,
0024,
0019,
000B,
00FF,
00F6,
0008,
0018,
0029,
0034,
0038,
003A,
002C,
001E,
000F,
0002,
00F6,
0008,
0019,
002A,
0036,
003B,
003D,
002F,
0021,
000F,
0002,
00F6,
0008,
0016,
0027,
0033,
0038,
0038,
002C,
001E,
000D,
00FF,
00F4,
0004,
0011,
001F,
002A,
002E,
002A,
0021,
0014,
0007,
00FB,
00F1,
00FE,
0009,
0012,
001A,
001E,
001C,
0013,
000A,
00FE,
00F5,
00EE,
00F8,
00FF,
0007,
000B,
000D,
000B,
0006,
00FE,
00F7,
00EF,
00EA,
00FD,
0005,
00F8,
0002,
0006,
00FA,
00FC,
000B,
00F4,
0007,
00FE,
00FE,
0009,
00F4,
00FF,
0010,
00EC,
0004,
000C,
00EF,
0009,
00FD,
00FD,
000D,
00EE,
00FF,
0020,
00D9,
0014,
0009,
00ED,
000B,
00FD,
00FB,
0010,
00EB,
00FE,
002E,
00C6,
0025,
0001,
00EE,
000B,
00FE,
00FC,
0012,
00E7,
00FC,
0038,
00B3,
002F,
00FF,
00EF,
000A,
00FE,
00FC,
0014,
00E6,
00FA,
003B,
00AA,
0035,
00FC,
00EF,
000C,
00FE,
00FC,
0013,
00E7,
00FD,
0034,
00B1,
0034,
00FC,
00ED,
000D,
00FC,
00FB,
0012,
00E9,
0004,
0026,
00C4,
0029,
00FD,
00EF,
000C,
00FC,
00FD,
000D,
00ED,
0006,
0019,
00D9,
001A,
0005,
00F0,
000D,
00FC,
00FE,
0009,
00F3,
0006,
000A,
00ED,
000B,
0007,
00F2,
000A,
00FC,
0000,
0007,
00F6,
0006,
0001,
00F8,
0002,
0007,
00F4,
0009,
00FD,
0004,
0000,
0001,
00FF,
0002,
0004,
0004,
0004,
0003,
00FF,
0002,
0000,
0000,
0002,
0002,
0003,
0003,
00FE,
00FE,
00FD,
00FE,
00FF,
0002,
0003,
0004,
0002,
00FC,
00FA,
00F9,
00FD,
00FF,
0001,
00FF,
0000,
00FE,
00FD,
00F7,
00F6,
00FD,
0003,
0008,
0008,
0004,
0003,
00FF,
00FC,
00FB,
0001,
000B,
0015,
0016,
0011,
000C,
0005,
00FF,
0000,
0001,
0009,
0015,
001A,
0017,
000D,
0001,
00F9,
00F5,
00F3,
0004,
000C,
0013,
0012,
0006,
00F7,
00EE,
00EC,
00ED,
00F0,
00F1,
0004,
0003,
00FA,
00EC,
00E2,
00DE,
00E0,
00EB,
00F2,
00F7,
00FB,
00FA,
00F2,
00E8,
00E7,
00EC,
00F4,
00FB,
0000,
0004,
0006,
0006,
00F5,
00F5,
00FA,
0003,
0009,
000E,
000E,
000D,
000D,
000B,
0006,
0002,
0008,
000C,
000E,
000D,
000E,
000A,
0007,
0006,
0002,
0002,
0000,
0002,
0003,
0003,
00FD,
00F8,
00FA,
0000,
0004,
0005,
0002,
0003,
0004,
0000,
00F2,
00F1,
00F9,
0008,
000E,
0009,
0001,
00FD,
0004,
00FB,
00ED,
00F3,
000B,
0019,
0019,
0009,
00FC,
00F7,
00F9,
00F8,
00F0,
00FF,
001D,
0026,
0014,
00FC,
00EC,
00EB,
00F4,
0000,
00FC,
000F,
0025,
0023,
0009,
00E6,
00DA,
00E1,
00F7,
0009,
000C,
0010,
001A,
000C,
00EA,
00D2,
00CE,
00E6,
0002,
0016,
0013,
0007,
000A,
00F7,
00DB,
00D1,
00DD,
00F8,
001C,
002B,
001E,
0006,
00F9,
00F3,
00E8,
00E7,
00F9,
0016,
0032,
0035,
0014,
00F7,
00ED,
00F3,
00F5,
00FC,
000C,
0021,
002F,
001D,
00F5,
00E0,
00E5,
00F6,
00FF,
0004,
000E,
0015,
0013,
00FF,
00E0,
00E0,
00F1,
0000,
0007,
0005,
0005,
0003,
00FB,
00F2,
00EB,
00F6,
0005,
0008,
0007,
0003,
0002,
00FC,
00FA,
00F5,
00F2,
00EF,
00EA,
00EA,
00E8,
00ED,
00F4,
00F4,
0007,
0006,
0005,
0004,
0000,
00FB,
00F9,
00F5,
00F5,
00F9,
00F9,
000A,
0009,
0009,
000A,
000A,
0007,
0004,
0000,
00FE,
00FE,
00FD,
000F,
000E,
0013,
0015,
0016,
0012,
000F,
000C,
0009,
0006,
0004,
000A,
000B,
0011,
0013,
0015,
0012,
0011,
000E,
000C,
0009,
000A,
0002,
0002,
0003,
0007,
0008,
0008,
0009,
0008,
0007,
0007,
0008,
00FB,
00FB,
00FB,
00FC,
00FD,
00FD,
00FF,
0002,
0002,
0003,
0002,
00F9,
00FA,
00F8,
00F8,
00F9,
00F9,
00FA,
00FD,
00FE,
0000,
0001,
00FC,
00FE,
00FD,
00FC,
00FC,
00FA,
00FE,
00FE,
00FE,
0000,
0001,
00FC,
0000,
00FE,
00FE,
00FE,
00FD,
00FD,
00FE,
00FF,
0001,
00FF,
00F9,
00FC,
00FA,
00FB,
00FB,
00FA,
00FA,
00FA,
00FC,
00FE,
00FB,
00FB,
00FE,
00FD,
00FC,
00FC,
00FE,
00FE,
00FF,
00FD,
00FB,
00F9,
00FA,
00FC,
00FC,
00FD,
00FC,
00FC,
00FE,
00FE,
00FE,
00FD,
00F8,
00F9,
00FC,
00FC,
00FA,
00F7,
00F7,
00F8,
00FB,
00FD,
00FE,
00F8,
00FF,
00FF,
00FD,
00FB,
00F9,
00F9,
00FA,
00FB,
00FC,
00FC,
00F8,
0001,
0001,
00FF,
00FD,
00FB,
00FD,
00FF,
00FC,
00FC,
00FB,
00F8,
0001,
00FE,
00FE,
00FD,
00FC,
00FC,
00FC,
00FB,
00FA,
00FB,
00F9,
0000,
00FF,
00FF,
00FF,
00FB,
00F9,
00F9,
00F8,
00F8,
00FC,
00FB,
0002,
0001,
00FF,
00FE,
00FA,
00F8,
00F7,
00F9,
00FB,
00FD,
00FA,
0004,
0003,
0001,
00FE,
00FC,
00FC,
00FC,
00FC,
00FC,
00FC,
00FA,
0007,
0003,
0004,
0001,
00FF,
0000,
00FE,
00FE,
00FA,
00FA,
00FC,
0005,
0005,
0005,
0003,
0002,
0001,
00FF,
00FE,
00FE,
0000,
0002,
000C,
000D,
000D,
0009,
0005,
0002,
00FF,
00F7,
00F3,
00F3,
00F3,
000F,
0010,
0010,
000B,
0008,
0005,
0000,
00F8,
00F1,
00F0,
00F3,
0016,
0018,
0018,
0010,
0009,
0003,
00FD,
00F4,
00EA,
00E8,
00EC,
001B,
001D,
0019,
000F,
0005,
00FF,
00F8,
00EF,
00E7,
00E2,
00E6,
0020,
001E,
0019,
0010,
0004,
00FD,
00F6,
00EB,
00E3,
00DF,
00E2,
0024,
0021,
001C,
0011,
0004,
00FB,
00F3,
00E9,
00E0,
00DE,
00E0,
0024,
0024,
001F,
0015,
0008,
00FE,
00F5,
00EA,
00E3,
00E2,
00E3,
0023,
0025,
0023,
0018,
000B,
0001,
00F7,
00EB,
00E4,
00E3,
00E5,
001F,
001F,
001C,
0010,
0005,
00FC,
00F5,
00EE,
00E5,
00E3,
00E9,
0016,
0016,
0014,
000B,
0003,
00FD,
00F7,
00F1,
00EA,
00EA,
00F0,
000E,
000F,
000E,
0007,
00FF,
00FC,
00F6,
00F1,
00ED,
00EE,
00F3,
00F3,
00F1,
00F0,
00F3,
00FD,
0008,
0012,
0017,
0013,
000C,
0009,
00F3,
00ED,
00EA,
00EF,
00FB,
0008,
0012,
0017,
0014,
000D,
0008,
00ED,
00E7,
00E5,
00E9,
00F2,
0001,
000C,
0012,
0014,
000F,
000A,
00EE,
00EC,
00E9,
00E9,
00EE,
00F7,
0000,
0006,
000B,
0009,
0007,
00F5,
00F7,
00F4,
00F3,
00F3,
00F4,
00F7,
00FD,
0000,
0002,
0003,
0000,
0005,
0002,
0000,
00FC,
00F9,
00F7,
00F6,
00F8,
00F9,
00FC,
000D,
0014,
0015,
0012,
000B,
0004,
00FB,
00F2,
00F1,
00F4,
00F7,
0017,
001E,
0023,
0021,
0018,
000A,
00FC,
00F0,
00EB,
00EE,
00F3,
0013,
001D,
0022,
001F,
0016,
0008,
00F8,
00EF,
00EC,
00ED,
00F3,
000B,
0015,
0019,
0012,
000B,
0002,
00F9,
00F0,
00ED,
00EF,
00F5,
000B,
000D,
0010,
000C,
0007,
0000,
00FA,
00F3,
00F1,
00F3,
00F6,
00FE,
00FC,
00FA,
00F7,
00F6,
00F8,
00FB,
00FD,
0001,
0001,
0000,
0009,
000E,
0010,
000E,
000C,
000C,
000C,
000C,
000E,
000D,
0009,
0002,
000B,
0015,
0020,
0023,
0023,
0022,
001A,
0010,
000A,
0004,
00F5,
00F5,
00F3,
00F4,
00F2,
00F0,
00EF,
00EE,
00EE,
00F0,
00F3,
00F0,
00E3,
00CD,
00BB,
00B2,
00B1,
00BA,
00C7,
00D8,
00E8,
00F0,
00F4,
00E9,
00DE,
00D5,
00CE,
00CE,
00DA,
00E4,
00F0,
00F8,
00FB,
0007,
0010,
001E,
002B,
0032,
0031,
002A,
001D,
0010,
0006,
0002,
0017,
0026,
003C,
004E,
0058,
0053,
0047,
0034,
001E,
000C,
0005,
000D,
000D,
000D,
000B,
000B,
000C,
000E,
000E,
000E,
0009,
0007,
00FB,
00F2,
00E9,
00E0,
00DA,
00DC,
00E6,
00EE,
00F8,
00FE,
0000,
00F8,
00F6,
00F7,
00FA,
00F9,
00F9,
00F9,
00FA,
00F9,
00F9,
00FD,
0015,
0019,
0021,
0024,
0024,
0023,
001E,
0017,
000E,
0007,
0001,
000C,
000F,
000C,
0004,
00F9,
00F0,
00EE,
00EF,
00F0,
00F5,
00F7,
00FB,
00EF,
00DD,
00CE,
00C5,
00C5,
00CA,
00D5,
00E3,
00EF,
00F8,
00E6,
00D4,
00C3,
00BA,
00BC,
00C7,
00D1,
00E0,
00EE,
00F8,
0002,
00E8,
00DE,
00D7,
00DA,
00E1,
00EC,
00F8,
00FF,
0007,
000A,
000F,
00EF,
00F2,
00F4,
00F9,
0002,
0009,
000F,
0012,
0013,
0010,
000F,
00F5,
00FE,
0004,
000E,
0014,
001B,
0020,
0020,
001A,
0013,
000E,
00FE,
000B,
0014,
001D,
0028,
0034,
0037,
0034,
0029,
0019,
000C,
000C,
0017,
0021,
0027,
002F,
0036,
0035,
002D,
001F,
000F,
0001,
000F,
0012,
0016,
0017,
0015,
0013,
000D,
0003,
00F9,
00F4,
00F1,
0001,
00FB,
00F7,
00F2,
00EB,
00E7,
00E0,
00DD,
00DE,
00E3,
00EF,
0003,
00FD,
00FA,
00F4,
00EE,
00EE,
00F8,
0009,
0017,
0019,
0011,
0007,
0008,
0006,
0000,
00F1,
00E1,
00DE,
00EA,
0006,
0018,
001B,
0003,
0007,
000B,
000B,
00FB,
00E1,
00CF,
00CF,
00EA,
0008,
001B,
00FE,
000A,
0011,
0014,
0009,
00ED,
00D2,
00C3,
00CE,
00EC,
000C,
00F7,
0006,
0014,
0020,
001B,
0003,
00E7,
00D1,
00CC,
00DC,
00FA,
00F3,
0002,
0015,
0029,
002B,
001C,
0001,
00E9,
00DD,
00DC,
00EE,
00EC,
00FA,
0012,
002D,
003A,
0033,
001E,
0009,
00F6,
00EA,
00EC,
00E7,
00EF,
0004,
0023,
0038,
003B,
0033,
0022,
000D,
00FB,
00F1,
00EA,
00E3,
00EC,
0003,
0018,
0022,
002A,
0025,
0018,
0007,
00F9,
00F4,
00E4,
00E0,
00EB,
00FB,
0008,
0013,
0019,
0014,
000B,
00FD,
0003,
00F1,
00E5,
00E1,
00E8,
00F0,
00FB,
0004,
000A,
000B,
0004,
0003,
00FE,
00FA,
00FB,
00FE,
0001,
0004,
0006,
0007,
0007,
0004,
00FE,
00FA,
00F7,
00F9,
00FB,
00FD,
0001,
0005,
0007,
0007,
0005,
00F8,
00F2,
00EE,
00F0,
00F4,
00FA,
0002,
0009,
000B,
000C,
000B,
00EF,
00E7,
00E2,
00E5,
00F1,
00FA,
0006,
000F,
0015,
0014,
000F,
00E7,
00E1,
00DE,
00E5,
00F2,
00FD,
000C,
0017,
001D,
001F,
0015,
00E4,
00DE,
00DD,
00E5,
00F2,
0000,
000F,
001D,
001F,
0020,
0016,
00E6,
00E0,
00E0,
00E7,
00F4,
0006,
0014,
0020,
0023,
0020,
0014,
00EB,
00E7,
00E5,
00EB,
00F7,
0007,
0015,
001F,
0021,
001C,
000D,
00F0,
00EB,
00ED,
00F2,
00FB,
0007,
0015,
001C,
001B,
0011,
0005,
00F8,
00F2,
00F2,
00F4,
00FC,
0004,
000F,
0012,
000F,
0006,
0001,
00F9,
00F5,
00F2,
00F2,
00F8,
00FF,
0009,
000B,
0007,
0003,
00FD,
00FA,
00F9,
0007,
0013,
000D,
0000,
00F5,
00EE,
00F7,
0006,
0004,
00F7,
00F1,
0005,
001C,
0017,
00FE,
00EB,
00E6,
00FB,
000F,
0007,
00F2,
00E6,
000A,
0030,
0025,
00FE,
00D9,
00D5,
00FA,
0016,
000A,
00EC,
00E0,
000E,
003F,
0030,
00FD,
00CC,
00CB,
00FB,
001D,
000C,
00E6,
00DC,
0012,
0046,
0037,
00FA,
00C4,
00C4,
00FC,
0021,
000D,
00E6,
00DC,
0010,
0043,
003A,
00FC,
00C4,
00C5,
00FE,
0025,
000D,
00E7,
00DE,
000B,
003B,
0036,
00FE,
00C9,
00C8,
00FD,
0025,
000B,
00EA,
00E3,
0008,
002F,
002C,
0002,
00D2,
00D1,
0000,
0020,
0006,
00EE,
00EC,
0006,
0024,
0021,
0003,
00DF,
00DB,
0000,
0017,
0003,
00F5,
00F4,
0003,
0018,
0015,
0001,
00EE,
00EC,
0000,
000E,
0003,
00F8,
00FD,
0008,
0012,
000C,
0000,
00F5,
00F1,
00F9,
0005,
0003,
0003,
00FC,
00F8,
00FC,
0007,
000D,
000A,
0006,
0004,
0000,
00FC,
00FE,
00F2,
00F4,
0008,
001E,
0017,
0008,
00FD,
00F9,
00F8,
00FB,
00F5,
00F1,
0006,
0029,
002E,
0012,
00F8,
00ED,
00EF,
00F7,
00FE,
00F1,
00FE,
0020,
0037,
0021,
00F6,
00E1,
00DC,
00EC,
00FB,
0003,
00FA,
0011,
002A,
002A,
0005,
00DD,
00CE,
00DA,
00F4,
0004,
000D,
000A,
001A,
0020,
0010,
00E6,
00C7,
00CE,
00E7,
0002,
0014,
0013,
000F,
0016,
0012,
00F5,
00CB,
00C8,
00E2,
00FE,
0018,
0020,
000F,
000D,
000B,
00FD,
00DC,
00CA,
00E0,
0001,
0019,
0026,
0019,
0001,
0006,
00FF,
00ED,
00D7,
00E0,
00FE,
0015,
0021,
001A,
0007,
00F7,
0000,
00F5,
00EB,
00E8,
00FA,
0011,
001C,
0017,
0008,
00FF,
00FA,
00FE,
00F6,
00F6,
0001,
000E,
0017,
0012,
0006,
0000,
00FF,
00FE,
00FC,
00FC,
00FB,
00FC,
00FD,
00FE,
00FF,
00FF,
0000,
00FF,
0001,
00FF,
00FE,
00FF,
0000,
00FE,
0000,
00FD,
00FE,
00FF,
0000,
0000,
00FD,
00FE,
00FF,
0000,
00FF,
00FF,
00FE,
00FC,
00FF,
0000,
00FF,
00FF,
00FE,
0000,
00FF,
00FF,
00FC,
00FB,
00FC,
00FE,
00FF,
00FF,
00FF,
00FF,
0001,
0000,
00FE,
00FB,
00F9,
00FB,
00FE,
00FF,
0000,
00FE,
0000,
0003,
0002,
00FE,
00FB,
00F9,
00FA,
00FE,
00FF,
0000,
0001,
0001,
0002,
0003,
0000,
00FD,
00FB,
00FA,
00FF,
0001,
00FF,
0001,
00FF,
0001,
0002,
0000,
00FD,
00FB,
00FA,
00FD,
00FF,
00FF,
0001,
0000,
0001,
0002,
0000,
00FE,
00FC,
00FC,
00FD,
00FE,
00FC,
0000,
00FF,
0001,
0000,
0001,
0000,
00FF,
00FD,
00FF,
00FF,
00FD,
0007,
0004,
0006,
0004,
0003,
0001,
0000,
00FF,
00FF,
00FF,
00FB,
0001,
0002,
00FF,
00FE,
0000,
00FF,
00FE,
00FE,
00FE,
00FF,
0001,
0001,
0001,
0000,
00FE,
0001,
0000,
0002,
0001,
0002,
0002,
0003,
00FC,
00FD,
00FC,
00FB,
00FD,
00FD,
00FC,
00FE,
00FE,
0000,
0001,
00FB,
00FB,
00FA,
00FA,
00F9,
00FA,
00F8,
00FB,
00FC,
00FE,
0000,
0002,
0000,
00FF,
00FF,
00FF,
00FD,
00FE,
00FF,
0001,
0003,
0005,
0007,
0006,
0007,
0007,
0008,
0008,
0008,
0009,
0008,
0008,
0007,
0009,
000A,
000D,
000F,
0012,
0013,
0013,
0014,
000E,
0006,
0006,
0008,
000A,
000D,
000E,
0011,
0011,
000F,
000D,
0008,
0001,
0001,
0003,
0004,
0005,
0004,
0004,
0000,
00FE,
00FC,
00FC,
00FC,
00FE,
00FF,
00FD,
00FA,
00F7,
00F6,
00F4,
00F3,
00F4,
00F8,
00FC,
00FC,
00F6,
00F3,
00EF,
00EA,
00EA,
00E9,
00EC,
00EF,
00F5,
00F8,
00F8,
00FB,
00F9,
00F9,
00F8,
00F9,
00FC,
00FF,
0000,
0000,
0000,
0002,
00FB,
00FB,
00FB,
00FB,
00FD,
0000,
0001,
0000,
0003,
0003,
0002,
00F9,
00FB,
00FA,
00F9,
00FC,
00FE,
0001,
0002,
0002,
0004,
0006,
00F9,
00FC,
00FB,
00FB,
00FD,
0000,
0003,
0004,
0005,
0005,
0006,
00F9,
00FB,
00FA,
00FA,
00FB,
0000,
0003,
0004,
0004,
0005,
0006,
00FA,
00FC,
00FB,
00FB,
00FF,
0000,
0004,
0005,
0004,
0004,
0006,
00FB,
00FE,
00FC,
00FE,
00FF,
0002,
0004,
0005,
0005,
0005,
0007,
00FA,
00FF,
00FD,
00FE,
00FF,
0001,
0005,
0006,
0005,
0004,
0007,
00FB,
00FF,
00FF,
00FF,
0000,
0002,
0005,
0004,
0004,
0004,
0004,
00FC,
00FE,
00FE,
00FF,
0000,
0001,
0003,
0003,
0004,
0003,
0002,
00FE,
0001,
0002,
0005,
0006,
0007,
0008,
0007,
0006,
0003,
0003,
0005,
0003,
0004,
0006,
0005,
0000,
00FD,
00FC,
00FB,
00FB,
00F8,
0003,
0002,
0003,
0005,
0002,
0000,
00FD,
00FB,
00FD,
00FE,
00FB,
0002,
0004,
0005,
0006,
0004,
00FF,
00FC,
00FA,
00FB,
00FC,
00F9,
0004,
0005,
0006,
0006,
0003,
0000,
00FC,
00FB,
00FB,
00FC,
00FA,
0002,
0005,
0007,
0008,
0003,
00FF,
00F9,
00F9,
00FB,
00FC,
00F8,
0004,
0005,
0008,
000A,
0005,
00FF,
00FA,
00FA,
00FA,
00FC,
00F8,
0004,
0005,
0006,
0006,
0005,
0000,
00FB,
00FC,
00FC,
00FC,
00F8,
0003,
0004,
0009,
0007,
0004,
00FF,
00FB,
00FA,
00FC,
00FC,
00F8,
0002,
0004,
0007,
0009,
0006,
0001,
00FC,
00FB,
00FA,
00FC,
00F7,
0001,
0003,
0005,
0005,
0003,
00FF,
00FB,
00FA,
00FC,
00FD,
00F9,
00FF,
0002,
0007,
000A,
0008,
0004,
0000,
00FC,
00FA,
00FA,
00F7;