memory_initialization_radix=16;
memory_initialization_vector=
00FD,
0033,
001A,
0014,
002B,
0023,
0012,
0007,
002B,
0020,
0017,
0000,
001F,
002A,
0022,
000B,
0010,
0047,
0012,
00FB,
0009,
003B,
0017,
0036,
001C,
001F,
002A,
003E,
0028,
0036,
002A,
000E,
002A,
0039,
0017,
0031,
0048,
0045,
00FD,
0038,
0030,
0027,
00F0,
00FB,
000B,
0028,
0010,
002E,
000F,
0017,
001B,
0017,
000B,
0039,
0044,
0011,
0008,
002A,
003A,
0027,
0026,
0028,
002E,
0012,
0032,
0032,
001E,
0024,
001F,
00FB,
002B,
001B,
0015,
002A,
0005,
001D,
002F,
002F,
001A,
0005,
000C,
002A,
0021,
001D,
000D,
0001,
001B,
0038,
0036,
0011,
002C,
0013,
0025,
002D,
0010,
0018,
0016,
001C,
001C,
0014,
0017,
002B,
000D,
0035,
000E,
0015,
001E,
0015,
0013,
003A,
003D,
0007,
001E,
002E,
000D,
0029,
0035,
002B,
0033,
0018,
001B,
0026,
0016,
0006,
001B,
0045,
00EB,
000A,
002E,
001D,
0017,
0012,
0032,
00F6,
000A,
00FE,
001F,
0031,
000E,
0043,
000D,
001D,
000E,
002B,
0029,
003E,
0014,
0022,
002C,
003E,
0002,
003E,
0033,
000D,
0018,
0014,
0027,
0026,
0001,
002E,
0020,
002E,
001B,
0049,
0003,
0044,
00F9,
000F,
001E,
0028,
0009,
0031,
0011,
0039,
002A,
001F,
0018,
0025,
0035,
002B,
0020,
00F6,
0013,
0038,
0016,
00F6,
0042,
0010,
001A,
0024,
000F,
0006,
0016,
0031,
0016,
0031,
003D,
002F,
0022,
001D,
0028,
0024,
000E,
0019,
0018,
001C,
002F,
0023,
002D,
0026,
001B,
0021,
002C,
0029,
000B,
001D,
0030,
003B,
0028,
001A,
0028,
002A,
0024,
0028,
0028,
001F,
00FD,
0021,
0024,
0024,
0019,
0028,
0021,
001C,
002D,
0028,
0021,
0034,
0023,
0025,
0031,
0033,
003B,
0009,
001B,
0035,
002F,
002F,
0026,
001C,
0013,
0022,
001E,
0016,
0013,
0039,
0018,
0035,
0025,
0026,
0019,
0017,
0018,
001F,
002E,
0015,
0019,
004F,
0030,
0020,
0004,
003C,
002C,
003A,
0006,
001D,
0039,
0018,
0012,
001E,
0033,
002F,
00FD,
0037,
0024,
0009,
00FE,
001D,
000E,
00FE,
0037,
001F,
001D,
0027,
000C,
0036,
0037,
0012,
002C,
0018,
0026,
0002,
002D,
002F,
0025,
000F,
0025,
001E,
000C,
00EA,
000F,
0013,
0028,
0002,
001E,
001E,
0028,
000F,
00FC,
00ED,
0018,
002C,
0028,
0025,
002A,
0023,
00F7,
0045,
0008,
0010,
0008,
0016,
0018,
0026,
002E,
001A,
0017,
001D,
000F,
002D,
0000,
0016,
0004,
000F,
0011,
0019,
000B,
002C,
001C,
0028,
0027,
0028,
0012,
0012,
0038,
00FE,
000E,
002F,
0013,
001D,
002C,
0020,
003B,
0015,
0027,
0014,
0013,
0024,
002C,
0017,
002C,
001F,
0011,
0014,
0044,
0018,
001E,
0024,
001B,
002C,
001C,
002D,
0000,
0017;