memory_initialization_radix=16;
memory_initialization_vector=
00F9,
00FE,
0004,
0007,
0007,
0002,
00FC,
00FC,
00FB,
00FE,
0002,
00F8,
00FD,
0004,
0007,
0008,
0003,
00FC,
00FA,
00FB,
0000,
0007,
00F6,
00FC,
0005,
0006,
0008,
0002,
00FA,
00F9,
00FA,
0001,
0008,
00F7,
00FC,
0005,
0009,
000A,
0000,
00F8,
00F6,
00F9,
0001,
000A,
00F9,
00FE,
0005,
000A,
0008,
00FF,
00F5,
00F5,
00FA,
0004,
0009,
00FA,
0000,
0007,
000B,
0007,
00FD,
00F6,
00F6,
00FB,
0003,
000A,
00FA,
0001,
0006,
0009,
0005,
00FE,
00F6,
00F8,
00FB,
0003,
0009,
00FB,
0001,
0006,
0007,
0004,
00FC,
00F9,
00F8,
00FD,
0003,
000A,
00FD,
0003,
0004,
0005,
0002,
00FC,
00F9,
00FB,
00FD,
0003,
0008,
00FD,
0002,
0004,
0004,
0001,
00FB,
00FA,
00FD,
00FE,
0003,
0008,
00FF,
0004,
0003,
0002,
0000,
00FD,
00FB,
00FE,
00FE,
0002,
0006,
00ED,
00E7,
00E3,
00E7,
00F2,
0001,
000F,
0018,
001A,
0016,
000F,
00E5,
00DC,
00D9,
00E1,
00F1,
0004,
0014,
0022,
0024,
001D,
0014,
00E2,
00D7,
00D7,
00E0,
00F2,
0007,
0017,
0025,
0027,
0021,
0017,
00E7,
00E0,
00E0,
00E8,
00F4,
0004,
0014,
0020,
0020,
001C,
0013,
00F0,
00F0,
00EF,
00F3,
00F9,
0001,
000B,
0013,
0011,
000F,
000B,
00FF,
0002,
0002,
0002,
0000,
0000,
00FF,
0002,
0002,
0000,
0000,
000D,
0013,
0015,
000E,
0007,
00FE,
00F6,
00F2,
00F0,
00F1,
00F4,
0014,
001F,
0021,
001A,
000D,
00FD,
00F0,
00E5,
00E1,
00E5,
00EA,
0018,
0026,
0029,
0020,
000F,
00FC,
00EB,
00DC,
00D7,
00DE,
00E8,
0015,
0023,
0025,
001E,
000F,
00FC,
00EA,
00DD,
00D8,
00DF,
00E9,
000F,
0018,
001C,
0018,
000D,
00FD,
00EF,
00E6,
00E2,
00E6,
00EE,
0001,
0001,
0000,
00FE,
00FB,
00FD,
00F9,
00FC,
00FA,
00FC,
00FE,
0000,
0000,
00FD,
00FB,
00F9,
00FA,
00FA,
00FD,
00FD,
0000,
0001,
00FE,
00FD,
00FB,
00FB,
00FD,
00FD,
0000,
0002,
0003,
0004,
0005,
00FC,
00FD,
00FC,
00FD,
00FF,
0002,
0004,
0006,
0005,
0004,
0002,
00FE,
00FF,
0001,
0002,
0006,
0008,
0008,
0008,
0006,
0003,
0003,
0001,
0002,
0002,
0007,
000A,
000B,
000A,
0006,
0003,
00FF,
00FE,
0004,
0005,
0007,
0009,
0009,
0008,
0006,
0004,
0002,
00FD,
00FC,
0005,
0006,
0006,
0007,
0004,
0004,
0003,
0001,
00FB,
00F9,
00F8,
0006,
0004,
0004,
0005,
0002,
0001,
00FE,
00FA,
00F9,
00FA,
00FB,
0003,
0003,
0001,
00FF,
00FE,
00FB,
00FA,
00F9,
00FA,
00FC,
00FF,
0001,
00FF,
00FD,
00FA,
00FB,
00F8,
00FA,
00F9,
00FB,
00FE,
00FD,
0000,
0003,
0003,
0003,
0004,
0005,
0006,
0005,
0004,
0001,
00FF,
00FE,
0000,
0000,
0001,
0004,
0005,
0006,
0006,
0003,
0001,
00FF,
00FD,
0000,
00FE,
0000,
0002,
0005,
0006,
0008,
0005,
0004,
0000,
00FB,
00FE,
00FE,
0000,
0002,
0004,
0007,
0007,
0004,
0004,
0003,
00FA,
00FA,
00FB,
00FE,
0002,
0004,
0005,
0007,
0006,
0005,
0004,
00FA,
00FA,
00F9,
00FA,
0000,
0003,
0004,
0007,
0007,
0005,
0006,
00F9,
00F8,
00F7,
00F9,
00FC,
0001,
0003,
0007,
0007,
0006,
0007,
00F9,
00F9,
00F6,
00F7,
00FC,
00FF,
0002,
0006,
0008,
0008,
0009,
00FA,
00F8,
00F7,
00F7,
00FB,
00FD,
0000,
0003,
0006,
0007,
0007,
00FA,
00F9,
00F6,
00F7,
00FA,
00FD,
0000,
0002,
0003,
0005,
0006,
00F9,
00FA,
00F7,
00F9,
00FC,
00FC,
00FD,
0000,
0002,
0002,
0005,
00F9,
00F1,
00EA,
00E7,
00E5,
00E7,
00EB,
00F1,
00FA,
0003,
0009,
0002,
00FA,
00F3,
00EB,
00E5,
00E4,
00E3,
00E6,
00F0,
00F9,
0000,
000A,
0002,
00FC,
00F4,
00E9,
00E2,
00DD,
00DD,
00E3,
00ED,
00F5,
0010,
000B,
0005,
00FC,
00EF,
00E5,
00DC,
00D7,
00DA,
00E2,
00EB,
0014,
0011,
000E,
0008,
00FD,
00EF,
00E5,
00DA,
00D8,
00DD,
00E3,
0015,
0014,
0014,
0012,
0009,
00FE,
00F1,
00E5,
00DF,
00E0,
00E2,
0015,
0014,
0017,
0018,
0013,
000C,
00FF,
00F5,
00ED,
00E9,
00E5,
0014,
0016,
0019,
001E,
001B,
0018,
0010,
0005,
00FA,
00F3,
00EB,
0011,
0015,
0019,
001E,
001F,
001D,
0018,
0011,
0007,
00FF,
00F5,
000D,
0011,
0016,
001B,
001E,
001E,
001C,
0017,
0011,
0009,
00FF,
000C,
000E,
0014,
0019,
001C,
001F,
001E,
001E,
001A,
0013,
000A,
0002,
0001,
0004,
0005,
0004,
0004,
0005,
0002,
0000,
0000,
00FB,
0001,
0000,
0003,
0005,
0003,
0002,
0002,
0000,
00FD,
00FD,
00FA,
0002,
0003,
0008,
0008,
0006,
0005,
0002,
0000,
00FB,
00FC,
00F9,
0004,
0006,
0007,
0009,
0008,
0007,
0003,
00FB,
00F9,
00F6,
00F6,
0003,
0005,
0008,
0009,
000A,
0008,
0003,
00FA,
00F6,
00F5,
00F6,
0005,
0007,
0008,
000A,
000A,
0007,
0000,
00F6,
00F3,
00F3,
00F7,
0006,
0006,
0006,
0009,
0008,
0005,
00FD,
00F5,
00F1,
00F2,
00F7,
0006,
0007,
0008,
0009,
0008,
0006,
00FE,
00F6,
00F2,
00F4,
00F8,
0005,
0004,
0006,
0007,
0004,
0002,
00FD,
00F6,
00F5,
00F7,
00FA,
0006,
0004,
0006,
0005,
0002,
0000,
00FE,
00F8,
00F7,
00F8,
00FB,
0006,
0002,
0002,
00FF,
00FD,
00FE,
00FB,
00F7,
00F5,
00F8,
00FA,
0006,
000B,
000F,
0010,
000D,
0009,
0005,
0001,
00FC,
00FA,
00F9,
0009,
000C,
000F,
000E,
0008,
00FE,
00F6,
00F5,
00F4,
00F9,
00FD,
0008,
000B,
0008,
0001,
00F8,
00EE,
00EB,
00EC,
00F2,
00FA,
00FF,
0005,
0003,
00FC,
00F1,
00E6,
00DF,
00E2,
00EB,
00F8,
0000,
0007,
00FF,
00FA,
00EE,
00E4,
00DD,
00DE,
00EC,
00FA,
0006,
000B,
000C,
00F7,
00F0,
00E8,
00E0,
00E3,
00F0,
0002,
000E,
0014,
0010,
000D,
00F2,
00F3,
00EE,
00ED,
00FC,
000C,
0019,
001F,
001A,
0010,
0008,
00F8,
00F9,
00FC,
0004,
0011,
001C,
0021,
001F,
0013,
0006,
00FF,
00FF,
0001,
0009,
0010,
0017,
001D,
0017,
000D,
0004,
00FB,
00F7,
0004,
0008,
000C,
0011,
0013,
0010,
000A,
0000,
00F8,
00F3,
00F3,
0009,
000C,
000B,
000B,
000A,
0004,
00FE,
00F6,
00F1,
00F1,
00F3,
0006,
0006,
0003,
0000,
0000,
00FD,
00FB,
00F9,
00F9,
00F9,
00F7,
0006,
0006,
0002,
0000,
0001,
00FF,
00FD,
00FC,
00FC,
00FB,
00F7,
0005,
0005,
0003,
0003,
0001,
0000,
00FD,
00FC,
00FC,
00FA,
00F8,
0006,
0007,
0005,
0003,
0001,
00FE,
00FC,
00FC,
00FC,
00FB,
00F9,
0006,
0007,
0006,
0003,
0002,
00FF,
00FD,
00FC,
00FC,
00FB,
00F9,
0004,
0007,
0006,
0005,
0002,
0000,
00FF,
00FD,
00FC,
00FA,
00F7,
0005,
0005,
0004,
0005,
0004,
0000,
00FF,
00FE,
00FD,
00FC,
00F9,
0004,
0004,
0006,
0002,
0002,
0001,
0001,
00FE,
00FD,
00FD,
00FB,
0004,
0005,
0004,
0002,
0003,
0000,
0000,
00FD,
00FD,
00FC,
00FA,
0004,
0005,
0005,
0005,
0004,
0003,
0002,
0000,
0000,
00FD,
00FA,
0003,
0004,
0003,
0003,
0002,
0002,
0002,
0001,
00FF,
00FE,
00FC,
0001,
00FE,
00FB,
00FC,
0000,
0002,
0001,
00FE,
0003,
0003,
0002,
0001,
0005,
0003,
00FB,
00FA,
00FE,
0003,
0002,
00FC,
00FD,
0002,
00FD,
00FF,
0005,
0004,
00FE,
00FC,
00FC,
0000,
0000,
00FD,
00FD,
0000,
00FF,
00FB,
0000,
00FE,
00FD,
00FE,
0002,
0000,
00FD,
00FE,
00FE,
0002,
0007,
0005,
00FB,
00F4,
00F0,
00FC,
0005,
0001,
00FE,
00FF,
00F7,
00FC,
000F,
0019,
000F,
00F9,
00E8,
00F2,
0002,
00FF,
0004,
00FE,
00EA,
00EB,
0008,
001E,
0022,
0010,
00F2,
00F0,
00FE,
0001,
000C,
0006,
00E7,
00DE,
00F2,
0006,
001F,
001C,
0002,
00FB,
0000,
0001,
0014,
0010,
00F3,
00E9,
00EC,
00F0,
0008,
0013,
0006,
0001,
00FC,
00FF,
0011,
0010,
00FF,
00FE,
00F5,
00EF,
00FB,
0007,
0002,
00FF,
00FC,
00FC,
0008,
0007,
0000,
0002,
0002,
00FB,
00FE,
000A,
0009,
0008,
0004,
0006,
0001,
0003,
0007,
0008,
0003,
0007,
0005,
0002,
00FE,
00FF,
0000,
00FF,
0001,
0005,
0006,
0004,
0004,
0006,
00FF,
00FA,
00F5,
00F6,
00FA,
00FE,
0004,
0004,
0005,
0003,
0000,
00FA,
00F3,
00EA,
00EA,
00F0,
00F6,
00FF,
0003,
0000,
0000,
00FD,
00F9,
00EB,
00DD,
00DF,
00E8,
00F4,
00FE,
0001,
0001,
00FF,
00FE,
00F8,
00EB,
00D8,
00D1,
00DD,
00ED,
00FA,
00FE,
00FF,
0000,
00FF,
00FC,
00F2,
00E7,
00DA,
00DD,
00E7,
00F4,
00FF,
0003,
0002,
0005,
0000,
00F4,
00F0,
00ED,
00EE,
00F5,
00F7,
00FD,
0001,
0002,
0005,
0002,
00FB,
00F5,
00F8,
00FD,
0002,
0004,
0002,
0003,
0003,
0008,
0008,
0004,
00FB,
00FF,
0001,
0004,
0007,
000A,
0009,
0007,
000A,
0008,
0008,
0007,
0005,
0002,
0005,
0006,
0008,
000B,
000A,
0005,
0000,
0000,
00FB,
00FB,
00FB,
00FB,
00FE,
0000,
0001,
0005,
0003,
0001,
00FC,
00F9,
00F9,
00FA,
00FA,
00FB,
00FF,
0000,
0005,
0000,
0000,
00FA,
00F9,
00F8,
00F6,
00F7,
00FA,
00FD,
00FF,
0003,
00FD,
00FB,
00F8,
00F5,
00F5,
00F4,
00F5,
00F7,
00FB,
00FB,
00FF,
00FD,
00FA,
00F7,
00F3,
00F2,
00F4,
00F6,
00F6,
00FC,
00FD,
0000,
00FC,
00F9,
00F5,
00F3,
00F3,
00F4,
00F7,
00F9,
00FC,
0001,
0002,
00FB,
00FB,
00F8,
00F7,
00F5,
00F7,
00FA,
00FC,
00FF,
0001,
0004,
00FF,
00FF,
00FD,
00FB,
00FB,
00FD,
00FE,
00FE,
0001,
0002,
0005,
0001,
0002,
0000,
00FD,
00FF,
00FF,
0000,
0001,
0002,
0003,
0007,
0002,
0002,
0002,
0000,
0001,
0002,
0001,
0001,
0002,
0003,
0006,
0005,
0005,
0005,
0003,
0002,
0003,
0002,
0003,
0003,
0004,
000B,
00FF,
0001,
0007,
0008,
0002,
00FC,
00F8,
00F8,
00FA,
0001,
0006,
0000,
00FF,
0006,
0009,
0008,
0001,
00F9,
00F6,
00FA,
0002,
0008,
00FD,
00FA,
0003,
000B,
000A,
0005,
00FE,
00F5,
00F6,
00FF,
0009,
00FA,
00F8,
00FE,
0009,
000B,
0006,
0002,
00F7,
00F3,
00FC,
0005,
00FB,
00F9,
00FB,
0006,
000D,
000B,
0008,
00FB,
00F3,
00F8,
0002,
00FC,
00F7,
00F9,
0001,
000C,
000C,
000A,
0002,
00F6,
00F6,
00FE,
00FA,
00F6,
00F6,
00FD,
0009,
000D,
000D,
0006,
00FB,
00F6,
00FB,
00FC,
00F7,
00F6,
00FB,
0005,
000A,
0010,
000C,
0001,
00F7,
00FA,
00FC,
00F8,
00F5,
00F6,
0002,
0007,
000D,
000F,
0003,
00F9,
00F7,
00FB,
00F7,
00F5,
00F6,
00FF,
0005,
000A,
000E,
0008,
00FB,
00F7,
00FA,
00F7,
00F5,
00F6,
00FC,
0002,
0009,
000D,
000C,
0002,
00FA,
0010,
0010,
0013,
0016,
0018,
001E,
0022,
0021,
001F,
001C,
0019,
0004,
0006,
000C,
0012,
0019,
0023,
002A,
0029,
0022,
0019,
000F,
0001,
0003,
0006,
000D,
0016,
001F,
0027,
0027,
001F,
0014,
0009,
00FE,
0001,
0000,
0005,
000C,
0014,
001C,
001D,
0015,
000C,
0001,
0001,
00FD,
00FA,
00FB,
00FC,
0001,
0007,
000B,
0007,
0002,
00FC,
0001,
00FF,
00FC,
00F7,
00F3,
00F1,
00F1,
00F6,
00F9,
00FA,
00F8,
0003,
0000,
00FB,
00F6,
00EE,
00E6,
00E2,
00E5,
00EC,
00F4,
00F6,
00FE,
00FE,
00FC,
00F6,
00ED,
00E2,
00DB,
00DB,
00E4,
00ED,
00F4,
00F9,
00FB,
00FC,
00FA,
00F3,
00E8,
00E1,
00DE,
00E2,
00EA,
00F3,
00F6,
00F8,
00FA,
00FC,
00F9,
00F4,
00EC,
00E8,
00E9,
00EF,
00F3,
00F1,
00F2,
00F7,
00FA,
00FB,
00FA,
00F6,
00F1,
00F0,
00F2,
00F2,
0001,
00FD,
00F6,
00EC,
00E6,
00ED,
00FA,
0007,
000D,
0010,
000C,
0008,
0008,
0002,
00F4,
00E6,
00E1,
00E9,
00F8,
0005,
0009,
000B,
000E,
0017,
0017,
000B,
00F4,
00E3,
00E1,
00EA,
00F6,
00FE,
0001,
0009,
001B,
0029,
0025,
0014,
00FA,
00E9,
00E6,
00EB,
00F4,
00F7,
00F9,
000D,
0027,
002F,
0029,
0017,
0001,
00F4,
00EE,
00EF,
00F1,
00E9,
00FC,
0015,
0027,
002B,
0024,
0015,
0008,
00FE,
00F8,
00F6,
00E1,
00EB,
0002,
0015,
0020,
0022,
0018,
0010,
0009,
0002,
00FE,
00E6,
00DF,
00EA,
0000,
000F,
0017,
0017,
000F,
000A,
0009,
0005,
00EF,
00E5,
00E0,
00ED,
00FC,
0008,
000D,
000B,
0007,
000A,
0009,
0003,
00F5,
00E9,
00E7,
00F2,
00FB,
00FE,
0001,
0004,
0005,
000A,
0011,
0007,
00F8,
00F1,
00F4,
00F7,
00F9,
00F8,
00FB,
00FE,
0004,
0007,
00FC,
00F3,
00FC,
000C,
0007,
00FD,
00FD,
00FB,
00FC,
00FD,
000A,
0002,
00F5,
00F7,
000A,
000A,
00FF,
00FB,
00FD,
00FC,
00FE,
000A,
0006,
00F7,
00F1,
0005,
000F,
0004,
00FD,
00FC,
00FE,
00FF,
0009,
000B,
00FC,
00EC,
00FD,
000F,
0007,
00FC,
00FB,
00FD,
00FD,
0008,
000D,
0002,
00EB,
00F4,
000C,
000A,
00FE,
00FB,
00FD,
00FD,
0003,
000F,
000A,
00F0,
00EC,
0004,
000C,
0001,
00FD,
00FD,
00FC,
0001,
000B,
0011,
00F8,
00EB,
00FB,
000B,
0004,
00FE,
00FD,
00FC,
00FE,
0005,
0014,
0002,
00EE,
00F6,
0007,
0005,
00FC,
00FD,
00FE,
00FE,
0002,
0010,
000C,
00F5,
00F0,
00FF,
0004,
00FE,
00FD,
00FE,
00FF,
0000,
000A,
000F,
00FF,
00F4,
00FD,
0004,
00FF,
00FF,
0000,
0001,
0001,
000A,
0013,
0006,
00F5,
00F4,
0000,
00FE,
00FD,
00FE,
0000,
0000,
0004,
0006,
0005,
0008,
0009,
0009,
0006,
0006,
0008,
00FE,
00FF,
0002,
0005,
0004,
0008,
000A,
000A,
0008,
0004,
0004,
00FD,
0000,
0002,
0005,
0007,
0009,
000B,
000A,
0009,
0006,
0006,
0000,
0001,
0004,
0008,
000A,
0009,
000C,
000D,
000B,
0008,
0009,
0004,
0004,
0003,
0008,
000C,
000D,
000C,
000E,
000D,
000A,
000B,
0006,
0005,
0007,
0009,
000E,
000D,
000C,
000D,
000D,
000B,
000C,
0005,
0007,
0006,
000A,
000D,
000E,
000C,
000B,
000B,
000B,
000D,
0004,
0004,
0005,
0007,
000B,
000C,
000A,
0009,
000A,
000B,
000A,
0002,
0002,
0004,
0007,
0009,
000C,
000A,
0008,
0007,
0009,
0009,
0002,
0001,
0003,
0006,
0009,
0008,
0009,
0009,
0008,
0007,
0006,
0002,
0002,
0005,
0005,
0006,
0008,
000A,
000C,
0008,
0008,
0007,
00FB,
00FA,
00FB,
00F8,
00F5,
00EF,
00ED,
00F1,
00F8,
00FF,
0003,
0000,
00FE,
00FF,
00FE,
00FA,
00F3,
00ED,
00F0,
00F6,
00FC,
0000,
0003,
00FE,
0000,
0000,
00FD,
00F4,
00EE,
00EE,
00F2,
00F9,
00FE,
0005,
0001,
0001,
0002,
0002,
00F8,
00F0,
00EC,
00EF,
00F6,
00FB,
0008,
0003,
0005,
0006,
0008,
0000,
00F6,
00EF,
00EE,
00F5,
00F9,
000B,
0006,
0009,
000C,
000D,
0009,
00FF,
00F5,
00F0,
00F2,
00F4,
000A,
0006,
0008,
000D,
000E,
0011,
0009,
00FE,
00F6,
00F5,
00F3,
0009,
0005,
0007,
000A,
000D,
0011,
000E,
0003,
00FD,
00F9,
00F4,
0007,
0006,
0007,
0009,
000E,
0012,
000F,
0007,
0000,
00FD,
00F8,
0005,
0004,
0004,
0008,
000C,
0012,
0011,
000A,
0004,
0001,
00FB,
0004,
0002,
0004,
0006,
0009,
0013,
0015,
0012,
000D,
000B,
0005,
0012,
000A,
0001,
00FD,
00FE,
0001,
0003,
00FF,
00FA,
00F9,
00F6,
0012,
000D,
0002,
00FB,
00FA,
00FE,
0001,
00FF,
00FC,
00FA,
00F7,
0014,
0012,
0007,
00FB,
00F4,
00F5,
00FB,
00FE,
00FF,
00FF,
00FB,
0017,
0018,
000D,
00FB,
00EC,
00EA,
00F1,
00FC,
0005,
0007,
0004,
001A,
0020,
0015,
00FE,
00E4,
00DD,
00E7,
00F9,
0008,
000E,
000B,
001E,
0026,
001B,
0000,
00DF,
00D2,
00DE,
00F4,
0008,
0012,
0010,
0024,
002D,
0021,
0003,
00DE,
00C9,
00D4,
00EE,
0006,
0013,
0011,
0025,
002D,
0022,
0006,
00E1,
00CD,
00D3,
00EB,
0002,
0011,
0011,
0024,
0027,
001A,
0003,
00E8,
00D7,
00DA,
00EB,
00FE,
000A,
000B,
001E,
001C,
000F,
00FE,
00EC,
00E3,
00E4,
00EF,
00FD,
0004,
0006,
0019,
0011,
0006,
00FB,
00F4,
00EF,
00EF,
00F4,
00FB,
00FF,
00FF,
00FB,
00F8,
00F4,
00F1,
00ED,
00ED,
00EE,
00F2,
00F4,
00F8,
00FC,
00F8,
00F5,
00F1,
00EE,
00EE,
00EF,
00F1,
00F5,
00F8,
00FD,
0002,
00F3,
00F0,
00ED,
00EC,
00ED,
00F1,
00F4,
00F9,
00FD,
0002,
0006,
00F0,
00EE,
00EC,
00ED,
00EF,
00F4,
00F9,
0000,
0004,
0006,
000C,
00EE,
00EF,
00EF,
00F1,
00F5,
00FC,
0000,
0008,
000A,
000A,
000F,
00EE,
00F1,
00F2,
00F5,
00FD,
0005,
000B,
000F,
000F,
000E,
0010,
00F0,
00F3,
00F6,
00FC,
0005,
000C,
0011,
0013,
0012,
0010,
0010,
00F4,
00F7,
00FE,
0006,
000B,
0013,
0015,
0014,
0011,
000E,
000C,
00F8,
00FC,
0003,
000C,
0011,
0015,
0014,
0013,
0010,
000C,
000A,
00FE,
0003,
000B,
0010,
0013,
0015,
0014,
0010,
000E,
0008,
0005,
0006,
000D,
0011,
0013,
0012,
0013,
0011,
000D,
0009,
0005,
0001,
00FA,
0002,
0005,
0008,
0009,
000A,
000B,
000A,
0007,
0006,
0004,
00F6,
00FD,
00FF,
0002,
0003,
0006,
0006,
0009,
0009,
0004,
0003,
00F5,
00FB,
00FD,
0002,
0004,
0004,
0007,
0008,
0007,
0004,
0005,
00F4,
00F9,
00FB,
00FF,
0004,
0004,
0005,
0006,
0007,
0006,
0008,
00F3,
00F8,
00F7,
00FB,
0003,
0005,
0007,
0007,
0005,
0004,
0008,
00F4,
00F7,
00F6,
00F8,
0000,
0005,
0008,
0007,
0005,
0005,
0008,
00F5,
00F6,
00F6,
00F7,
00FF,
0004,
0007,
0008,
0006,
0006,
000B,
00F9,
00F7,
00F5,
00F5,
00FB,
0001,
0005,
0008,
0006,
0005,
000A,
00FB,
00FA,
00F6,
00F5,
00F8,
00FB,
00FF,
0004,
0003,
0004,
0009,
00FD,
00FD,
00F8,
00F7,
00FA,
00FA,
00FC,
0000,
0001,
0003,
0009,
00FA,
00FB,
00F8,
00F6,
00F4,
00F4,
00F6,
00FB,
00FD,
0000,
000A,
00F7,
00FB,
00FC,
0002,
0006,
000C,
000F,
0013,
0012,
000F,
000A,
00F6,
00F8,
00FC,
00FF,
0006,
000B,
0010,
0015,
0015,
0011,
000E,
00F6,
00F7,
00FA,
00FF,
0006,
000D,
0014,
0017,
0019,
0015,
0013,
00F5,
00F7,
00F9,
00FE,
0005,
000D,
0015,
0017,
0018,
0017,
0013,
00F3,
00F4,
00F6,
00FC,
0002,
000A,
0011,
0016,
0016,
0014,
0011,
00F1,
00F2,
00F3,
00F8,
00FE,
0005,
000C,
0011,
0010,
000E,
000C,
00EF,
00EF,
00F0,
00F3,
00F8,
00FD,
0005,
000B,
000A,
0009,
0009,
00F0,
00F0,
00EE,
00F1,
00F6,
00FA,
00FF,
0006,
0007,
0005,
0006,
00EF,
00F0,
00EF,
00EF,
00F2,
00F6,
00FA,
00FF,
0000,
00FF,
0001,
00F2,
00F2,
00F0,
00F1,
00F1,
00F5,
00F6,
00FA,
00FC,
00FC,
00FC,
00F2,
00F1,
00F0,
00F1,
00F1,
00F3,
00F5,
00F7,
00FA,
00F9,
00FB,
0002,
0002,
0002,
0001,
00FD,
00FB,
00FB,
0000,
0001,
0002,
0003,
0002,
0003,
0002,
0001,
00FD,
00FB,
00FC,
0001,
0003,
0003,
0002,
0001,
0003,
0003,
00FF,
00FB,
00FA,
00FD,
0002,
0002,
0003,
0004,
0001,
0001,
0001,
00FE,
00FA,
00FA,
00FE,
0002,
0003,
0004,
0001,
0002,
0001,
0000,
00FD,
00FA,
00FC,
0000,
0004,
0005,
0005,
0001,
0000,
0000,
00FF,
00FB,
00FA,
00FD,
0003,
0005,
0005,
0004,
00FF,
0001,
0000,
00FF,
00FB,
00FB,
00FE,
0003,
0004,
0004,
0003,
00FD,
0000,
0000,
00FE,
00FC,
00FC,
0000,
0001,
0003,
0004,
0002,
00FB,
0001,
00FE,
00FE,
00FB,
00FE,
0000,
0001,
0002,
0004,
00FF,
00FB,
0001,
00FE,
00FD,
00FC,
00FE,
0001,
0001,
0002,
0000,
00FE,
00FB,
00FF,
00FD,
00FC,
00FC,
0001,
00FF,
0001,
0000,
0000,
00FF,
00FC,
0004,
0003,
0003,
0003,
0006,
0004,
0004,
0002,
0003,
0002,
0003,
0002,
0000,
0000,
0001,
0002,
0001,
0001,
0000,
00FF,
00FF,
0000,
0002,
0001,
00FF,
0001,
0002,
0001,
0001,
0001,
0001,
0000,
0001,
0003,
0000,
0000,
0001,
0002,
0000,
0001,
0002,
0002,
00FF,
0000,
0003,
0000,
0001,
0001,
0003,
0002,
0002,
0000,
0001,
00FE,
0000,
0002,
0000,
0000,
0001,
0003,
0002,
0001,
0001,
00FF,
00FF,
0000,
0002,
0000,
0000,
0002,
0002,
0002,
0001,
0002,
0000,
00FF,
00FF,
0001,
00FF,
0001,
0002,
0001,
0001,
0002,
0001,
00FF,
00FF,
0000,
0002,
00FF,
0000,
0001,
0002,
0001,
0001,
0001,
0000,
0000,
0000,
0000,
00FE,
00FF,
0000,
0000,
00FF,
0000,
0000,
00FF,
00FE,
00FE,
00FF,
00FE,
00FE,
00FF,
0000,
0000,
0000,
0000,
0000,
00FE,
00FF,
0009,
000B,
000D,
000B,
000B,
000A,
0008,
0005,
0002,
0000,
00FC,
000A,
000A,
000C,
000B,
000A,
0008,
0007,
0004,
0000,
00FE,
00FA,
000E,
000D,
000D,
000C,
000B,
0008,
0006,
0001,
00FD,
00FC,
00F8,
000E,
000F,
000F,
000E,
0009,
0006,
0003,
00FE,
00FC,
00F9,
00F6,
0010,
000E,
000D,
000C,
0008,
0003,
00FF,
00FC,
00F9,
00F7,
00F5,
0010,
000C,
0008,
0008,
0003,
00FF,
00FB,
00F8,
00F7,
00F6,
00F3,
0010,
000B,
0004,
0003,
00FE,
00FB,
00F8,
00F7,
00F6,
00F5,
00F3,
000C,
0005,
0003,
00FF,
00FA,
00F8,
00F7,
00F7,
00F7,
00F7,
00F5,
000A,
0004,
0001,
00FD,
00F8,
00F7,
00F7,
00F8,
00F8,
00F8,
00F7,
0007,
0000,
00FB,
00F9,
00F7,
00F6,
00F8,
00F9,
00F9,
00F9,
00F6,
0002,
00FD,
00F9,
00F6,
00F5,
00F7,
00F7,
00F8,
00F8,
00F7,
00F7,
00FE,
0000,
0001,
0000,
0000,
0001,
0002,
0002,
0000,
00FF,
00FF,
0001,
0002,
0000,
00FE,
00FC,
00FE,
0001,
0002,
0000,
00FF,
00FE,
0002,
0002,
00FE,
00F7,
00F3,
00F4,
00FC,
0001,
0002,
0001,
00FF,
0002,
0001,
00FB,
00EF,
00E7,
00EA,
00F6,
00FF,
0002,
0001,
00FF,
0001,
0000,
00FA,
00EE,
00E7,
00E9,
00F4,
00FC,
0002,
0001,
00FF,
0000,
0000,
00FB,
00F7,
00F3,
00F3,
00F9,
00FE,
0001,
0001,
00FE,
00FF,
0000,
00FF,
00FF,
00FD,
00FE,
00FF,
0000,
0001,
0001,
00FF,
00FD,
00FE,
0000,
0001,
0002,
0002,
0001,
0001,
0000,
00FF,
00FF,
00FF,
0000,
0000,
0002,
0002,
0002,
0001,
0000,
00FF,
00FE,
00FE,
0000,
00FF,
00FF,
0001,
0001,
0001,
00FF,
00FF,
0000,
00FF,
00FF,
0001,
0001,
0000,
0001,
0001,
00FF,
00FF,
0000,
0000,
0000,
00FF,
00F5,
00FC,
0004,
000A,
000A,
0008,
0003,
0001,
00FF,
00FE,
00FC,
00F3,
00FC,
0003,
0008,
000A,
0008,
0003,
00FF,
00FE,
00FE,
00FD,
00F1,
00F9,
0000,
000A,
000D,
0009,
0005,
0001,
00FF,
00FC,
00FD,
00F0,
00F8,
00FF,
0009,
000F,
000C,
0006,
0002,
00FF,
00FD,
00FA,
00F2,
00F6,
00FC,
0008,
0010,
000E,
0008,
0003,
00FE,
00FD,
00FA,
00F1,
00F6,
00F9,
0005,
000E,
000E,
0008,
0003,
0001,
00FD,
00FA,
00F5,
00F7,
00F8,
0002,
000B,
000D,
0009,
0003,
0001,
00FD,
00FB,
00F6,
00F8,
00F8,
0000,
0007,
000A,
0009,
0004,
0001,
00FF,
00FD,
00F8,
00FB,
00F8,
00FC,
0004,
0008,
0006,
0003,
0001,
00FF,
00FD,
00F9,
00FC,
00FA,
00FB,
0001,
0004,
0006,
0003,
0002,
0000,
00FE,
00FA,
00FC,
00FA,
00FD,
0000,
0003,
0005,
0004,
0003,
0002,
00FE,
00EE,
00FE,
0004,
0007,
0007,
0007,
0003,
00FE,
00FF,
0001,
0003,
00EC,
00FB,
0003,
000B,
000B,
0006,
00FF,
00FD,
00FD,
00FF,
0001,
00E9,
00F6,
0004,
0010,
0011,
000A,
0000,
00FB,
00FC,
00FE,
0001,
00E8,
00F1,
0002,
0013,
0017,
000A,
00FF,
00FC,
00FD,
00FE,
00FF,
00E5,
00EE,
0001,
0014,
0018,
000B,
00FD,
00FC,
00FD,
00FF,
00FE,
00E6,
00EE,
0000,
0013,
0015,
000C,
0000,
00FC,
00FD,
00FE,
00FE,
00E9,
00F2,
0001,
000F,
0013,
000C,
0001,
00FD,
00FC,
00FE,
00FD,
00ED,
00F5,
0001,
000A,
000D,
000A,
0000,
00FE,
00FD,
00FE,
00FC,
00EF,
00F9,
0002,
0007,
000B,
0009,
0002,
00FE,
00FF,
0000,
00FE,
00F5,
00FD,
0002,
0004,
0009,
0007,
0002,
00FE,
00FE,
00FF,
00FF,
00F6,
00FF,
0001,
0005,
0008,
000A,
0005,
0003,
0002,
0002,
0003,
00FF,
00FD,
00FC,
00FD,
00FD,
00FB,
00F9,
00FB,
00F9,
00F9,
00FB,
00FA,
00F7,
00F2,
00F4,
00F7,
00FC,
00FF,
0000,
00FF,
00FF,
0000,
00FA,
00F3,
00EF,
00ED,
00F5,
00FD,
0001,
0003,
0002,
0002,
0002,
00FD,
00F6,
00F2,
00F1,
00F6,
00FE,
0004,
0006,
0004,
0002,
0004,
0001,
00FC,
00FB,
00FB,
00FE,
0002,
0005,
0004,
0003,
0002,
0003,
0003,
0002,
0003,
0005,
0006,
0006,
0004,
0002,
0001,
0002,
0002,
0004,
0008,
000A,
000C,
000B,
0008,
0003,
0002,
00FF,
00FE,
0000,
0004,
0008,
000C,
000E,
000D,
0007,
0003,
0001,
00FE,
00FE,
00FF,
0006,
0006,
0009,
000A,
0009,
0007,
0003,
0000,
00FD,
00FD,
0001,
0004,
0007,
0006,
0007,
0006,
0004,
0001,
0000,
00FF,
00FF,
0002,
0007,
0005,
0004,
0004,
0003,
0000,
0000,
0000,
0000,
0002,
0003,
0001,
0001,
00FE,
00FD,
00FA,
00F8,
00FC,
00FE,
0001,
0000,
0000,
0003,
0002,
0002,
0000,
00FE,
00FB,
00F9,
00FC,
00FE,
00FE,
00FE,
0004,
0005,
0006,
0008,
0004,
0000,
00FC,
00FA,
00FB,
00FD,
00FE,
0000,
0003,
0003,
0005,
0008,
0006,
0002,
00FD,
00FC,
00FC,
00FE,
00FE,
0001,
0004,
0004,
0005,
0007,
0007,
0002,
00FF,
00FC,
00FE,
00FB,
00FD,
0001,
0005,
0005,
0004,
0006,
0005,
0002,
00FF,
00FD,
00FA,
00F9,
00FD,
0002,
0006,
0005,
0005,
0006,
0006,
0003,
0001,
00FD,
00FA,
00F8,
00FA,
0000,
0002,
0004,
0004,
0006,
0004,
0004,
0000,
00FF,
00FA,
00FA,
00FB,
00FC,
0000,
0001,
0001,
0003,
0005,
0002,
0000,
00FF,
00FE,
00FD,
00FD,
00FC,
00FF,
00FF,
0000,
0002,
0002,
0002,
0000,
0001,
0000,
00FD,
00FD,
00FD,
00FE,
00FE,
0000,
00FD,
00FE,
00FD,
00FD,
00FF,
00FD,
00FC,
00FE,
0004,
0009,
000B,
0002,
0001,
0003,
00FF,
00FF,
00FF,
00F8,
00F5,
00FB,
0002,
0006,
0000,
0000,
0002,
0005,
0003,
0004,
00FE,
00F1,
00EF,
00F8,
00FF,
00FF,
00FF,
0001,
0004,
0008,
000C,
000A,
00FC,
00F0,
00F2,
00F9,
00FE,
00FE,
00FD,
00FE,
0004,
000D,
0011,
000D,
00FF,
00F7,
00F8,
00FD,
00FE,
00FE,
00FC,
00FC,
0003,
000E,
0015,
0009,
0001,
00FC,
00FE,
00FE,
00FE,
00FD,
00F9,
00FC,
0002,
000C,
0009,
0003,
00FF,
0000,
0000,
00FF,
00FE,
00FD,
00FD,
00FF,
0007,
0009,
0002,
00FE,
0001,
0000,
00FF,
00FF,
00FE,
00FE,
00FE,
0003,
0007,
0004,
00FE,
00FF,
0000,
00FF,
00FF,
00FC,
00FD,
00FE,
0000,
0004,
0005,
00FE,
00FF,
0001,
00FF,
00FF,
00FD,
00FE,
00FE,
00FE,
0002,
0005,
0003,
0005,
0001,
0002,
0000,
00FF,
00FE,
0000,
0000,
0000,
0000,
0003,
0002,
0001,
0000,
0001,
00FE,
00FF,
0000,
0001,
00FF,
00FF,
0001,
0003,
0001,
0002,
0002,
0002,
0001,
0000,
0001,
0001,
0001,
00FF,
0005,
0003,
0004,
0003,
0004,
0005,
0003,
0001,
0001,
0001,
00FF,
0002,
0002,
0003,
0005,
0005,
0006,
0003,
0001,
00FE,
00FF,
00FE,
0004,
0003,
0004,
0005,
0005,
0004,
0003,
0002,
00FF,
0000,
00FE,
0002,
0001,
0001,
0001,
0001,
0002,
0002,
0003,
0001,
0000,
00FE,
0001,
0002,
00FE,
00FD,
00FC,
00FF,
0001,
0002,
0000,
0001,
00FD,
0001,
00FE,
00FD,
00FB,
00FA,
00FC,
00FF,
00FF,
0000,
0000,
00FE,
00FF,
0000,
00FD,
00FB,
00FA,
00FD,
00FF,
0000,
0000,
0000,
00FE,
00FA,
00FC,
00FA,
00F6,
00F6,
00F7,
00FA,
00F9,
00FA,
00FA,
00F7,
0000,
0000,
0002,
0004,
0008,
0009,
000B,
000A,
0009,
0005,
0004,
0000,
0000,
0002,
0005,
0007,
0009,
000B,
000A,
0008,
0006,
0004,
0002,
0001,
0004,
0007,
0009,
0009,
000A,
000B,
000A,
0007,
0004,
0002,
0003,
0005,
0009,
000B,
0008,
000A,
000C,
000B,
0008,
0004,
0001,
0004,
0006,
000A,
000B,
0009,
0007,
0009,
000A,
0007,
0003,
0002,
0003,
0005,
0008,
000A,
0009,
0007,
0006,
0008,
0005,
0000,
0000,
0001,
0003,
0005,
0008,
0007,
0006,
0005,
0004,
0003,
0000,
0001,
00FF,
0001,
0003,
0005,
0005,
0004,
0005,
0002,
0000,
00FE,
0000,
0000,
0000,
0002,
0001,
0003,
0003,
0000,
0000,
00FF,
00FE,
00FF,
00FE,
0000,
0001,
0000,
0001,
0001,
00FF,
0000,
00FE,
00FD,
00FF,
00FE,
0000,
0001,
0001,
00FF,
00FF,
00FF,
00FE,
00FD,
00FC,
00F3,
00F5,
00F2,
00EA,
00E4,
00DF,
00E0,
00E4,
00ED,
00F4,
00F7,
00F3,
00F6,
00F4,
00EE,
00EB,
00E9,
00EC,
00F1,
00F9,
00FE,
00FF,
00F5,
00F8,
00F5,
00F2,
00F1,
00EF,
00F4,
00F9,
00FD,
00FE,
0000,
00F8,
00FA,
00F9,
00F6,
00F5,
00F8,
00FD,
0001,
0003,
0002,
0004,
00F9,
00FF,
00FE,
00FD,
00FD,
00FF,
0001,
0001,
0005,
0003,
0005,
00FC,
0001,
00FF,
0000,
0003,
0004,
0004,
0004,
0004,
0005,
0008,
00FB,
0001,
00FF,
0002,
0006,
0004,
0006,
0006,
0005,
0008,
0009,
00FC,
0000,
0000,
0001,
0005,
0007,
0009,
000B,
000A,
000C,
000C,
00FD,
0002,
0004,
0004,
0006,
000A,
000E,
000E,
000C,
000D,
000E,
00FF,
0003,
0002,
0006,
0008,
000A,
000E,
0010,
000E,
000E,
000B,
0005,
0008,
000A,
000D,
0011,
0014,
0017,
0015,
0012,
000F,
000C,
00FD,
00FB,
00FA,
00FF,
0002,
0000,
0005,
0006,
00FE,
00FD,
00FF,
0000,
00FC,
00FC,
00FE,
0003,
0000,
0001,
0007,
00FF,
00FD,
00FE,
00FF,
00FE,
00F9,
00FD,
0003,
0000,
0000,
0009,
0005,
00FA,
00FD,
0001,
00FE,
00F7,
00F9,
0004,
0001,
00FC,
0009,
000A,
00FC,
00FB,
0001,
0001,
00F9,
00F7,
0001,
0003,
00FC,
0004,
000C,
0000,
00FB,
0001,
0002,
00FC,
00F5,
00FD,
0005,
00FC,
00FF,
000C,
0006,
00F8,
0002,
0002,
00FE,
00F6,
00F9,
0005,
0001,
00FD,
0009,
0009,
00FC,
0003,
0002,
00FF,
00F8,
00F7,
0000,
0002,
00FC,
0005,
0009,
00FF,
0002,
0002,
0001,
00FA,
00F6,
00FE,
0002,
00FD,
0001,
0008,
0001,
0002,
0002,
0001,
00FE,
00F9,
00FB,
00FE,
00FE,
0002,
0006,
0004,
0000,
0001,
00FF,
00FD,
00F8,
00F8,
00FE,
00FC,
0001,
0003,
0005,
0008,
0002,
00FF,
00FA,
00F8,
00F3,
00F1,
00EE,
00EF,
00EF,
00EF,
0009,
0004,
0004,
0002,
00FE,
00FC,
00F8,
00F4,
00F3,
00F1,
00ED,
000B,
0004,
0003,
0002,
00FF,
00FB,
00F7,
00F2,
00F0,
00EE,
00E9,
0010,
0008,
0008,
0006,
0003,
00FF,
00F7,
00F2,
00F1,
00EE,
00E8,
0012,
000A,
000A,
0008,
0004,
0000,
00FA,
00F4,
00F2,
00F1,
00E9,
0012,
000C,
000C,
0009,
0008,
0003,
00FD,
00F5,
00F3,
00F3,
00EB,
0014,
0010,
000D,
000D,
000A,
0007,
00FF,
00F9,
00F4,
00F5,
00EE,
0014,
0010,
0010,
000C,
000B,
0007,
0000,
00FD,
00F9,
00F7,
00F1,
0013,
0011,
0010,
000B,
000B,
0006,
0002,
00FE,
00FD,
00FD,
00F5,
0010,
000F,
000E,
000B,
0009,
0005,
0002,
00FE,
00FD,
00FD,
00F6,
0013,
0011,
0013,
0011,
000E,
000C,
0008,
0005,
0000,
0000,
00F7,
0001,
0002,
0002,
0002,
0004,
0003,
0001,
00FD,
00FC,
00FB,
00FD,
00FE,
0003,
0004,
0004,
0002,
0003,
0002,
0000,
00FF,
00FD,
00FD,
00FA,
00FF,
0001,
0005,
0006,
0007,
0006,
0003,
0003,
0000,
00FF,
00F8,
00F8,
00F9,
00FE,
0005,
0009,
000A,
000A,
0006,
0006,
0004,
00FA,
00F4,
00F1,
00EF,
00F7,
0000,
0008,
000B,
000A,
0006,
0005,
0001,
00FD,
00F4,
00ED,
00EB,
00EC,
00F8,
0005,
000A,
0009,
0006,
000A,
0003,
00FF,
00F6,
00EE,
00E9,
00E7,
00F0,
00FE,
0004,
0005,
000F,
000E,
0008,
0003,
00FB,
00F4,
00ED,
00E7,
00EF,
00F9,
00FD,
000A,
000F,
0010,
000F,
0007,
00FF,
00FA,
00F5,
00F0,
00F3,
00F4,
00FF,
0005,
000A,
000F,
0012,
000D,
0005,
00FF,
00FE,
00FA,
00F7,
00FB,
00FC,
0000,
0006,
000F,
0015,
0016,
000F,
0009,
0004,
00FF,
0000,
0000,
0001,
0002,
0003,
00FF,
00FD,
00FD,
00FB,
00FB,
00FD,
0002,
0003,
0002,
00FF,
00FD,
00FA,
00F5,
00F4,
00F7,
00FC,
0002,
0002,
00FF,
00FC,
00F7,
00F3,
00F1,
00F3,
00F7,
00FF,
0005,
000B,
00FB,
00F8,
00F3,
00F0,
00EF,
00F5,
00FE,
0009,
0010,
000E,
000D,
00F8,
00F5,
00F4,
00F6,
00FF,
000B,
0017,
001B,
0017,
000F,
0006,
00F8,
00F7,
00FE,
0007,
0015,
001E,
0021,
0019,
000E,
0001,
00F8,
00FE,
0005,
000B,
0014,
001D,
001B,
000F,
0005,
00FA,
00F4,
00F2,
0008,
000C,
0012,
0016,
0012,
0006,
00FA,
00F5,
00F0,
00F3,
00F5,
000B,
000A,
000C,
0007,
00FE,
00F5,
00F2,
00F2,
00F4,
00F9,
00FA,
0009,
0004,
0001,
00FB,
00F4,
00F5,
00F7,
00F9,
00FC,
00FC,
00FD,
0000,
00FD,
00FB,
00F8,
00F9,
00FA,
00FD,
00FD,
00FE,
00FE,
00FF,
0002,
0002,
0002,
0001,
0001,
0002,
0001,
0000,
0001,
0000,
0000,
00FE,
0001,
0004,
0003,
00FF,
0000,
0000,
0002,
0002,
00FF,
00FF,
00FF,
00FF,
00FF,
0003,
0000,
0000,
0001,
0001,
0002,
0000,
0000,
00FD,
0000,
0004,
0006,
0005,
0002,
00FD,
00FE,
0001,
0001,
0002,
00F7,
00F9,
00FB,
0004,
000C,
000E,
0007,
0000,
00FF,
0000,
0001,
00FE,
00F6,
00EF,
00EF,
00FA,
000A,
0011,
000D,
0004,
00FF,
0001,
0009,
0003,
00FB,
00EE,
00E6,
00EC,
00FE,
0008,
000A,
0005,
0002,
0007,
000C,
000D,
0007,
00F7,
00E8,
00E6,
00F0,
00FE,
0003,
0002,
00FF,
0003,
000D,
0010,
0012,
0006,
00F7,
00F0,
00F2,
00F7,
00FE,
0000,
00FC,
00FD,
0001,
0009,
000F,
000D,
0006,
00FE,
00FB,
00F9,
0003,
0001,
0000,
00FD,
00FC,
0000,
0005,
0008,
0006,
0002,
0001,
00FA,
00FD,
0001,
0002,
0000,
00FF,
00FC,
00F9,
00F6,
00F4,
00F0,
00FD,
0003,
0005,
0006,
0006,
0004,
0003,
00FF,
00FC,
00F7,
00F4,
00FF,
0007,
000A,
000D,
000D,
000A,
000A,
0004,
00FF,
00FC,
00F6,
0000,
0009,
000C,
0010,
0012,
0012,
0010,
000A,
0004,
00FF,
00F8,
0004,
000B,
000F,
0014,
0017,
0018,
0015,
0010,
000A,
0004,
00FB,
0005,
000C,
0011,
0015,
0017,
0017,
0015,
0013,
000D,
0006,
00FF,
0006,
000E,
0012,
0016,
0017,
0017,
0015,
0012,
000D,
0008,
0001,
0004,
000B,
0010,
0014,
0015,
0014,
0011,
000E,
000A,
0006,
00FF,
0001,
0008,
000D,
0011,
0011,
0011,
000F,
000B,
0008,
0003,
00FD,
00FC,
0001,
0009,
000C,
000C,
000B,
000A,
0006,
0004,
0000,
00FA,
00FA,
00FE,
0002,
0003,
0005,
0006,
0004,
0003,
00FF,
00FD,
00F8,
00F6,
00F8,
00F9,
00FB,
00FA,
00FA,
00F9,
00F9,
00FB,
00F9,
00F7,
00F9,
00FB,
00FB,
00FE,
0000,
00FF,
00FD,
00FD,
00FD,
00FC,
00F9,
00FB,
00FE,
00FF,
0002,
0007,
0005,
0002,
00FF,
00FD,
00FC,
00FB,
00FD,
0002,
0005,
0009,
000C,
000A,
0007,
0003,
00FF,
00FC,
00F9,
0000,
0006,
0009,
000F,
0013,
0010,
000C,
0008,
0002,
00FD,
00FA,
0003,
0008,
000F,
0016,
0019,
0018,
0013,
000B,
0005,
00FE,
00FB,
0005,
000B,
0014,
001A,
001C,
001C,
0018,
000F,
0007,
00FF,
00FC,
0005,
000B,
0014,
0019,
001B,
001B,
0017,
000F,
0004,
00FF,
00FA,
0003,
0009,
000E,
0014,
0018,
0015,
0010,
0009,
0002,
00FD,
00F8,
0001,
0004,
0009,
000C,
0010,
000F,
0008,
0003,
00FE,
00F8,
00F5,
00FF,
0002,
0005,
000A,
000C,
000A,
0006,
0000,
00FC,
00F8,
00F4,
0001,
0003,
0004,
0005,
0006,
0005,
0004,
0001,
00FE,
00FC,
00FC,
0002,
0004,
0007,
0009,
0009,
0009,
0008,
0005,
0003,
0000,
0000,
0001,
0005,
0008,
000D,
000E,
000D,
000B,
0007,
0005,
0003,
0001,
0007,
000B,
000F,
0014,
0016,
0016,
0012,
000A,
0007,
0006,
0005,
000A,
000F,
0016,
001A,
001B,
001B,
0015,
000C,
000B,
000A,
0008,
000B,
0012,
0018,
001C,
001E,
001F,
0017,
0011,
000E,
000D,
0009,
000B,
0014,
0018,
001D,
0021,
0021,
001A,
0014,
000F,
000D,
0009,
000A,
000F,
0015,
001A,
0020,
0022,
001C,
0014,
000F,
000B,
0007,
000A,
000E,
0011,
0017,
001B,
001C,
001A,
0011,
000D,
000B,
0005,
0008,
000C,
0011,
0018,
0017,
0014,
0011,
000A,
0008,
0006,
0002,
0003,
0007,
000C,
0010,
000F,
000E,
000B,
0006,
0004,
0001,
0001,
0000,
00FF,
0000,
0002,
0005,
000A,
0008,
0002,
0000,
0001,
00FF,
0000,
00FE,
00FE,
0000,
0002,
0008,
000B,
0007,
0000,
0000,
00FC,
00FD,
00FC,
00FD,
00FD,
0000,
0009,
0011,
000F,
0005,
00FB,
00F4,
00FB,
00F9,
00FC,
00FD,
0000,
0007,
0013,
0014,
0006,
00F4,
00ED,
00FA,
00FA,
00FA,
00FA,
00FD,
0003,
0014,
0017,
0006,
00EF,
00E6,
00FC,
00FC,
00FC,
00FA,
00FC,
0004,
0018,
001C,
0008,
00ED,
00E5,
00FE,
00FC,
00FC,
00FB,
00FD,
0007,
0019,
001D,
000A,
00EF,
00E6,
00FE,
00FD,
00FD,
00FB,
00FC,
0005,
0013,
0019,
000A,
00F0,
00E8,
00FE,
00FE,
00FE,
00FD,
00FE,
0005,
000E,
0014,
000A,
00F6,
00EC,
00FE,
0000,
00FE,
00FC,
00FF,
0004,
0009,
000C,
0009,
00FB,
00F0,
00FD,
00FE,
00FC,
00FC,
00FF,
0004,
0008,
0009,
0006,
00FE,
00F1,
0001,
0002,
0003,
0005,
0004,
0004,
0004,
0003,
0001,
00FF,
00FF,
0001,
0002,
0003,
0004,
0004,
0004,
0005,
0002,
0001,
0001,
00FE,
0001,
0000,
0003,
0003,
0004,
0005,
0005,
0004,
0002,
00FF,
00FF,
0001,
0000,
0004,
0004,
0005,
0004,
0005,
0005,
0002,
0001,
00FF,
0000,
0001,
0004,
0003,
0002,
0002,
0005,
0003,
0000,
0000,
00FF,
0000,
0001,
0002,
0003,
0004,
0003,
0003,
0002,
0000,
0002,
00FF,
0001,
0002,
0003,
0003,
0003,
0004,
0005,
0004,
0001,
0000,
0001,
0001,
0001,
0003,
0001,
0003,
0006,
0006,
0004,
0001,
0000,
0000,
0000,
0001,
0001,
0003,
0005,
0007,
0006,
0004,
0001,
0001,
00FF,
0001,
0003,
0003,
0004,
0003,
0005,
0004,
0002,
0000,
0001,
00FF,
00FD,
0000,
0001,
00FF,
0000,
0000,
0001,
00FF,
00FE,
00FF,
00FE,
00FB,
00FC,
0000,
0002,
0007,
0007,
00FC,
00F3,
00F3,
00FA,
0003,
00FD,
00FE,
0001,
0004,
000A,
0008,
00FB,
00F3,
00F6,
00FE,
0007,
00FC,
00FE,
0001,
0006,
000E,
0008,
00F6,
00EE,
00F7,
0003,
000B,
00FC,
00FF,
0002,
0008,
000D,
0004,
00F1,
00EA,
00F8,
0008,
000E,
00FC,
00FF,
0004,
0008,
000C,
00FF,
00E9,
00E8,
00FD,
000C,
000C,
00FE,
0000,
0002,
0008,
000B,
00FA,
00E5,
00E9,
0003,
0011,
000A,
00FD,
00FF,
0002,
0005,
0006,
00F8,
00E5,
00F0,
0009,
0011,
0006,
00FE,
0000,
0002,
0005,
0003,
00F5,
00E6,
00F6,
000D,
0010,
0001,
00FE,
0001,
0003,
0003,
00FF,
00F3,
00ED,
00FD,
000C,
000D,
00FF,
0000,
0000,
0001,
0001,
00FD,
00F4,
00F3,
0002,
000B,
0007,
00FF,
00FD,
00FE,
0000,
00FC,
00F7,
00F2,
00F4,
0000,
0009,
0006,
00FE,
0007,
0004,
0003,
0003,
0000,
0000,
0003,
0002,
0001,
0001,
0001,
0003,
0001,
0000,
0000,
00FF,
00FE,
00FF,
0000,
00FC,
00FF,
00FE,
0004,
0001,
0001,
0000,
00FD,
00FB,
00FF,
00FC,
00FA,
00FD,
00FE,
0002,
0000,
00FF,
00FF,
00FD,
00FC,
00FC,
00FB,
00F9,
00FC,
00FF,
00FF,
00FE,
00FE,
00FE,
00FD,
00FA,
00FA,
00F7,
00F8,
00FC,
00FE,
0000,
00FE,
00FD,
00FD,
00FA,
00FA,
00F5,
00F6,
00F8,
00FC,
00FE,
0001,
00FD,
00FC,
00FB,
00F8,
00F7,
00F6,
00F8,
00F7,
00FA,
00FD,
00FF,
00FB,
00FA,
00F9,
00F8,
00F7,
00F4,
00F5,
00F6,
00F9,
00FD,
00FD,
00FB,
00FA,
00FA,
00F7,
00F7,
00F4,
00F5,
00F6,
00F9,
00FC,
00FE,
00FB,
00FC,
00FA,
00F8,
00F8,
00F8,
00F7,
00F9,
00FC,
00FE,
0001,
00FE,
00FF,
00FC,
00FC,
00FB,
00FB,
00FA,
00FA,
00FE,
0000,
00F5,
00F4,
00EF,
00ED,
00EF,
00F2,
00F5,
00FD,
0004,
0009,
0010,
00F3,
00F0,
00EA,
00EB,
00EF,
00F5,
00FD,
0006,
000C,
0010,
0016,
00F0,
00EA,
00E5,
00E6,
00EE,
00F9,
0005,
000E,
0014,
0016,
0019,
00EC,
00E6,
00E1,
00E4,
00F1,
00FF,
000D,
0015,
001A,
001A,
001B,
00EA,
00E4,
00E1,
00E7,
00F4,
0004,
0014,
001B,
001C,
001A,
0019,
00E9,
00E4,
00E2,
00E9,
00F8,
0007,
0014,
001B,
0019,
0016,
0016,
00E8,
00E6,
00E5,
00ED,
00F9,
0008,
0012,
0018,
0017,
0015,
0013,
00E9,
00EA,
00EB,
00F1,
00FC,
0008,
0011,
0015,
0015,
0011,
0010,
00ED,
00EF,
00EF,
00F6,
00FE,
0008,
000F,
0013,
0010,
000F,
000E,
00F1,
00F5,
00F7,
00FA,
0003,
0009,
000E,
0011,
0010,
000D,
000D,
00F5,
00FB,
00FE,
0002,
0008,
000E,
0011,
0012,
0011,
0010,
000E,
00FD,
00FE,
0001,
0005,
0008,
000A,
000B,
000B,
0008,
0007,
0005,
00FE,
0000,
0002,
0005,
0009,
000C,
000C,
000B,
0006,
0004,
0001,
0003,
0002,
0005,
000B,
000D,
000D,
000B,
0009,
0004,
0000,
00FD,
0001,
0004,
0006,
000B,
000A,
000C,
0009,
0004,
00FF,
00FB,
00FB,
0002,
0003,
0006,
000A,
000A,
000A,
0005,
00FF,
00F9,
00F8,
00F8,
0003,
0001,
0004,
0009,
0009,
0005,
00FD,
00F7,
00F3,
00F4,
00F8,
0005,
0002,
0004,
0006,
0004,
00FE,
00F6,
00EE,
00EE,
00F3,
00FB,
0003,
0000,
0000,
0000,
00FD,
00F8,
00EF,
00ED,
00EE,
00F6,
0000,
0002,
00FE,
00FD,
00FC,
00F8,
00F2,
00ED,
00EC,
00F1,
00FB,
0004,
0001,
00FC,
00FB,
00FB,
00F8,
00F5,
00F2,
00F4,
00FA,
0003,
000A,
0000,
00FC,
00FC,
00FB,
00FA,
00FB,
00FB,
00FD,
0003,
0009,
000E,
0004,
0009,
000D,
0010,
0013,
0014,
0016,
0016,
0015,
0012,
000F,
00FF,
0002,
0006,
0008,
000D,
0010,
0012,
0015,
0012,
0010,
0010,
00F8,
00FC,
0001,
0004,
000A,
0010,
0012,
0013,
0011,
0011,
0011,
00F6,
00FA,
00FD,
0001,
0005,
0008,
000B,
000D,
000E,
000F,
0010,
00F3,
00F6,
00F8,
00F9,
00FD,
0002,
0007,
000C,
000D,
000E,
0011,
00F2,
00F3,
00F4,
00F6,
00FA,
0001,
0005,
0008,
000B,
000C,
000F,
00F2,
00F3,
00F2,
00F4,
00F5,
00F9,
00FD,
0000,
0003,
0007,
000D,
00F3,
00F3,
00F2,
00F2,
00F1,
00F2,
00F7,
00FD,
0001,
0004,
000A,
00F4,
00F5,
00F2,
00EF,
00F1,
00F0,
00F3,
00F8,
00FC,
0000,
0006,
00F8,
00F8,
00F3,
00F1,
00F0,
00F1,
00F1,
00F3,
00F7,
00FB,
0001,
00F9,
00F9,
00F5,
00F3,
00F0,
00EE,
00ED,
00F0,
00F2,
00F6,
00FD,
00FF,
0000,
00FF,
00FD,
0002,
0006,
0009,
0007,
0004,
0000,
0000,
0003,
0004,
0003,
0001,
00FA,
00F2,
00EE,
00EF,
00F6,
00FC,
0003,
00FE,
00FD,
0000,
0005,
000C,
0019,
0020,
001C,
0014,
0009,
0003,
00FE,
0000,
00FE,
00F8,
00EE,
00E2,
00DD,
00DD,
00E3,
00EF,
00F9,
0003,
0002,
0007,
000E,
0016,
001D,
0022,
0021,
001C,
0015,
000B,
0000,
0000,
00F8,
00F2,
00EF,
00F1,
00F8,
00F7,
00F4,
00F6,
00FB,
00FD,
00FF,
0005,
0007,
00FD,
00EE,
00E4,
00E7,
00F0,
00FB,
0000,
0003,
0000,
0000,
0007,
0016,
002A,
0036,
0031,
0023,
0011,
0006,
0003,
0004,
0000,
00F7,
00EB,
00DC,
00D3,
00D6,
00E2,
00F3,
0000,
00FF,
00FF,
0002,
000B,
0012,
0019,
001B,
001A,
0011,
0009,
0001,
0000,
00FF,
00FE,
00F9,
00F8,
00F6,
00F6,
00F6,
00F7,
00FC,
0000,
00FE,
00FE,
00FE,
0004,
0006,
0004,
00FD,
00F8,
00F8,
00FE,
0001,
00FF,
0005,
0008,
0002,
00F6,
00EF,
00F8,
0004,
000C,
0007,
0002,
0002,
00FB,
00F0,
00EA,
00F5,
000F,
001B,
0010,
00FE,
00F8,
0000,
0000,
0000,
000D,
0024,
002D,
0018,
00F6,
00E7,
00F1,
00FF,
0004,
0003,
0005,
0006,
00F2,
00D5,
00C6,
00D9,
00FC,
0010,
000B,
0003,
00FD,
00FA,
00F0,
00EB,
00FE,
0021,
0036,
002D,
0010,
00FE,
00FF,
0000,
00FF,
0004,
0019,
0026,
0017,
00F6,
00DD,
00E2,
00F4,
00FE,
0000,
0004,
0009,
00FE,
00E8,
00DB,
00E1,
00FA,
000D,
000B,
0004,
0001,
0001,
00FD,
00F7,
00FF,
0010,
001D,
001B,
000B,
00FE,
00FF,
0002,
00FC,
00FC,
0004,
0007,
0000,
00F6,
00ED,
00F1,
00FC,
00FE,
00FE,
0001,
0002,
0001,
00FD,
00FD,
0000,
0006,
0007,
0002,
0001,
00FE,
0004,
0003,
00FB,
00F9,
00FF,
0007,
0007,
0003,
00FF,
00FD,
00FC,
0005,
0006,
00FE,
00F6,
00FA,
0006,
000A,
0003,
00FC,
00FB,
00FA,
0005,
0008,
00FE,
00F2,
00F5,
0006,
0011,
0007,
00FA,
00F8,
00FA,
0003,
000E,
0004,
00F2,
00ED,
0003,
0016,
000A,
00F6,
00F6,
00F8,
0002,
000F,
0009,
00EE,
00E5,
0002,
001D,
000E,
00F4,
00F5,
00F8,
0001,
000E,
000C,
00ED,
00E3,
0002,
0020,
000F,
00F4,
00F6,
00F8,
0000,
000E,
000D,
00F1,
00E4,
00FE,
001B,
000E,
00F4,
00F5,
00FA,
0000,
000B,
000A,
00F4,
00EB,
00FE,
0016,
000E,
00FA,
00F7,
00FB,
0001,
0007,
0006,
00F9,
00F0,
00FC,
000D,
000C,
00FE,
00F7,
00FC,
0001,
0003,
0003,
00FE,
00F6,
00FB,
0009,
0009,
0000,
00F7,
00FD,
0003,
0003,
0002,
0000,
00F9,
00FB,
0008,
000A,
0004,
00FB,
0004,
0005,
0003,
0004,
0004,
0004,
0004,
0004,
0005,
0008,
000A,
0004,
0004,
0002,
0000,
0000,
00FF,
00FF,
0001,
0002,
0006,
0008,
0004,
0003,
00FE,
00FB,
00F7,
00F5,
00F6,
00FA,
00FD,
0004,
0005,
0005,
0002,
00FD,
00F7,
00EE,
00E6,
00E9,
00F0,
00F8,
0000,
0003,
0003,
0001,
00FA,
00F2,
00E5,
00DA,
00DE,
00E6,
00F2,
00FD,
0002,
0005,
0002,
00FA,
00F0,
00E3,
00D8,
00DC,
00E5,
00F1,
00FB,
0002,
0007,
0005,
00FE,
00F4,
00E9,
00E3,
00E5,
00EB,
00F5,
00FD,
0003,
0008,
0007,
0004,
00FE,
00F6,
00F2,
00F2,
00F4,
00F9,
0002,
0008,
000E,
000C,
000A,
0006,
0001,
0000,
0000,
0000,
0004,
0008,
000C,
0010,
000F,
000D,
000D,
0008,
0007,
0006,
0006,
000A,
000C,
000F,
0011,
0010,
0010,
000F,
000C,
000B,
000B,
000B,
000E,
0011,
0012,
00FF,
0000,
00FC,
0006,
0001,
00F8,
0002,
00FE,
0001,
0002,
0000,
00FE,
00FE,
0005,
0005,
00F2,
0006,
0005,
00F8,
0006,
0000,
0000,
00FF,
0000,
0008,
00F3,
0002,
000F,
00F1,
00FE,
0009,
00FE,
0000,
00FE,
0006,
00F8,
00F5,
0018,
00FE,
00E8,
000A,
0007,
00FD,
00FE,
0002,
0001,
00EE,
0011,
0017,
00DE,
00F1,
0018,
0007,
00FC,
00FE,
00FF,
00F6,
0005,
001D,
00F3,
00D6,
000B,
0020,
00FF,
00F5,
0000,
00FB,
0002,
0010,
0006,
00DD,
00EC,
0028,
0014,
00E9,
00FB,
0004,
0003,
0009,
0003,
00F7,
00E4,
000B,
0030,
00EF,
00E7,
000B,
0003,
0004,
00FC,
00FE,
00F5,
00F6,
0022,
000F,
00D8,
0005,
0010,
00FA,
0000,
00FD,
0000,
00F7,
000B,
001C,
00EA,
00F0,
0018,
00FC,
00FA,
00FE,
0001,
00FF,
0003,
000D,
00FB,
00F0,
000C,
0004,
00F5,
0003,
00FC,
00FD,
0000,
00F5,
00FA,
00FE,
00F9,
0002,
0003,
0004,
0006,
0000,
00FF,
00F8,
00F8,
0003,
00FD,
00FE,
0005,
0001,
0006,
000C,
00F9,
00F9,
00FA,
0006,
0001,
00F8,
00FF,
0003,
0006,
000F,
0008,
00F6,
00FF,
0001,
0004,
00F4,
00F6,
000D,
0009,
000B,
000C,
00FE,
0000,
0000,
00FA,
00FA,
00F2,
000C,
0017,
0003,
0009,
0004,
00FC,
0002,
00F7,
00FA,
00F9,
0004,
001A,
0007,
0001,
0009,
00FF,
00FF,
00F9,
00FB,
00FF,
0000,
0010,
0010,
00FE,
0008,
0007,
00FF,
00FD,
00F8,
0001,
0001,
0008,
000E,
0007,
0004,
000A,
00FF,
00F7,
00F9,
00FF,
0003,
0001,
000F,
000C,
0001,
0005,
0006,
00F8,
00F4,
00F7,
0002,
0002,
0009,
000D,
0003,
0002,
0003,
00FC,
00F6,
00F9,
00FC,
0001,
0006,
0009,
0005,
0003,
0005,
00FD,
00F4,
00F7,
00FB,
00FB,
0004,
0004,
0005,
0004,
0004,
0004,
0002,
0001,
0000,
0000,
00FF,
0001,
0001,
0002,
0005,
0008,
000A,
000A,
0008,
0007,
0006,
0004,
00FD,
0000,
00FF,
0001,
0006,
000A,
000A,
000A,
0009,
0006,
0003,
00FC,
00FF,
00FC,
00FB,
00FE,
0000,
0000,
0001,
0003,
0003,
0002,
00FC,
00FE,
00FA,
00F7,
00F4,
00F3,
00F4,
00F4,
00F8,
00FF,
00FE,
00FB,
00FB,
00F9,
00F7,
00F2,
00EE,
00EF,
00EF,
00F2,
00F7,
00F8,
00FC,
00FF,
00FE,
00FC,
00FB,
00F8,
00F9,
00F9,
00F6,
00F9,
00F8,
00FF,
0001,
0000,
0000,
0003,
0003,
0001,
0000,
00FE,
00FE,
00FB,
0003,
0004,
0005,
0005,
0006,
0007,
0006,
0002,
0002,
0003,
0000,
0002,
0003,
0005,
0006,
0006,
0005,
0005,
0005,
0006,
0005,
0003,
0001,
0002,
0000,
0001,
0003,
0004,
0003,
0006,
0007,
0007,
0006,
0002,
0001,
0001,
00FF,
00FF,
00FE,
00FD,
00FF,
0000,
00FF,
0002,
0002,
00FF,
00FD,
00FB,
00FA,
00F9,
00F8,
00FA,
00FD,
00FF,
0001,
0001,
00FF,
00F9,
00F7,
00F7,
00F6,
00F6,
00FA,
00FC,
0000,
0002,
0001,
00FC,
00F8,
00F3,
00F1,
00F4,
00F4,
00F9,
00FC,
00FF,
0003,
0000,
00FD,
00F8,
00F2,
00F0,
00F2,
00F5,
00F8,
00FC,
0000,
0004,
0001,
00FD,
00F8,
00F4,
00F2,
00F2,
00F7,
00FA,
00FE,
0001,
0004,
0001,
00FD,
00F9,
00F6,
00F5,
00F5,
00F9,
00FC,
00FF,
0003,
0005,
0001,
0000,
00FE,
00FB,
00F8,
00F8,
00FD,
0000,
0002,
0003,
0007,
0003,
0000,
0000,
00FD,
00FA,
00FC,
00FF,
0002,
0004,
0004,
0004,
0003,
0001,
0001,
0001,
00FE,
00FF,
0002,
0004,
0005,
0003,
0005,
0006,
0005,
0004,
0004,
0005,
0006,
0006,
0008,
0009,
0005,
0007,
0002,
0000,
0001,
0002,
0000,
00FC,
0006,
000C,
0000,
00FC,
0001,
0000,
0001,
0004,
0003,
00FC,
00F4,
00F7,
000C,
0013,
00FA,
00FB,
00FE,
00FE,
0002,
000D,
0008,
00EE,
00E3,
00F3,
0019,
000D,
00F6,
00FE,
00FD,
00F7,
000B,
0021,
0007,
00DF,
00D8,
0000,
001F,
0002,
0001,
00FE,
00F2,
00F4,
001F,
002F,
0002,
00D8,
00DB,
000C,
0011,
0001,
0005,
00FA,
00E3,
00FA,
0036,
0030,
00FA,
00DA,
00EE,
000B,
00FE,
0004,
0006,
00EE,
00DC,
000B,
0037,
0019,
00F6,
00EE,
00FE,
00FF,
00FF,
0006,
0002,
00E0,
00DF,
0016,
0025,
0006,
00F7,
00FE,
0001,
00FE,
00FF,
0008,
00FB,
00DD,
00F0,
0018,
000E,
00FB,
0000,
0002,
0000,
0001,
0002,
0006,
00F8,
00EA,
00FD,
0010,
0003,
00FE,
0002,
0002,
0005,
0002,
0001,
0002,
00FA,
00F5,
0001,
0005,
0000,
0006,
0007,
000B,
0010,
0011,
0015,
0015,
0014,
0015,
0010,
000C,
0003,
0003,
0004,
0004,
0006,
0006,
0008,
0007,
0005,
0003,
0001,
0003,
0002,
0002,
0001,
0002,
0001,
0001,
0001,
0000,
0001,
00FF,
0004,
0002,
0004,
0003,
0003,
0004,
0001,
00FF,
00FF,
00FF,
00FC,
0006,
0005,
0005,
0007,
0009,
000A,
0004,
0003,
00FE,
0000,
00FC,
0003,
0003,
0004,
0003,
0005,
0006,
0003,
0000,
00FC,
00FD,
00F8,
0002,
0001,
0003,
0001,
0000,
0003,
0001,
00FF,
00FC,
00FA,
00FA,
0005,
0003,
0001,
00FE,
00FB,
00FC,
00FD,
00FF,
00FC,
00FC,
00FB,
0003,
0000,
00FF,
00FB,
00F8,
00F4,
00F5,
00F7,
00F9,
00FC,
00FC,
0001,
00FF,
00FD,
00FC,
00FA,
00F6,
00F5,
00F6,
00F7,
00F9,
00FC,
00F8,
00F8,
00F4,
00F1,
00F0,
00F0,
00EF,
00F2,
00F5,
00F9,
00FB,
00FF,
0002,
0004,
0008,
000A,
000D,
000D,
000C,
000A,
0007,
0002,
00F9,
00F9,
00F8,
00FD,
0000,
0001,
00FE,
00FC,
00F9,
00F8,
00F6,
00FD,
00F8,
00F0,
00EA,
00E4,
00E0,
00DF,
00E8,
00F0,
00F6,
00FB,
0004,
00FE,
00F7,
00EA,
00E2,
00E1,
00E2,
00ED,
00F9,
00FF,
0005,
0007,
0007,
000E,
000F,
0014,
0016,
0011,
0009,
0005,
0003,
0005,
000A,
0013,
0021,
002F,
003B,
003F,
0036,
0026,
0017,
000C,
0008,
0006,
0008,
000F,
0015,
001A,
001D,
001C,
001C,
0015,
000A,
0006,
00FF,
00F8,
00F0,
00E6,
00E5,
00E5,
00EC,
00F7,
00FE,
00FF,
0004,
00FB,
00F2,
00E9,
00DF,
00D8,
00D8,
00DB,
00E2,
00EE,
00F8,
00FF,
00FA,
00FC,
00FD,
00FF,
00FC,
00F7,
00F4,
00F2,
00F3,
00F6,
00F7,
0001,
0006,
0009,
000D,
0012,
0012,
0010,
000D,
0009,
0006,
0003,
0002,
0005,
0006,
0002,
00FA,
00F3,
00EE,
00F1,
00F7,
00FC,
0002,
00FC,
00F9,
00FD,
000B,
0021,
0033,
0037,
0029,
0017,
0007,
0001,
0004,
00FE,
00F3,
00E0,
00CE,
00C5,
00CC,
00E1,
00F1,
00FC,
0002,
0006,
000B,
0012,
0011,
0009,
00FD,
00EF,
00EE,
00F1,
00F7,
00FD,
00FC,
00FC,
0009,
001D,
0032,
0044,
0042,
0035,
001D,
000D,
0004,
0004,
00FC,
00EF,
00E1,
00D9,
00D7,
00DB,
00E9,
00F7,
0000,
0004,
00FF,
0005,
000A,
0007,
0006,
0005,
0004,
0003,
0001,
00FF,
00FF,
00FC,
00FB,
00FE,
0001,
0003,
0001,
00FC,
0000,
00FD,
00FC,
00FE,
0000,
00FF,
00FC,
00F9,
00FC,
00FE,
00FF,
00FE,
0000,
0002,
0001,
00FF,
0001,
0002,
0000,
00FE,
00FE,
00FF,
00FF,
00FD,
00FE,
00FF,
0000,
0000,
0002,
0001,
0002,
0002,
0000,
0000,
0000,
00FF,
0000,
0000,
00FD,
0006,
00F6,
0008,
0004,
00F7,
0005,
00FF,
00FE,
0001,
0001,
00FB,
000C,
00EE,
0009,
000D,
00EE,
000F,
00FB,
0001,
0001,
0004,
00F8,
0010,
00E4,
000B,
0015,
00DE,
0015,
00F8,
0001,
0002,
0005,
00F4,
0015,
00E1,
000E,
001F,
00D3,
001C,
00F3,
0004,
0000,
0005,
00F0,
001C,
00DD,
0010,
0025,
00C9,
0025,
00F1,
0006,
00FF,
0006,
00EE,
001E,
00DC,
000B,
0025,
00C6,
0027,
00F1,
0006,
00FE,
0006,
00EF,
0020,
00DF,
0008,
0022,
00CD,
0021,
00F4,
0004,
00FE,
0004,
00EF,
001B,
00E4,
0004,
001C,
00DA,
0018,
00F9,
0003,
0000,
0004,
00F4,
0015,
00E8,
0004,
0016,
00E4,
000E,
00FB,
0001,
0000,
0003,
00F7,
0010,
00EE,
0006,
000D,
00EF,
0008,
00FD,
0001,
00FF,
0002,
00F9,
000A,
00F4,
0006,
0005,
00F8,
0004,
00FF,
0000,
0001,
0002,
0004,
0007,
0009,
0008,
000A,
000B,
0009,
0002,
00FD,
00FD,
0004,
0006,
0007,
000A,
000D,
0013,
0014,
0011,
000E,
0006,
0005,
0003,
0007,
0008,
000B,
000F,
0017,
0014,
0012,
0011,
0009,
0008,
00FE,
0002,
0007,
000A,
0011,
0017,
0011,
000D,
000E,
000B,
000B,
00FC,
0001,
0003,
0006,
000F,
000F,
0009,
0004,
0009,
0007,
0007,
00F8,
00FB,
00FB,
00FD,
00FF,
00FD,
00FC,
00FE,
0003,
0003,
0005,
00F7,
00F7,
00F4,
00F3,
00F4,
00F2,
00F3,
00FA,
0001,
00FF,
0003,
00F6,
00F4,
00F0,
00EE,
00ED,
00ED,
00F0,
00F5,
00FB,
00FB,
0000,
00F9,
00F6,
00F0,
00EB,
00EB,
00E9,
00EE,
00F1,
00F4,
00F8,
00FF,
0001,
00FE,
00F8,
00F0,
00EF,
00EF,
00F3,
00F4,
00F7,
00FC,
00FF,
0006,
0004,
0001,
00F9,
00F7,
00F8,
00F9,
00F9,
00F9,
00FD,
00FC,
00FD,
00FE,
000C,
0007,
00EB,
00F0,
0003,
000C,
0008,
00FE,
00FD,
00FB,
000A,
000F,
00EA,
00DD,
0004,
001A,
0014,
00FB,
00F5,
00FD,
0006,
0010,
00FA,
00CE,
00F2,
002B,
0023,
0001,
00E9,
00F6,
0001,
000A,
0002,
00DF,
00DD,
0027,
003D,
0009,
00E1,
00E4,
0004,
0009,
0004,
00F2,
00E3,
000E,
0042,
001D,
00DB,
00D1,
00F9,
0016,
0007,
00FC,
00F1,
00FF,
0027,
0028,
00ED,
00C2,
00E4,
0019,
0015,
00FB,
00FF,
00FD,
000E,
001A,
0000,
00D5,
00D6,
000F,
0023,
0000,
00F4,
0003,
00FF,
000A,
0008,
00EE,
00DF,
0001,
001F,
0009,
00F2,
00FE,
0001,
00FC,
0006,
00FE,
00F0,
00FB,
000E,
000A,
00FB,
00FA,
0002,
00FE,
00FF,
0004,
00FD,
00F8,
0005,
0002,
0002,
00FD,
0000,
0001,
00FF,
0003,
0003,
00FB,
00FD,
0000,
00FE,
0007,
00FF,
0000,
0000,
0002,
0000,
00FD,
00F5,
00F9,
000C,
001B,
000B,
00F7,
00F6,
00FC,
0002,
0005,
0003,
00F6,
00E4,
00F2,
0019,
0023,
000A,
00F7,
00F8,
0001,
0004,
0003,
00FE,
00E8,
00D9,
00FB,
0021,
001E,
0005,
00F6,
0002,
0007,
0009,
000C,
00FC,
00D3,
00D4,
0006,
001F,
0014,
0001,
00FE,
0006,
000E,
0017,
0016,
00EA,
00C6,
00E3,
000D,
0015,
000A,
00F9,
00FE,
000B,
0015,
0022,
000D,
00DA,
00D2,
00FA,
000D,
0006,
00F9,
00F3,
0001,
000E,
001E,
001E,
00FA,
00DC,
00EF,
0005,
0005,
00FE,
00F2,
00F2,
0001,
0011,
0019,
000F,
00F3,
00EC,
00FE,
0004,
0005,
00FC,
00F0,
00F6,
0003,
000F,
0012,
0003,
00F4,
00FB,
0003,
0003,
0004,
00FA,
00F3,
00FC,
0006,
000B,
0003,
00FC,
00FC,
0000,
0001,
0004,
0001,
00F8,
00F9,
0001,
0004,
0003,
0000,
00FB,
0000,
0004,
0003,
0002,
00FE,
00FB,
00F9,
00FA,
00FC,
0001,
0001,
0001,
0004,
0005,
0004,
00FE,
00FB,
00F8,
00FB,
0000,
0003,
0003,
0002,
0006,
0006,
0003,
00FD,
00F9,
00F2,
00F7,
0000,
0004,
0006,
0003,
0008,
0006,
0005,
00FD,
00F6,
00F0,
00F6,
00FE,
0006,
0007,
0005,
0007,
0006,
0006,
00FF,
00F3,
00EC,
00F3,
00FC,
0006,
0009,
0007,
000A,
0008,
0006,
00FE,
00F1,
00EC,
00F5,
0000,
0007,
0009,
0006,
000C,
000B,
0007,
00FB,
00F1,
00EE,
00F7,
0005,
000A,
0009,
0006,
000D,
000A,
0005,
00F9,
00F0,
00F1,
00FB,
0007,
000B,
0008,
0006,
000C,
000A,
0002,
00F6,
00F0,
00F3,
00FE,
0005,
0007,
0007,
0004,
0008,
0005,
0000,
00F9,
00F7,
00F9,
0000,
0004,
0004,
0002,
0002,
0008,
0001,
00FE,
00F8,
00F7,
00F9,
0000,
0002,
0003,
0003,
0002,
0001,
00FE,
00FA,
00F8,
00FE,
0009,
000C,
0006,
00FB,
00F7,
0004,
0003,
0003,
00FA,
00F5,
00FD,
000A,
0010,
0005,
00F5,
00F7,
0007,
0005,
0005,
00F4,
00EF,
00FC,
0012,
0015,
0002,
00EE,
00F5,
0009,
0007,
0007,
00F3,
00EC,
00FE,
0016,
0018,
00FE,
00E9,
00F5,
000A,
0009,
0006,
00EF,
00EA,
0000,
001B,
001A,
00FA,
00E6,
00F6,
000D,
000A,
0004,
00EB,
00EC,
0005,
001C,
0018,
00F8,
00E4,
00FA,
000D,
000A,
0000,
00EA,
00EF,
0009,
001E,
0014,
00F7,
00E6,
00FC,
000A,
000B,
00FF,
00EA,
00F1,
0009,
001C,
000E,
00F5,
00EC,
00FC,
0008,
0009,
00FD,
00ED,
00F5,
0009,
0017,
000A,
00F5,
00F1,
00FE,
0007,
0006,
00FD,
00F2,
00FA,
0006,
000F,
0007,
00FB,
00F8,
00FD,
0002,
0003,
00FB,
00F5,
00FD,
0006,
000E,
0007,
00FF,
00F9,
00FD,
00FF,
00F1,
00F1,
00EB,
00E9,
00E8,
00E9,
00EA,
00EB,
00ED,
00F2,
00F1,
00F9,
00FB,
00F6,
00F6,
00F5,
00F8,
00F8,
00F6,
00F7,
00FB,
00FA,
00FC,
00FE,
00F9,
00FB,
00FB,
00FB,
00FE,
00FB,
00F8,
00FC,
00FC,
00FE,
0000,
00FB,
00FA,
00FB,
00FB,
00FB,
00FB,
00F9,
00FC,
00FC,
0001,
0001,
00FC,
00F9,
00FE,
00FD,
00FD,
00FE,
00FA,
00FC,
00FF,
0003,
0002,
0001,
00FE,
0000,
0002,
00FC,
00FF,
0001,
00FD,
0003,
0008,
0001,
0001,
0003,
00FF,
0007,
0004,
00FF,
0007,
0001,
0003,
0009,
0005,
0004,
0009,
0007,
0005,
000A,
0007,
0003,
0005,
0005,
0007,
0007,
0006,
0006,
000A,
0004,
0006,
000A,
0003,
0004,
0006,
0009,
0004,
0008,
0009,
0008,
0009,
0007,
0009,
0009,
0004,
0008,
000F,
000C,
0011,
0013,
0014,
0016,
0012,
0013,
0012,
000A,
0012,
000C,
000D,
000F,
0011,
0014,
0012,
000C,
000B,
0009,
0006,
0005,
000E,
000F,
0010,
0012,
0013,
000F,
000B,
000A,
0006,
0005,
0004,
000E,
000F,
0010,
0012,
0012,
000E,
000B,
0008,
0005,
0004,
0004,
000D,
000F,
000F,
0012,
0011,
000A,
0007,
0002,
0002,
0002,
0001,
000D,
000C,
000D,
000F,
000C,
0003,
00FD,
00FA,
00FA,
00FB,
00FF,
000B,
000A,
0008,
000A,
0004,
00FB,
00F6,
00F3,
00F3,
00F6,
00FC,
0008,
0006,
0006,
0004,
00FB,
00F1,
00ED,
00ED,
00EE,
00F1,
00F8,
0005,
0002,
0001,
00FD,
00F3,
00EA,
00E7,
00E8,
00E9,
00EC,
00F5,
0001,
00FE,
00FC,
00F8,
00EF,
00E7,
00E5,
00E5,
00E8,
00EB,
00F5,
0000,
00FC,
00FA,
00F5,
00EF,
00E9,
00E9,
00E8,
00EB,
00F0,
00F9,
00FE,
00FC,
00F9,
00F4,
00EE,
00EE,
00EF,
00F0,
00F1,
00F7,
00FD,
0002,
0001,
00FF,
0003,
0003,
00F9,
0001,
000B,
00F4,
0002,
0004,
00FF,
0001,
0003,
00F8,
000F,
0001,
00ED,
000B,
0006,
00FC,
0000,
00FF,
00FD,
0008,
00F8,
00FD,
0015,
00FA,
00F2,
000D,
00FE,
0001,
0002,
00FD,
0001,
0009,
00EF,
000A,
0007,
00FB,
0005,
00F2,
000A,
0006,
00F8,
0001,
0010,
00DE,
0012,
001D,
00D7,
0017,
0007,
00F3,
0002,
0008,
00F2,
000C,
0004,
00DC,
002F,
00FC,
00D5,
002A,
00F3,
00F1,
0017,
00F4,
00ED,
003E,
00CA,
00EF,
004F,
00CA,
00F7,
0018,
0000,
00F3,
001B,
00E9,
0009,
0022,
00CB,
000C,
0027,
00E2,
0004,
0010,
00E9,
0009,
000D,
00DC,
0029,
00F8,
00DC,
0028,
00FC,
00F5,
0001,
000A,
00F2,
000E,
00FC,
00F5,
000E,
0001,
00FC,
00FF,
0004,
00F8,
0008,
00FF,
00FE,
0007,
00F4,
000A,
00FF,
00F7,
000A,
00FE,
00FB,
0004,
00FE,
0006,
0000,
00F7,
0004,
00F6,
0001,
0005,
0001,
00FE,
0004,
00FB,
000A,
00F7,
00FB,
0002,
00FA,
0008,
0002,
00FE,
0001,
00FE,
0000,
000F,
00EA,
0005,
0006,
00F9,
0006,
0005,
00FA,
0001,
00FE,
0009,
0001,
00E7,
0012,
0002,
00F6,
000C,
0003,
00F9,
0002,
00FD,
0008,
00F6,
00F3,
0010,
00FE,
00F8,
0012,
00FB,
00F9,
0003,
00FE,
0007,
00F1,
00F7,
0018,
00F5,
00FA,
0019,
00EB,
0002,
0001,
00FF,
0008,
00E6,
000A,
001B,
00DC,
0016,
000C,
00E2,
000D,
00FE,
0004,
00FC,
00E7,
0029,
00F3,
00E3,
0033,
00E2,
00F6,
000D,
00FE,
0007,
00ED,
0006,
001B,
00D7,
0018,
0016,
00D3,
0018,
00FD,
0001,
00FD,
00F3,
0015,
00F8,
00F2,
0023,
00EA,
00F6,
0011,
00F5,
0000,
00F9,
0004,
000A,
00F8,
0007,
0009,
00EB,
000A,
00FB,
0004,
00FF,
0000,
0001,
00FF,
00F7,
0010,
00FE,
00F4,
0007,
00FD,
0002,
0003,
00FF,
00FC,
00F9,
0014,
000C,
00E1,
0006,
000A,
00FA,
0003,
00FF,
00FB,
00FD,
000C,
0011,
00E3,
00EE,
0017,
0002,
00FD,
0000,
00FC,
0000,
000A,
000B,
00F5,
00E2,
0013,
001B,
00F6,
00F7,
0003,
00FE,
000A,
0001,
00FE,
00F1,
00F8,
0023,
0009,
00E0,
00FE,
000B,
0003,
0000,
00F6,
0003,
00F4,
0005,
0022,
00E8,
00E1,
001B,
0003,
0002,
00FC,
0001,
0006,
00F5,
0012,
000D,
00D0,
0011,
001F,
00EF,
00FF,
00FE,
0007,
00FE,
00F9,
0015,
00E9,
00ED,
0029,
00F9,
00F5,
00FE,
0002,
0005,
00F7,
0006,
0004,
00ED,
0012,
0010,
00EC,
0003,
00FF,
0003,
00FD,
00FE,
0006,
00F9,
0005,
000D,
00F6,
00FC,
0004,
0000,
0001,
00FC,
0006,
00FE,
0001,
0005,
00FA,
0000,
0004,
00FE,
0000,
00FE,
0002,
0001,
00FA,
0004,
0003,
00FA,
0005,
00FD,
0003,
0000,
00FF,
0000,
0008,
00F2,
0009,
0003,
00F3,
000B,
00F8,
0003,
0000,
0001,
00FA,
0012,
00E7,
000F,
0007,
00ED,
0013,
00F3,
0004,
00FE,
0004,
00F1,
001C,
00D7,
0019,
0009,
00E9,
0019,
00EF,
0007,
00FD,
0009,
00EE,
0026,
00CF,
001E,
000A,
00DE,
001C,
00ED,
0008,
00FD,
000A,
00E7,
002A,
00CC,
0023,
000D,
00DC,
001C,
00F0,
0006,
00FD,
0009,
00EA,
0028,
00CE,
001E,
000D,
00DF,
001D,
00F2,
0005,
00FE,
0006,
00F0,
0020,
00DC,
0012,
000B,
00E3,
0019,
00F2,
0005,
00FF,
0002,
00F6,
0015,
00E9,
000A,
000C,
00EA,
0011,
00F6,
0004,
0000,
00FF,
00FD,
0009,
00F2,
0005,
000C,
00F0,
000A,
00FB,
0000,
0002,
00FC,
0002,
0005,
00F7,
0002,
000A,
00F5,
0003,
00FE,
0001,
00FF,
00FD,
00FA,
00F5,
00F4,
00FB,
0000,
0002,
0002,
0003,
0003,
0003,
0007,
000F,
0018,
001C,
0017,
0009,
0000,
00FE,
00FC,
00FF,
00FC,
00F8,
00F1,
00E8,
00DE,
00DB,
00E5,
00F4,
00FD,
00FE,
00FF,
0002,
0003,
0008,
000E,
0016,
0020,
0024,
001C,
0011,
0007,
0009,
0004,
0006,
0006,
0009,
0004,
00FF,
00F7,
00F1,
00F1,
00F6,
00FA,
00FD,
00F7,
00F3,
00EC,
00E2,
00E2,
00E7,
00EE,
00F9,
00FF,
0000,
0002,
0005,
000A,
0014,
001F,
002B,
0029,
0020,
0016,
000B,
0006,
0000,
0001,
00FD,
00F7,
00EC,
00E7,
00E4,
00E6,
00F1,
00FC,
00FF,
0000,
0002,
0006,
000A,
000D,
000C,
000C,
000B,
0006,
0002,
00FD,
0001,
00FE,
00FA,
00F9,
00F5,
00FA,
00FD,
00FD,
0000,
00FF,
0004,
00FF,
00FF,
0001,
0002,
0003,
0003,
0002,
0001,
0000,
0000,
00FF,
0000,
00FC,
00FA,
00FA,
0001,
0008,
000C,
000C,
0008,
0005,
0003,
0005,
0008,
0007,
00FB,
00EB,
00DF,
00DB,
00E1,
00EE,
00F6,
00F9,
0000,
00FE,
000C,
0022,
0034,
0038,
002B,
0018,
000B,
0005,
0005,
00FF,
00F6,
00E5,
00D5,
00D3,
00E7,
0000,
000B,
0010,
0008,
0006,
0004,
000B,
0013,
000B,
00F4,
00DF,
00D8,
00DD,
00E8,
00F4,
00F7,
0002,
0001,
000D,
002A,
003A,
0039,
0025,
0013,
000C,
0004,
0004,
00FC,
00F6,
00E5,
00D9,
00DA,
00EC,
00FE,
0004,
0004,
0001,
0001,
0002,
0006,
000B,
000C,
0001,
00F8,
00F8,
00FB,
0001,
0000,
0001,
0002,
00FF,
00FD,
0003,
0007,
0007,
00FF,
00FA,
00FF,
0001,
0002,
00FF,
0000,
0003,
00FC,
00FC,
0001,
0007,
0005,
0000,
00FF,
00FD,
0000,
0000,
0000,
0002,
00FF,
00FD,
00FF,
00FE,
0001,
00FF,
0000,
0006,
0001,
00F7,
00F2,
00F6,
00FC,
00FF,
0000,
0002,
0001,
0001,
0002,
00FB,
00F2,
00F4,
00FF,
0004,
0002,
0001,
0000,
0000,
0001,
00FF,
00F5,
00F1,
00FD,
0003,
0008,
0008,
0002,
0002,
0003,
0001,
00F8,
00EF,
00F8,
0003,
0006,
000A,
0008,
0003,
0002,
0001,
00FE,
00F1,
00F2,
00FD,
000B,
000E,
000D,
0006,
00FF,
00FC,
00FA,
00FC,
00F1,
00F8,
0004,
0013,
0018,
000E,
0001,
00F8,
00F7,
00FA,
00FF,
00F6,
00FF,
0009,
0012,
0012,
0005,
00F6,
00F1,
00F6,
00FF,
0005,
00FC,
0007,
000E,
000E,
0007,
00F8,
00ED,
00F1,
00FE,
0005,
0003,
00FE,
0008,
0009,
0006,
00FB,
00F0,
00F0,
00F9,
0006,
0004,
0000,
0001,
0004,
0006,
0001,
00F6,
00F4,
00FB,
0003,
0006,
0001,
0001,
0002,
0003,
0002,
00FC,
00F8,
00FC,
0003,
0007,
0004,
0001,
0002,
0001,
0006,
00F7,
0001,
0016,
00F6,
00F5,
0009,
0000,
0002,
0000,
00FD,
000B,
0004,
00DD,
000B,
001F,
00F0,
00F6,
0004,
00FE,
0004,
00FE,
00FF,
001F,
00ED,
00DD,
001E,
0013,
00F6,
00FF,
00FE,
0001,
00FF,
00EF,
001E,
0018,
00D6,
00F2,
0014,
0006,
00FF,
0001,
00FE,
0006,
00E1,
0006,
0033,
00F7,
00E3,
00FE,
0003,
0004,
0001,
00FF,
0011,
00EA,
00D8,
002C,
0019,
00F4,
00FF,
00FA,
0000,
0003,
0001,
000F,
0014,
00C5,
00FC,
001F,
00FD,
0003,
00FB,
00FD,
0002,
0001,
00F5,
0030,
00F0,
00D6,
0013,
0000,
0004,
0009,
00FA,
0000,
0000,
00EA,
0010,
0025,
00E3,
00FA,
0004,
00FA,
000C,
0001,
00FD,
00FE,
00FB,
00EB,
001A,
0007,
00F4,
0005,
00F9,
00FD,
0006,
0001,
0000,
0008,
00F5,
00F8,
0008,
0001,
0001,
0002,
00FB,
00FF,
0001,
0002,
0000,
0001,
0000,
00FC,
00FA,
00FE,
00FC,
00FC,
00FD,
0000,
0001,
00FD,
00FE,
00FF,
0000,
00FC,
00FC,
00FF,
0000,
00FF,
0001,
0003,
00FC,
00FC,
00FB,
00FE,
00FC,
00FE,
00FE,
0001,
0001,
0000,
0000,
00FC,
00FD,
00FB,
00FB,
00FF,
0000,
00FE,
0000,
00FF,
00FF,
00FE,
00FA,
00FD,
00FA,
00F9,
00FF,
0003,
0002,
00FF,
00FE,
0001,
00FE,
00F8,
00FD,
00FC,
00F9,
00FD,
0000,
0002,
0002,
0000,
00FF,
00FD,
00F8,
00FA,
00FD,
00FC,
00FD,
00FF,
0002,
0004,
0001,
00FE,
00FC,
00FB,
00F8,
00F9,
0001,
00FE,
0001,
0002,
0000,
0001,
0000,
00FF,
00FD,
00FA,
00F6,
00FF,
0002,
0003,
0003,
00FF,
00FF,
00FF,
00FE,
00FB,
00FE,
00F9,
00FC,
0001,
0001,
0001,
0000,
00FC,
00FA,
00FC,
00F9,
00FD,
00FD,
00FD,
00FF,
0000,
0000,
00FE,
00FD,
00FC,
00FB,
00FD,
00F9,
00F8,
00F8,
00FC,
0002,
0001,
0003,
0002,
0001,
00FF,
0004,
0000,
00FB,
00F3,
00EF,
00EE,
00EF,
00F3,
00F8,
00FC,
00FD,
0009,
000D,
000F,
000B,
0005,
00FF,
00FA,
00F8,
00FA,
00FC,
00FE,
0003,
0008,
0012,
0019,
001B,
0019,
0015,
000D,
0006,
0001,
0002,
00F6,
00F5,
00FA,
0003,
000A,
000F,
0015,
0012,
000D,
0008,
0004,
00FB,
00F5,
00EF,
00EE,
00EF,
00F2,
00FC,
0005,
0009,
000C,
0008,
0000,
00FE,
00F5,
00EE,
00EA,
00E5,
00E7,
00EE,
00F5,
00FC,
0000,
0004,
0007,
0006,
0004,
0003,
00FD,
00F6,
00F2,
00F0,
00F4,
00F6,
0007,
000A,
000B,
000D,
0012,
0013,
000F,
0009,
0005,
0003,
00FF,
0000,
0001,
0002,
0000,
0001,
0004,
0008,
0009,
0008,
0006,
0005,
00FB,
00FC,
00FA,
00F8,
00F8,
00F9,
00FA,
00FC,
00FE,
00FE,
00FE,
0006,
0004,
0003,
0002,
0001,
0004,
0006,
0005,
0006,
0007,
0008,
0004,
0001,
00FF,
00FE,
00FD,
00FE,
0001,
0002,
0003,
0005,
0007,
0005,
00FF,
00FB,
00F9,
00F9,
00F9,
00FA,
00FD,
0000,
0003,
0007,
0002,
00FC,
00F5,
00F3,
00F0,
00F1,
00F5,
00F9,
00FD,
0003,
0006,
0000,
00F7,
00EF,
00E9,
00E5,
00E7,
00ED,
00F6,
00FA,
0002,
0005,
00FF,
00F7,
00EA,
00DE,
00DA,
00DD,
00E9,
00F2,
00FA,
0002,
0006,
00FF,
00F4,
00E5,
00DA,
00D5,
00D9,
00E5,
00F2,
00FA,
0003,
0009,
00FE,
00F2,
00E5,
00DC,
00D7,
00DA,
00E6,
00F3,
00FB,
0003,
0009,
00FE,
00F5,
00ED,
00E4,
00E1,
00E5,
00EC,
00F4,
00FC,
0001,
0007,
0003,
00FB,
00F5,
00EF,
00F0,
00F3,
00F6,
00FC,
0000,
0004,
0009,
0008,
0001,
00FF,
00FC,
00FC,
00FD,
00FF,
0002,
0005,
0008,
000C,
00FF,
0003,
00FB,
0003,
0006,
00FB,
00FC,
000B,
00F9,
0005,
0000,
00FF,
0005,
00FA,
00FF,
000B,
00F1,
0001,
0008,
00F7,
0006,
00FF,
00FE,
0007,
00F7,
00FF,
0017,
00E3,
000D,
0005,
00F6,
0007,
00FE,
00FD,
0009,
00F7,
00FC,
0021,
00D6,
001A,
00FD,
00F9,
0006,
00FD,
00FD,
000A,
00F7,
00F8,
0029,
00C9,
0022,
00F9,
00FA,
0005,
0000,
00FD,
000C,
00F5,
00F6,
002B,
00C3,
0027,
00F8,
00FB,
0007,
0000,
00FD,
000B,
00F4,
00F8,
0025,
00C9,
0026,
00F8,
00F7,
0008,
00FE,
00FB,
0009,
00F3,
00FE,
001C,
00D6,
001E,
00FB,
00F8,
0006,
00FD,
00FE,
0007,
00F5,
0003,
0012,
00E6,
0011,
0000,
00F6,
0007,
00FE,
00FE,
0006,
00F8,
0004,
0006,
00F2,
0006,
0004,
00F7,
0007,
00FD,
00FF,
0002,
00F9,
0007,
0001,
00FA,
0002,
0006,
00F7,
0008,
00FE,
0001,
00FE,
00FF,
0000,
0001,
0001,
0001,
0001,
0000,
0000,
0000,
0000,
0000,
0001,
0002,
0002,
0000,
00FE,
00FD,
00FC,
00FE,
00FF,
0002,
0003,
0002,
0001,
00FD,
00F9,
00F9,
00FA,
00FD,
00FF,
00FF,
00FD,
00FC,
00FA,
00F6,
00F4,
00F7,
00FE,
0000,
0000,
0001,
0002,
00FE,
00FB,
00F7,
00FB,
0002,
0006,
000A,
0009,
0006,
0006,
0004,
00FE,
00FF,
0003,
000B,
000F,
000B,
0008,
0003,
00FF,
00FF,
00FD,
0002,
0009,
000C,
000B,
0005,
00FA,
00F9,
00F9,
00FA,
00FC,
00FC,
0005,
0004,
00FE,
00F6,
00F2,
00F0,
00F6,
00FC,
00FD,
00FF,
0002,
00FF,
00F9,
00F5,
00F6,
00FA,
00FF,
0004,
0004,
0005,
0007,
0007,
00FA,
00FA,
00FF,
0005,
0007,
0007,
0007,
0005,
0005,
0005,
0003,
0001,
0003,
0004,
0002,
00FF,
00FE,
00FC,
00FC,
00FA,
00FA,
00FC,
0000,
0002,
0003,
0004,
00FF,
00FB,
00FA,
00FD,
00FE,
0000,
00FF,
0001,
0004,
0003,
00F5,
00F2,
00F7,
0001,
0006,
0003,
00FE,
00FE,
0004,
00FE,
00F1,
00F0,
0002,
000D,
000E,
0006,
00FE,
00FB,
00FF,
00F9,
00F2,
00FA,
000F,
0017,
000D,
0000,
00F6,
00F4,
00FC,
0005,
00F8,
0006,
0017,
0019,
000A,
00F4,
00ED,
00EF,
00FD,
0009,
0008,
0006,
0011,
0007,
00F4,
00E8,
00E4,
00F1,
0003,
0010,
000D,
0002,
0006,
00FC,
00EB,
00E6,
00EF,
00FF,
0014,
001E,
0013,
0003,
00F9,
00F8,
00F4,
00F4,
0000,
0010,
0021,
0023,
000B,
00F7,
00F2,
00F5,
00F9,
0001,
000A,
0016,
001E,
000F,
00F3,
00E7,
00EC,
00FA,
00FF,
0005,
000B,
000E,
000A,
00FB,
00E5,
00E8,
00F7,
0000,
0006,
0005,
0003,
0000,
00F9,
00F2,
00EF,
00FB,
0008,
0008,
0007,
0004,
0002,
00F9,
00F7,
00F5,
00F5,
00F3,
00EF,
00EF,
00EE,
00F3,
00F7,
00F6,
0003,
0002,
0002,
0005,
0002,
00FE,
00FD,
00FA,
00FA,
00FC,
00FA,
0006,
0005,
0005,
0008,
000A,
0008,
0005,
0003,
0001,
00FF,
00FD,
000B,
000A,
000F,
0012,
0014,
0011,
000E,
000B,
0008,
0004,
0003,
0008,
0008,
000E,
0010,
0011,
000E,
000E,
000C,
000A,
0008,
0007,
0002,
0001,
0003,
0002,
0003,
0003,
0004,
0004,
0003,
0005,
0004,
00FC,
00FC,
00FA,
00F9,
00F9,
00FA,
00FC,
00FE,
00FD,
0000,
00FF,
00FA,
00FB,
00F9,
00F7,
00F7,
00F7,
00F7,
00F9,
00F9,
00FA,
00FA,
00FD,
0000,
00FE,
00FC,
00FB,
00F7,
00F9,
00F8,
00F8,
00FB,
00FA,
00FF,
0002,
0000,
0000,
00FD,
00FB,
00FC,
00FC,
00FB,
00FC,
00FB,
00FF,
0002,
00FF,
0001,
00FF,
00FC,
00FC,
00FC,
00FC,
00FC,
00F8,
00FD,
0002,
0001,
0001,
0000,
0002,
0001,
0000,
00FE,
00FA,
00F7,
00FE,
0003,
0002,
0003,
0000,
0001,
0002,
0002,
0000,
00FE,
00F8,
0000,
0004,
0004,
0002,
00FF,
00FE,
00FE,
0001,
0003,
0002,
00FA,
0006,
0009,
0008,
0005,
0002,
0002,
0001,
0002,
0003,
0002,
00FC,
000A,
000D,
000B,
0008,
0006,
0006,
0007,
0004,
0004,
0003,
00FE,
000A,
000A,
0009,
0008,
0006,
0004,
0003,
0004,
0004,
0003,
0001,
0009,
000A,
000A,
0009,
0005,
0002,
0001,
0000,
0002,
0005,
0002,
0009,
000C,
000B,
0008,
0004,
0000,
00FE,
0002,
0004,
0006,
0001,
0009,
000C,
000A,
0007,
0004,
0003,
0002,
0003,
0003,
0003,
0000,
0007,
0007,
0009,
0006,
0003,
0004,
0002,
0003,
00FF,
00FF,
0000,
0002,
0004,
0005,
0003,
0003,
0002,
0000,
0000,
0000,
0002,
0004,
000C,
000C,
000D,
0008,
0004,
0002,
00FF,
00F7,
00F3,
00F2,
00F2,
0010,
0011,
0012,
000B,
0007,
0005,
0000,
00F8,
00F2,
00F1,
00F1,
0017,
0018,
0018,
0010,
0008,
0005,
00FE,
00F5,
00EC,
00EB,
00ED,
001C,
001B,
0018,
000E,
0004,
0000,
00FB,
00F1,
00E9,
00E6,
00E8,
001F,
001C,
0017,
000D,
0004,
00FE,
00F8,
00EF,
00E6,
00E2,
00E5,
0022,
001E,
0019,
000E,
0003,
00FC,
00F5,
00EC,
00E3,
00E2,
00E4,
0022,
0020,
001B,
0012,
0007,
00FF,
00F7,
00EC,
00E5,
00E5,
00E5,
0021,
0021,
001F,
0015,
000A,
0002,
00F9,
00EE,
00E7,
00E6,
00E7,
001C,
001C,
0018,
000D,
0004,
00FD,
00F7,
00F0,
00E8,
00E7,
00EC,
0013,
0013,
0010,
0009,
0002,
00FE,
00F8,
00F2,
00ED,
00ED,
00F2,
000C,
000C,
000B,
0005,
00FE,
00FB,
00F6,
00F1,
00F0,
00F0,
00F4,
00F6,
00F4,
00F4,
00F6,
00FE,
0006,
000F,
0012,
000D,
0006,
0003,
00F6,
00F2,
00F0,
00F4,
00FD,
0008,
000F,
0013,
000F,
0009,
0004,
00F0,
00ED,
00EC,
00EF,
00F7,
0003,
000B,
0010,
0011,
000C,
0009,
00F1,
00F1,
00EF,
00EF,
00F2,
00FA,
0001,
0007,
000C,
000A,
0007,
00F7,
00F9,
00F6,
00F6,
00F6,
00F7,
00F9,
00FF,
0004,
0005,
0005,
00FE,
0002,
00FF,
00FD,
00FC,
00F9,
00F9,
00FA,
00FC,
00FE,
0000,
000A,
000F,
000E,
000C,
0006,
0002,
00FD,
00F7,
00F8,
00FA,
00FB,
0012,
0018,
001B,
0019,
0011,
0007,
00FD,
00F5,
00F2,
00F5,
00F8,
000F,
0017,
001B,
0017,
0010,
0004,
00F8,
00F2,
00F1,
00F3,
00F7,
0009,
0010,
0014,
000B,
0005,
00FF,
00F7,
00F1,
00F0,
00F4,
00F9,
000A,
000A,
000C,
0008,
0003,
00FC,
00F8,
00F3,
00F2,
00F6,
00F9,
00FD,
00FA,
00F9,
00F9,
00F9,
00FA,
00FB,
00FD,
00FF,
00FE,
00FD,
0005,
0009,
0009,
0006,
0004,
0003,
0005,
0005,
0006,
0008,
0006,
0004,
000A,
0011,
0019,
0019,
0018,
0019,
0013,
000B,
0007,
0004,
00FC,
00FC,
00FA,
00FB,
00FB,
00F8,
00F8,
00F7,
00F4,
00F4,
00F9,
00F5,
00EC,
00DB,
00D0,
00CA,
00CA,
00CE,
00DA,
00E6,
00F0,
00F7,
00F9,
00F2,
00E9,
00E4,
00E0,
00E0,
00E6,
00EF,
00F8,
00FD,
0000,
0009,
000F,
0019,
0022,
0028,
0026,
0022,
0019,
0010,
0008,
0006,
0013,
001D,
002B,
0037,
0040,
003D,
0034,
0027,
0017,
000A,
0006,
000A,
0009,
0007,
0004,
0004,
0004,
0006,
0008,
0008,
0006,
0005,
00FB,
00F4,
00EE,
00E4,
00E0,
00E1,
00E8,
00EF,
00F6,
00FC,
00FF,
00F8,
00F7,
00F7,
00F7,
00F7,
00F8,
00F8,
00F8,
00F7,
00F9,
00FD,
0012,
0014,
001B,
001F,
001E,
001D,
001A,
0015,
000C,
0007,
0001,
000D,
0010,
000F,
0008,
00FF,
00F7,
00F4,
00F4,
00F6,
00F9,
00FA,
0000,
00F8,
00EC,
00E0,
00D9,
00D7,
00DA,
00E3,
00ED,
00F5,
00FB,
00EE,
00E2,
00D7,
00D1,
00D2,
00D8,
00DF,
00EA,
00F3,
00FB,
0003,
00EF,
00E9,
00E5,
00E7,
00EC,
00F3,
00F9,
00FF,
0006,
0008,
000C,
00F3,
00F6,
00F6,
00FA,
0000,
0005,
0007,
000A,
000D,
000B,
000C,
00F6,
00FD,
0000,
0007,
000B,
0010,
0012,
0014,
0011,
000D,
0008,
00FD,
0007,
000D,
0015,
001C,
0023,
0025,
0024,
001E,
0012,
0007,
000A,
0011,
0018,
001B,
0020,
0024,
0025,
0021,
0018,
000C,
00FE,
000B,
000C,
000E,
000F,
000D,
000A,
0009,
0001,
00F9,
00F6,
00F3,
00FE,
00F9,
00F3,
00F0,
00EC,
00E8,
00E3,
00E1,
00E3,
00E8,
00F0,
0004,
00FF,
00FB,
00F4,
00EF,
00F0,
00F9,
0009,
0015,
0017,
0010,
0009,
0007,
0004,
00FE,
00F2,
00E5,
00E5,
00F1,
0007,
0015,
0018,
0005,
0007,
0008,
0008,
00FB,
00E7,
00DA,
00D9,
00EF,
0007,
0016,
0003,
000A,
000F,
0011,
0007,
00F1,
00DD,
00D1,
00D8,
00F0,
000A,
00FE,
0008,
0012,
0019,
0014,
0001,
00ED,
00DC,
00D5,
00E2,
00FB,
00F8,
0005,
0012,
0020,
0020,
0015,
0001,
00ED,
00E3,
00DF,
00EE,
00F1,
00FE,
0010,
0025,
002D,
0026,
0016,
0006,
00F5,
00EA,
00ED,
00EB,
00F5,
0006,
001D,
002C,
002E,
0029,
001A,
0008,
00F9,
00F3,
00EB,
00E7,
00F0,
0001,
0012,
001B,
0021,
001E,
0013,
0003,
00F9,
00F3,
00E7,
00E5,
00ED,
00FA,
0006,
0010,
0013,
0010,
0008,
00FC,
00FD,
00F0,
00E7,
00E4,
00EB,
00F1,
00FB,
0003,
0007,
0008,
0000,
00FF,
00FB,
00F9,
00FB,
00FF,
0003,
0007,
0009,
000B,
000A,
0006,
00FB,
00F8,
00F7,
00FB,
00FC,
00FF,
0004,
0008,
000A,
000A,
0007,
00F5,
00F1,
00EF,
00F1,
00F6,
00FD,
0006,
000C,
000D,
000E,
000D,
00EE,
00E9,
00E5,
00E8,
00F4,
00FD,
0008,
0011,
0017,
0016,
0010,
00E7,
00E3,
00E1,
00E8,
00F5,
00FE,
000C,
0018,
001D,
001E,
0016,
00E5,
00E1,
00E0,
00E7,
00F4,
0000,
000E,
001D,
001E,
001E,
0015,
00E7,
00E4,
00E2,
00E7,
00F5,
0006,
0012,
001C,
001F,
001D,
0013,
00ED,
00EA,
00E8,
00EC,
00F8,
0007,
0013,
001B,
001D,
0019,
000D,
00F0,
00ED,
00ED,
00F2,
00FA,
0005,
0012,
0019,
0017,
000F,
0003,
00F9,
00F2,
00F0,
00F4,
00FC,
0002,
000C,
0010,
000C,
0004,
00FF,
00FA,
00F6,
00F2,
00F2,
00F8,
00FE,
0006,
0009,
0005,
0000,
00FC,
00FB,
00FB,
0005,
000E,
000A,
0001,
00F9,
00F2,
00F7,
0003,
0004,
00F9,
00F4,
0003,
0015,
0011,
0000,
00F1,
00ED,
00FC,
000C,
0007,
00F5,
00EB,
0007,
0025,
001B,
00FE,
00E3,
00DF,
00FC,
0013,
0009,
00F1,
00E7,
000C,
002F,
0023,
00FB,
00D8,
00D8,
00FF,
0019,
000B,
00ED,
00E6,
0010,
0035,
0028,
00FA,
00D2,
00D3,
0000,
001C,
000A,
00ED,
00E6,
000C,
0032,
002A,
00FA,
00D2,
00D4,
0000,
001E,
000B,
00EE,
00E6,
0006,
002B,
0027,
00FD,
00D5,
00D5,
00FF,
001D,
0008,
00F0,
00EA,
0003,
0023,
0021,
0001,
00DE,
00DC,
0001,
0019,
0005,
00F4,
00F2,
0003,
001A,
0017,
0001,
00E7,
00E4,
0002,
0012,
0002,
00F9,
00F7,
0001,
0010,
000D,
00FF,
00F2,
00F0,
0000,
000A,
0002,
00FA,
00FD,
0004,
000C,
0007,
00FF,
00F7,
00F4,
00FB,
0004,
0003,
0000,
00FD,
00F8,
00F8,
00FF,
0006,
0006,
0003,
0000,
00FF,
00FB,
00FC,
00F4,
00F4,
0002,
0013,
000F,
0005,
00FD,
00FA,
00FA,
00FC,
00F6,
00F3,
0000,
001B,
0021,
000D,
00FB,
00F3,
00F5,
00FB,
0000,
00F3,
00FB,
0013,
0026,
0018,
00F8,
00EA,
00E8,
00F2,
00FD,
0003,
00F8,
000A,
001B,
001E,
0006,
00E9,
00DE,
00E8,
00F9,
0004,
000B,
0003,
0010,
0016,
000E,
00F2,
00DA,
00DD,
00EF,
0002,
000F,
000E,
0009,
000F,
000F,
00FC,
00DE,
00D9,
00EB,
0000,
0011,
0018,
000A,
0008,
0008,
0001,
00EA,
00DB,
00EA,
0001,
0012,
001B,
0011,
00FF,
0004,
0001,
00F4,
00E4,
00EA,
00FE,
000F,
0017,
0011,
0003,
00FA,
0001,
00FA,
00F2,
00EE,
00FD,
000C,
0013,
0010,
0004,
00FE,
00FC,
0000,
00FB,
00F9,
0000,
000A,
000F,
000B,
0002,
00FE,
00FF,
00FE,
00FD,
00FE,
00FC,
00FC,
00FE,
0000,
0002,
0003,
0004,
0003,
0004,
0000,
00FF,
0000,
00FF,
00FF,
0000,
0000,
0002,
0002,
0002,
0003,
00FE,
00FD,
00FF,
00FE,
00FD,
00FE,
00FE,
0000,
0002,
0004,
0003,
00FF,
00FD,
00FF,
00FD,
00FD,
00FC,
00FB,
00FD,
00FF,
0003,
0002,
0002,
0000,
0001,
00FE,
00FA,
00F9,
00F8,
00F9,
00FD,
0002,
0003,
0002,
0002,
0004,
0003,
00FD,
00F9,
00F9,
00F9,
00FC,
00FF,
0000,
0003,
0002,
0003,
0004,
0000,
00FB,
00F9,
00F8,
00FD,
0000,
0000,
0002,
00FF,
0003,
0003,
0001,
00FD,
00F9,
00F9,
00FC,
00FF,
00FF,
0002,
0001,
0002,
0005,
0003,
00FF,
00FC,
00FC,
00FC,
00FE,
00FC,
0000,
0000,
0001,
0001,
0002,
0000,
0000,
00FE,
00FE,
00FF,
00FC,
0006,
0004,
0005,
0005,
0005,
0003,
0001,
00FF,
00FE,
00FF,
00F9,
00FE,
00FF,
00FE,
00FF,
0001,
0002,
0000,
0000,
00FF,
00FE,
00FD,
00FE,
00FE,
00FF,
0000,
0002,
0002,
0002,
0002,
0001,
0000,
00FF,
00FB,
00FC,
00FB,
00FB,
00FD,
00FD,
00FC,
00FD,
00FD,
00FE,
00FE,
00F8,
00FA,
00F9,
00F8,
00F8,
00F7,
00F7,
00F9,
00F9,
00FB,
00FC,
00FE,
00FC,
00FB,
00FA,
00F9,
00F7,
00F7,
00F9,
00FA,
00FD,
00FF,
0002,
0001,
00FF,
00FE,
00FE,
00FE,
00FE,
0000,
00FF,
0000,
0002,
0005,
0005,
0006,
0005,
0007,
0008,
000A,
000A,
0006,
0002,
0003,
0006,
0006,
0009,
0009,
000D,
000C,
000B,
000A,
0007,
0003,
0002,
0005,
0006,
0007,
0009,
0009,
0006,
0005,
0003,
0001,
0002,
0002,
0003,
0003,
0003,
0004,
0004,
0002,
0001,
0000,
0000,
0003,
0002,
00FE,
00FC,
00FA,
00F8,
00F8,
00F9,
00FA,
00FA,
00FC,
00FE,
00FE,
0000,
00FF,
00FE,
00FD,
00FE,
0000,
0002,
0001,
00FE,
00FD,
00FD,
0001,
0000,
00FE,
00FE,
00FF,
0001,
0002,
00FF,
0001,
00FF,
00FE,
0000,
00FF,
00FC,
00FB,
00FD,
00FE,
0000,
0000,
0000,
00FF,
0001,
0000,
0000,
00FD,
00FB,
00FC,
0000,
0002,
0002,
0002,
0001,
0001,
0000,
00FF,
00FB,
00FA,
00FD,
00FF,
0002,
0002,
0001,
0000,
0001,
0000,
00FE,
00FC,
00FC,
0000,
0000,
0004,
0004,
0002,
0001,
0002,
0000,
0000,
00FD,
00FD,
00FF,
0000,
0003,
0003,
0004,
0002,
0002,
00FF,
0001,
00FD,
00FC,
00FD,
0000,
0003,
0006,
0004,
0002,
0005,
00FF,
0000,
00FD,
00FC,
00FE,
0001,
0005,
0003,
0002,
0002,
0002,
00FE,
00FD,
00FC,
00FB,
00FD,
00FF,
0001,
0001,
0001,
0001,
0002,
00FF,
0000,
00FE,
0000,
0003,
0004,
0005,
0005,
0003,
0001,
0002,
00FE,
00FD,
0001,
0002,
0002,
0001,
0001,
00FF,
0000,
0002,
0001,
00FE,
00FF,
0000,
0001,
0000,
0001,
0000,
0000,
0002,
0004,
0003,
00FC,
00FF,
0000,
0003,
0001,
0000,
00FF,
00FF,
0000,
0002,
0001,
00FE,
0000,
0001,
0003,
0001,
0001,
00FF,
00FF,
0000,
0003,
0001,
00FC,
00FE,
0001,
0004,
0001,
0000,
00FD,
00FD,
0001,
0002,
00FF,
00FF,
0001,
0004,
0007,
0004,
0000,
00FD,
00FD,
00FF,
0001,
0000,
00FD,
0000,
0002,
0004,
0002,
0000,
00FE,
00FF,
00FF,
0001,
0001,
00FC,
0001,
0006,
0005,
0002,
0000,
00FE,
00FC,
0000,
0000,
0000,
00FD,
0002,
0006,
0007,
0004,
0001,
00FD,
00FD,
00FE,
0000,
00FF,
00FE,
0000,
0003,
0003,
0001,
00FE,
00FC,
00FB,
00FF,
0001,
0001,
00FD,
0001,
0005,
0007,
0005,
0003,
0001,
00FE,
00FE,
00FF,
00FD;