memory_initialization_radix=16;
memory_initialization_vector=
0003,
0004,
0004,
0000,
00FF,
0000,
0003,
0006,
0005,
0005,
00FE,
0002,
0002,
0003,
0001,
00FE,
0005,
0005,
0003,
0003,
0000,
0000,
0000,
00FD,
0000,
0006,
0003,
0007,
0003,
0000,
0007,
0009,
0007,
0004,
0003,
0002,
0002,
00FE,
0004,
0003,
0007,
0003,
0005,
0003,
0004,
0003,
0002,
0003,
00FA,
0002,
00F4,
00FA,
00FE,
00FF,
0001,
00FB,
0000,
0002,
00F9,
00FF,
00FD,
0002,
0004,
00FC,
00FB,
00F7,
00F9,
00FC,
00FC,
00F9,
00FC,
00FB,
00FF,
00FD,
00FE,
0003,
00FF,
0002,
0004,
0001,
0000,
0000,
0000,
0002,
0001,
0000,
0004,
0006,
0001,
00FE,
00FB,
00FF,
0000,
00F8,
00F7,
00FD,
00FE,
0002,
0001,
00FE,
00FB,
0004,
00FE,
0005,
0005,
00FE,
00FD,
00FE,
0001,
0002,
00FE,
00FF,
00FD,
0003,
00FF,
00F8,
00FB,
00FE,
0004,
0002,
00F8,
00F9,
00FD,
0005,
0002,
0001,
00FF,
0001,
0003,
0001,
00FF,
00FD,
00FF,
0002,
0003,
0004,
0001,
00F8,
00FD,
00FC,
0004,
0004,
0001,
0000,
00FC,
0001,
0001,
0000,
00FD,
00FC,
0003,
0005,
0003,
0008,
0009,
0003,
0006,
0007,
000C,
000D,
0000,
0003,
0007,
000C,
0009,
00FF,
0002,
0003,
0002,
0000,
00FA,
00FF,
0001,
00FE,
00FD,
00FB,
00FF,
0006,
00FA,
00FE,
00FE,
0009,
000D,
0006,
00F8,
0003,
0002,
0009,
0008,
00FA,
0000,
0003,
00FD,
0001,
00F8,
00FF,
0001,
00FF,
0001,
00FC,
0007,
000B,
000D,
0009,
0003,
0007,
000A,
000C,
0008,
0002,
0003,
00FF,
00FD,
00FE,
00FA,
00FE,
00FA,
00F4,
00F5,
00F8,
00FC,
00FB,
00F9,
00F9,
00FC,
0000,
00FB,
0005,
000C,
0001,
0003,
000D,
0011,
000C,
0007,
0006,
0010,
000B,
00FE,
0004,
0001,
0006,
0005,
000B,
0007,
00FF,
00FE,
0004,
000A,
0000,
00FE,
0001,
00FC,
00FE,
0004,
00FF,
00FF,
00FB,
00FE,
0003,
0002,
00FF,
00F7,
0000,
0007,
0002,
00FF,
00F7,
00FD,
0001,
00FF,
00FF,
00FA,
00FD,
00FE,
00FF,
00F8,
00F7,
00FA,
00FF,
00FE,
00F8,
00F7,
00FD,
00FB,
00FF,
00F9,
00FD,
0002,
00FF,
00FC,
00F8,
00F7,
00FE,
00F9,
00FF,
00FA,
00FA,
00FF,
00FE,
00FD,
00FE,
0001,
00FD,
0004,
00FD,
00F9,
0000,
00FB,
0002,
0002,
00FE,
0007,
00FC,
0006,
00FE,
00F9,
00FF,
00F4,
00FA,
00FD,
00F9,
00FF,
00F9,
00FA,
0006,
0003,
0000,
00FD,
00FE,
0005,
0001,
00FE,
00F8,
00FE,
00FF,
00FE,
00EC,
00EE,
0004,
00FE,
00F6,
00EE,
0007,
000D,
00FE,
00FE,
0005,
0013,
0009,
00FA,
00FD,
00FF,
00FB,
00FA,
00FC,
00FC,
00FD,
00F8,
00FC,
0000,
0001,
0002,
00FF,
0000,
00FF,
0002,
0003,
00FF,
00FF,
00FF,
0004,
0003,
00FE,
00FD,
0003,
00FC,
00FC,
00F9,
0001,
0000,
00F4,
00EA,
00F2,
00FE,
00FE,
00F2,
00E8,
00F1,
0000,
00FE,
00F4,
00EF,
00F7,
0001,
0003,
00FF,
00FC,
00FD,
0004,
00FC,
00FB,
0001,
00FF,
00FE,
00FA,
00FA,
00FF,
00FB,
00F7,
00FA,
00FB,
0001,
00FE,
00F9,
00F9,
00F6,
00FE,
00FA,
00F8,
00FA,
00FC,
0003,
00FD,
00F8,
00FC,
00FF,
00FE,
00FD,
00FD,
00FD,
00F8,
00FA,
00FE,
00FD,
0001,
00F3,
00F4,
0002,
0000,
0000,
00FC,
00FD,
0001,
0000,
00FE,
00FF,
00FD,
0001,
00FF,
0000,
0002,
0006,
0003,
0003,
0004,
000B,
0012,
000B,
0006,
00FF,
00FD,
0010,
0011,
0000,
0000,
00FD,
0003,
0003,
00FC,
00FF,
0000,
00FE,
00FE,
00FF,
00FF,
00F8,
00F9,
0000,
0000,
00F7,
00FF,
0005,
0006,
00F7,
00FF,
0003,
0012,
000A,
00FA,
00F8,
00F8,
0002,
00F9,
0001,
00FD,
00FB,
00FD,
00FD,
0003,
0004,
0004,
00FC,
0002,
0000,
0002,
00FF,
00F6,
00FF,
0000,
00F7,
00F4,
00FA,
00FF,
00FC,
0005,
0005,
0004,
0000,
00F7,
0001,
0001,
00FE,
00FD,
00FE,
0000,
0000,
00FB,
0001,
00FE,
0003,
00FC,
0004,
00FD,
00FF,
000A,
0003,
0006,
0003,
00FE,
0007,
0004,
00FE,
0002,
00FC,
00FC,
00FF,
0002,
0001,
00FE,
00FC,
00FE,
00FA,
0002,
0002,
00FE,
0007,
0006,
0003,
0000,
00FB,
0007,
0007,
0000,
0003,
0003,
0002,
00FD,
0005,
0001,
0000,
0003,
00FE,
0006,
00FF,
00FE,
0001,
0002,
0003,
00FE,
0000,
0003,
0007,
0003,
00FD,
0005,
0006,
000D,
000E,
0008,
00FD,
0002,
0002,
0005,
0003,
00FB,
0000,
00FD,
00FC,
00FE,
000C,
0007,
0006,
0004,
0007,
0009,
0008,
0003,
0004,
0004,
00FD,
0001,
00FE,
00FE,
00FA,
00FD,
00FC,
00FE,
0000,
00FE,
00F8,
00F7,
00FD,
00FE,
00FC,
00FD,
00FD,
00FC,
00FD,
0001,
00FE,
00FD,
00F6,
00FE,
00FF,
0007,
0004,
00F4,
0000,
0008,
0004,
00FD,
00F6,
00FC,
0000,
0005,
00FD,
00F9,
00FE,
00FE,
00FC,
00FD,
00FD,
0000,
00FE,
00F8,
00F0,
00F3,
00F9,
00FE,
00F5,
00F2,
00FC,
00FE,
00FC,
00F6,
00F4,
00FD,
00F4,
00F2,
00F7,
00F8,
00F8,
00EF,
00EB,
00FE,
0002,
0003,
0003,
00FF,
0002,
0005,
0004,
0000,
00FE,
00FE,
00FC,
00FC,
0001,
0002,
0001,
00FC,
0002,
0003,
0000,
00FB,
00F9,
0000,
00FB,
00F8,
00FA,
00F1,
00EC,
00F9,
00FD,
00F6,
00EC,
00E9,
00F3,
00FA,
00F0,
00E8,
00E4,
00EC,
00F3,
00F4,
00EC,
00EA,
00EF,
00F6,
00F6,
00EE,
00EC,
00F7,
00FF,
0003,
00FF,
0002,
00FD,
00FE,
0007,
0006,
0008,
0004,
00FE,
0004,
0004,
0006,
0009,
00FD,
00FD,
00FE,
00FF,
0004,
0001,
0000,
0002,
0002,
0004,
0003,
00F5,
00F0,
00F3,
00F7,
00FD,
00F4,
00EC,
00F9,
00FC,
00FE,
00FA,
00F4,
00F4,
00F8,
00FF,
0000,
00FE,
00FC,
00FF,
0004,
0000,
00FF,
0000,
0001,
0002,
0007,
0002,
00FD,
0005,
00F9,
0001,
0004,
0008,
000B,
0004,
00F5,
00FE,
00FE,
00FF,
00FD,
00FE,
00FC,
0000,
00FF,
00FB,
00FC,
0002,
0001,
0002,
00FF,
00FC,
00F9,
00FB,
00FB,
00FB,
00FB,
00F7,
00FC,
00FC,
00FC,
00FD,
00FF,
0005,
00FF,
00FC,
00FE,
00FC,
0000,
0004,
00FE,
00FC,
00FA,
0000,
0003,
00FD,
00FD,
0001,
00FF,
00FF,
00FF,
0001,
00FD,
00FB,
00FC,
00FF,
0002,
0002,
0003,
00FE,
0005,
00FD,
00F9,
00F6,
00F5,
0001,
00F7,
00F7,
00F3,
00FB,
0001,
0001,
00FD,
0000,
0007,
0006,
00FF,
00F7,
0001,
0000,
00FF,
00FE,
0000,
000B,
0000,
0006,
00FA,
0002,
0003,
00F6,
0003,
00FE,
0004,
0004,
00FD,
0002,
0005,
0002,
0000,
0005,
00FC,
0004,
0003,
0000,
0000,
00FD,
0000,
0003,
00FC,
00FF,
00FD,
0001,
0003,
00FB,
0000,
00FE,
0002,
00FF,
00FD,
00FE,
00FC,
0004,
0004,
00FE,
0002,
0000,
0001,
0001,
0002,
0003,
0001,
00FF,
00FB,
00F7,
0004,
0002,
0005,
000B,
00F5,
0003,
0007,
00F9,
000D,
0005,
0000,
0001,
00FC,
00FA,
00FC,
00FC,
00FE,
00FD,
00FA,
00FC,
00FB,
00FF,
00FE,
00FA,
00FF,
00FC,
00FF,
00FD,
00FA,
00FC,
00F8,
00FE,
00FF,
00FE,
0001,
00FC,
00FE,
0000,
0000,
00FF,
00FD,
00FF,
00FF,
0003,
00FF,
00FD,
0003,
00FE,
00FE,
00FB,
0000,
0000,
0001,
00FE,
0005,
0005,
0004,
0000,
0001,
0005,
0006,
0006,
00FD,
0000,
0000,
00FB,
00FA,
0000,
0001,
0001,
00FE,
00FF,
0002,
0004,
0005,
0001,
0002,
00FF,
0001,
0003,
0000,
0001,
00FD,
0000,
0000,
00FC,
00FC,
00FF,
00FF,
0003,
0004,
0000,
00FE,
00FF,
0004,
0005,
0002,
00FD,
00FE,
0002,
0003,
0001,
00FB,
00FC,
00FE,
00FF,
00FF,
00FB,
00FC,
00FE,
0000,
0000,
00F6,
00F8,
00F8,
00F6,
00F5,
00F6,
00F9,
00FB,
00FB,
00F8,
00F7,
00FC,
00FD,
00FD,
00FB,
00F7,
00F8,
00F9,
00F8,
00F5,
00FE,
00FA,
00F8,
00F9,
00F7,
00FA,
00FC,
00FC,
00FB,
00FB,
00FB,
00FD,
00F9,
00FA,
00F9,
00FB,
00FB,
00FD,
00FF,
00FC,
00F7,
00F7,
00FC,
00FC,
00FA,
00FB,
00FC,
00FB,
00FB,
00FC,
00FF,
00FF,
0003,
00FB,
0000,
0002,
0003,
0003,
00F5,
00FC,
0003,
0004,
000D,
0005,
0001,
00F7,
00F7,
0002,
0002,
00FE,
00FF,
00FB,
0003,
00FE,
00FF,
000D,
0001,
00FC,
00FE,
0004,
0015,
00FA,
00F2,
00FF,
0000,
0021,
00F7,
00E8,
00FB,
00FF,
000E,
00FD,
00F1,
00FB,
0000,
0006,
00FC,
00F6,
00FB,
0001,
00FB,
0004,
0007,
0002,
00FF,
00F8,
00FA,
0003,
0000,
0000,
00FF,
0004,
0008,
0004,
0006,
00F7,
00FD,
0005,
00FF,
0000,
00FB,
00FE,
0003,
00FD,
00FF,
0006,
0005,
000A,
000A,
0009,
0007,
0005,
0007,
0007,
0005,
0004,
0001,
0005,
0009,
0007,
0002,
0004,
0005,
0007,
0005,
0003,
0004,
0003,
0003,
0002,
00F3,
00F4,
00F4,
00F6,
00F5,
00F4,
00F5,
00F4,
00F6,
00F6,
00F5,
00F2,
00F1,
00F4,
00F6,
00FC,
00F3,
00F3,
00F5,
00F5,
0001,
00FB,
00F5,
00F6,
00F7,
0001,
00FE,
00FC,
0006,
0001,
00FF,
00FB,
00FD,
00FB,
0004,
0002,
0000,
0007,
00F5,
0002,
0003,
00FB,
0001,
00F9,
0003,
00FF,
00FB,
00FB,
00FE,
00FD,
00FE,
00FA,
00FF,
0003,
0002,
00FE,
00FA,
00F9,
00FD,
00FF,
0001,
00FF,
00F7,
00F5,
00FE,
00FF,
00FC,
00FA,
00FA,
00FE,
0001,
00FD,
00F9,
00FA,
00FE,
0006,
0008,
0002,
0006,
00FD,
0001,
0002,
0001,
0000,
00F8,
0001,
0008,
00FF,
0000,
00FF,
0002,
0005,
0002,
00FE,
00F4,
0003,
0002,
0001,
0005,
00F5,
0004,
00FF,
00FE,
00FD,
00FE,
0002,
0000,
00FD,
00F8,
00FF,
0000,
00FE,
00F9,
00F7,
0008,
0002,
0000,
00F7,
00FF,
000A,
00FF,
0001,
00FA,
0006,
0005,
00FA,
00FF,
0000,
0002,
00FF,
00FC,
00FF,
0002,
0005,
0001,
0000,
0002,
0004,
0009,
0008,
0002,
00FE,
00FD,
0002,
0001,
0000,
0003,
00FD,
0001,
00FD,
0003,
0001,
0005,
0004,
0000,
0002,
0002,
0004,
0001,
0001,
0004,
0001,
0004,
0003,
0000,
0005,
0003,
0004,
0003,
0002,
000A,
000A,
0009,
0004,
0004,
0000,
0002,
00FD,
00FB,
0004,
00FE,
0006,
000D,
0003,
00FC,
0003,
00FE,
00F5,
0003,
00F6,
00FE,
0009,
00FE,
00FD,
0000,
00FF,
0003,
0000,
0000,
00FE,
00FB,
0005,
0006,
00FF,
00FB,
00FE,
00FE,
000D,
0004,
00FC,
00FA,
00F8,
000C,
000E,
0008,
00FE,
00F7,
00FD,
0005,
0002,
00FF,
00FE,
00FE,
0004,
00FB,
00FE,
0002,
000D,
000D,
0001,
0013,
0007,
00F5,
00FA,
00FD,
001D,
0013,
00ED,
00ED,
00FF,
00FB,
0006,
000B,
00FE,
00FE,
00FE,
00FD,
000D,
0007,
00FE,
0001,
0000,
0000,
00FF,
00FF,
0001,
0000,
0000,
00FF,
00FF,
0000,
0000,
00FF,
00FF,
00FF,
00FF,
00FF,
00FF,
00FF,
00FF,
00FF,
00FF,
00FF,
00FF,
00FF,
0005,
0006,
0002,
0005,
00FE,
00FF,
0000,
0003,
00FD,
00F9,
00FD,
0003,
000D,
0005,
0000,
0000,
0003,
0008,
00FD,
00FD,
00FF,
0000,
0000,
00F6,
00F6,
0004,
0007,
00FD,
00FB,
00FE,
0006,
000A,
00FA,
00F5,
00FB,
000A,
0009,
0001,
00FF,
00F9,
000B,
0008,
00FF,
00FF,
00F1,
0008,
0006,
00FE,
00FE,
00F8,
00FA,
00FC,
00FF,
00FF,
00FD,
00FB,
00FD,
0001,
0000,
00FD,
00FF,
00FF,
0005,
0005,
0002,
00FD,
00FC,
0002,
00FF,
0001,
00FC,
00F7,
00FD,
00FE,
00FD,
00FA,
00FE,
00FB,
0000,
00FF,
00FE,
00FB,
00FD,
0003,
0000,
0004,
0008,
0001,
0006,
0000,
00FC,
0004,
0002,
0003,
00FF,
00FA,
0000,
0002,
0000,
00FD,
00FC,
00FF,
0003,
00FF,
00FD,
00FF,
0002,
0004,
0000,
00FE,
0000,
0003,
0007,
0001,
0000,
00FB,
00FF,
0001,
00FE,
00FE,
00FD,
00FE,
0000,
00FD,
00FB,
00FA,
00FC,
00FF,
00FA,
00FB,
00F9,
00FD,
0003,
0000,
00FE,
00FF,
0004,
000A,
0004,
0002,
00F8,
00FD,
00FE,
00FC,
00F7,
00F6,
00F8,
00FA,
00F8,
00F4,
00FA,
00FD,
00FD,
00FE,
00FB,
00FC,
00FB,
0001,
0003,
00FF,
00FB,
00FC,
0004,
0004,
00FD,
00F8,
00FC,
00FE,
00FB,
00FB,
00FF,
0002,
0001,
00FB,
00FC,
00FF,
00FA,
00ED,
00F3,
00F8,
00FF,
00F9,
00EE,
00EF,
00F7,
0002,
0002,
00F8,
00F6,
00F5,
0004,
0003,
0001,
0000,
00FA,
0004,
0000,
00FC,
0000,
00FF,
0002,
00FB,
00FA,
00F4,
00FC,
0003,
0002,
0002,
00FE,
0002,
0002,
0004,
0004,
0000,
0002,
00FD,
0004,
0000,
00FF,
0002,
00FF,
0004,
0004,
00FD,
00FF,
00FD,
00F8,
00FE,
00FA,
00FB,
00FF,
00FC,
0001,
00FB,
00FD,
0002,
0002,
0002,
00FE,
0002,
00FD,
00FE,
00FE,
00F6,
00FA,
0000,
00FC,
0000,
00FB,
00FA,
0002,
0005,
0003,
0001,
0002,
0003,
0000,
0007,
0002,
0002,
0000,
0000,
0005,
0002,
00FD,
00FE,
0002,
0002,
0001,
0000,
00FD,
00FD,
00FF,
00FE,
0000,
00FD,
00FD,
0006,
0002,
00FA,
0003,
00FF,
00FE,
0004,
0000,
0001,
00FD,
00FE,
00FB,
00FE,
0007,
0005,
0005,
0006,
0006,
0006,
0004,
0000,
0002,
0002,
0003,
00FE,
0004,
0000,
0001,
0005,
0001,
0008,
0003,
0000,
0002,
0009,
000D,
0001,
0000,
00FF,
0005,
0004,
00FC,
00FC,
00FF,
0009,
00FD,
00FC,
00FD,
0002,
0002,
00F9,
00FB,
0001,
0001,
00FF,
00F4,
00FE,
0007,
0002,
00FE,
00F7,
00FC,
000A,
00FF,
00FD,
00FA,
00F2,
00FC,
0000,
00FB,
00FB,
00F9,
00FC,
0003,
0005,
0001,
0005,
0004,
0003,
0004,
00FF,
0002,
000A,
00FD,
00FF,
00F9,
00F6,
00FD,
00FF,
0000,
00F4,
00F8,
00FE,
0002,
0005,
00FD,
0000,
0006,
0002,
0008,
00FC,
0001,
00FF,
00FD,
0007,
00FC,
00FD,
0000,
0002,
0019,
00FE,
00FF,
0000,
00FB,
0012,
0000,
00FE,
00FF,
00F9,
000C,
0008,
00FB,
0000,
00FE,
00FC,
00FE,
00FF,
00FE,
00F9,
00F6,
00F8,
00FB,
00FD,
00FA,
00F5,
00F5,
00FC,
0000,
00F9,
00F4,
00F6,
00F8,
00FB,
00F9,
00F9,
00FC,
00FB,
00FC,
0000,
0000,
00FE,
00FB,
00FC,
0003,
0002,
000F,
0009,
00FA,
0000,
00FB,
0004,
0012,
000A,
00FB,
00FF,
00FC,
00FF,
00FD,
00FF,
00FC,
0000,
00FD,
00FC,
00FE,
00FB,
00F9,
0002,
0003,
0003,
0006,
00F0,
00FC,
0000,
0007,
0013,
000C,
00FB,
0000,
00FF,
0006,
000E,
0001,
0001,
0004,
0006,
0009,
0006,
0003,
00FF,
00FD,
00FE,
00FD,
00FE,
0003,
00FB,
00F9,
00FB,
00FF,
0013,
001A,
000A,
00F9,
00FB,
0000,
0006,
000C,
0002,
0000,
0002,
0001,
0002,
0000,
0001,
00FE,
00FD,
00FD,
0000,
00FD,
0002,
00FE,
0002,
0000,
00FE,
0002,
0002,
0000,
0004,
0001,
0003,
0005,
0000,
0003,
0004,
0002,
0001,
0001,
0001,
0004,
0002,
0002,
000D,
0006,
0002,
00FF,
00FE,
0004,
0002,
0005,
0002,
00FE,
00FD,
00FC,
0003,
0001,
00F9,
00F8,
0002,
0000,
0008,
00FA,
00FA,
0004,
0004,
0001,
00FC,
00FB,
00FC,
00FB,
0003,
0007,
0009,
0000,
00FF,
0001,
0009,
0004,
00FB,
00FB,
00FF,
0001,
00FE,
00FB,
00FD,
00FD,
0004,
0000,
00FF,
00FE,
00FF,
0001,
0003,
00FC,
00FD,
00FC,
00FE,
00FD,
00F7,
00F8,
00FA,
0004,
0004,
00FC,
00FD,
00F7,
00FE,
00FF,
00F8,
00F9,
00FA,
00FE,
00FF,
00FC,
00FA,
00FD,
00FF,
0000,
0000,
00FF,
00FE,
0001,
0001,
0001,
0000,
00FF,
0000,
0001,
0000,
00FF,
00FF,
0000,
0000,
0000,
00FF,
00FE,
00FE,
00FE,
00FE,
00FE,
00FC,
00FA,
00F0,
00EF,
00F8,
0004,
0001,
00F1,
00EF,
00F6,
0006,
000A,
00FA,
00F6,
00F7,
000B,
000F,
0005,
0003,
00FE,
000A,
000B,
0004,
0004,
0000,
00FD,
00FA,
00FD,
00FF,
0002,
00FA,
00F7,
00FF,
00FA,
00FE,
0000,
00FA,
00FE,
00FC,
00F8,
00FD,
0000,
0002,
00F9,
00FA,
00FE,
0002,
0002,
0001,
00FC,
00F6,
00FA,
00FA,
00FA,
00FB,
00F2,
00F5,
00FA,
0001,
0001,
00F2,
00FE,
000B,
0001,
0004,
00FC,
000A,
0005,
0007,
0004,
0002,
000B,
0004,
0004,
0003,
00FD,
0002,
0008,
0003,
0002,
00FE,
0003,
0005,
0003,
0003,
00FD,
0004,
0004,
00FF,
0000,
0002,
0004,
0001,
00FD,
00FC,
0000,
0003,
0000,
00FB,
00FB,
0002,
0006,
0004,
0006,
000C,
0000,
00FF,
0008,
000D,
000D,
0004,
000D,
0022,
0021,
001B,
000B,
000E,
001B,
0021,
0022,
000B,
000D,
0011,
0015,
0024,
0005,
0002,
0000,
0000,
0006,
00FE,
00FD,
0002,
0001,
00FF,
00FC,
00FC,
00F6,
00FD,
00FC,
0005,
0009,
00FD,
00FE,
00FE,
0007,
0009,
00FE,
00FC,
00FE,
00FC,
00FF,
00FD,
00FD,
00FC,
00FB,
00FD,
00FB,
00FD,
00FB,
0000,
0002,
00FD,
00FE,
0001,
0000,
0003,
0001,
00FF,
0000,
00FF,
0000,
00FF,
0000,
00FF,
0001,
0000,
00FC,
00F9,
00FC,
00FD,
00F5,
00FC,
00FA,
00FE,
00F8,
00F7,
0003,
00FD,
0000,
00F7,
00F7,
00FD,
00FB,
00FE,
0002,
00FF,
0005,
0004,
0001,
0000,
00FD,
00FE,
0000,
00FE,
00FB,
00FC,
0003,
0006,
00FD,
00FC,
0004,
000B,
0005,
00FC,
00FE,
0003,
0002,
00FC,
00FE,
00FD,
00FE,
00FF,
00FF,
0002,
00FA,
00F1,
00F1,
00F1,
00F8,
00F5,
00EC,
00E7,
00E9,
00F4,
00F6,
00EC,
00E5,
00EA,
00F6,
00F6,
00ED,
00E2,
00E6,
00F3,
00F8,
00F1,
00EC,
00EE,
00F5,
00FF,
0000,
0000,
0006,
0004,
00FC,
00FE,
00FB,
0002,
0003,
00FC,
0002,
00FC,
0001,
0000,
00FF,
0001,
0002,
0003,
0003,
00FC,
0000,
00FC,
0004,
0003,
0002,
0000,
00FF,
0002,
0004,
0002,
00FD,
00F9,
0000,
0004,
0003,
0004,
00FC,
00F8,
0002,
0004,
0004,
00FE,
00F9,
0001,
0003,
0003,
0003,
00FE,
0003,
0002,
0000,
00FD,
00FD,
00FC,
00FF,
00FD,
00FB,
00FB,
00FB,
0000,
00FE,
00FC,
00FE,
00FD,
0000,
00FE,
00FE,
00FF,
00FC,
00FD,
00FD,
00FD,
00FD,
00FC,
0000,
0003,
0003,
00F9,
00F5,
000F,
0012,
0014,
000A,
0003,
0011,
0016,
0015,
000D,
0008,
0009,
000D,
000C,
0003,
0001,
0008,
000A,
000B,
0003,
00FC,
00FD,
00FE,
0000,
00FF,
00FC,
0000,
0002,
0002,
00FC,
00FC,
0006,
0008,
0003,
0000,
0008,
0002,
0003,
00F8,
00FF,
0000,
0000,
00FD,
00F9,
0000,
00FC,
0001,
0000,
00FF,
00F4,
00F5,
00FE,
00FD,
00FF,
00F4,
00F4,
000D,
000E,
0014,
0005,
0005,
000B,
000C,
0010,
0001,
0002,
000E,
0010,
0011,
0001,
0003,
00FF,
0004,
000E,
0006,
00FF,
00FE,
0002,
000A,
0004,
00FE,
0001,
00FB,
00F5,
00FC,
00FF,
0001,
0001,
00FC,
0000,
00FE,
0003,
0002,
0001,
0002,
0002,
00FC,
0006,
000B,
0002,
00FC,
0002,
000C,
0010,
0008,
0000,
0004,
0006,
000D,
000A,
0000,
0003,
0004,
0006,
0006,
0001,
0001,
0004,
000A,
0008,
0000,
0003,
0001,
00FF,
00FE,
0002,
0006,
0008,
0002,
00FD,
0003,
0003,
000D,
0014,
000B,
0006,
00FB,
0001,
000F,
0008,
0005,
0005,
0003,
0002,
00FE,
0003,
00FD,
00FD,
0001,
00F8,
00F9,
0000,
0000,
0004,
00F8,
00F7,
0000,
0002,
0005,
00F4,
00F6,
0001,
0003,
0007,
00F4,
00F5,
0002,
0004,
0006,
00F6,
00F7,
00FF,
00FE,
000A,
0007,
00FE,
00FB,
00F7,
00F7,
0002,
0006,
00FE,
00FF,
00FF,
00F9,
0000,
0000,
00F2,
00F5,
00F4,
00F3,
0006,
0003,
00FD,
00FB,
00FB,
00FD,
0002,
0004,
0007,
0006,
00F8,
0001,
0001,
0006,
0008,
00F5,
00FA,
0002,
0004,
0005,
00F3,
00F5,
00FD,
0000,
0000,
00F9,
00EF,
00F2,
00F9,
00F9,
0002,
0005,
0005,
0005,
0003,
000B,
0008,
0009,
0005,
0009,
0000,
00FA,
00FC,
00FF,
0000,
00FD,
00FA,
00F7,
00F7,
00FC,
00FA,
00F6,
00F4,
00FA,
00FC,
00FD,
00FE,
0001,
0000,
00FD,
00FC,
00FA,
00FA,
00F9,
00F5,
00FB,
00F9,
00FE,
00FF,
00FB,
00FA,
00F6,
00F9,
00F8,
00F6,
00FD,
00FB,
00FA,
00FB,
00FC,
0003,
0004,
0000,
00F9,
00FB,
00FD,
00FE,
00FF,
00FD,
00FA,
0007,
0009,
000A,
0004,
0001,
00FB,
00F8,
00F8,
00FC,
00FB,
00FA,
00FE,
0004,
0001,
00FE,
00F8,
00FA,
00FB,
00FF,
00FD,
00FA,
00F5,
00FB,
0000,
00FC,
00FE,
00FC,
00FD,
0000,
00FF,
00FC,
00FD,
00FD,
00FB,
00F9,
00FB,
00FD,
00FC,
00FA,
00F6,
00FD,
0003,
0007,
0001,
0004,
0000,
0005,
0006,
0001,
0003,
00FC,
00FD,
0002,
00FD,
00FF,
00FD,
00FB,
0003,
00FF,
00FB,
00F3,
00F4,
00FC,
00F3,
00F3,
00F9,
00F0,
00FF,
00FF,
0003,
00EC,
00F9,
0019,
0006,
00FE,
000F,
0024,
0023,
00FF,
0001,
0004,
00FF,
00FA,
00FA,
0001,
0000,
00FE,
0000,
00FF,
00FC,
0004,
0001,
00FA,
00F6,
00FD,
00FD,
00F8,
00EE,
00EE,
00F8,
00FB,
00F5,
00EF,
00F4,
00FA,
00FA,
00F9,
00F5,
00F7,
00FB,
00FA,
00FB,
00F7,
00F7,
00FB,
00FF,
00FD,
0000,
0005,
0002,
00FE,
00FE,
0000,
0006,
0005,
00FA,
00FF,
00FE,
0004,
0004,
00F7,
00FE,
00FD,
0001,
0003,
00F7,
00FB,
00FA,
00FF,
0001,
0002,
0003,
0002,
0007,
0007,
00FD,
00F8,
00FB,
0001,
0005,
00F4,
00F3,
00F0,
00FF,
0004,
00EE,
00EB,
00F0,
00FB,
0000,
00F0,
00F2,
00F5,
00FB,
0001,
0005,
0004,
00FB,
0000,
00FF,
0005,
0002,
0003,
0006,
00FC,
0002,
0003,
0004,
000D,
000E,
0001,
0000,
00F9,
0002,
0007,
0001,
0002,
00FF,
0001,
00FE,
0006,
00FB,
00F3,
00F8,
00FD,
0003,
00F7,
00F0,
00F8,
00FD,
00F9,
00E9,
00E1,
00E7,
00F5,
0007,
00F9,
00F2,
00F3,
0000,
0006,
00FF,
00F7,
00FA,
0004,
00FE,
00F9,
0005,
00FF,
00FF,
0002,
00FE,
00FE,
0011,
00EC,
0004,
0009,
00F4,
0015,
00FC,
00FC,
0003,
00FE,
0007,
0004,
00FD,
00FF,
00FB,
0000,
0006,
00F2,
00F4,
00FA,
00FD,
00FF,
00F6,
00F8,
00FA,
00FD,
0000,
00F7,
00F9,
00F8,
00FE,
0000,
00FD,
00F9,
00FC,
0001,
0004,
00FE,
00FD,
00FC,
0001,
0001,
0007,
0001,
0003,
00FF,
0003,
00FE,
00FC,
0002,
00FD,
00FE,
00FB,
0005,
0006,
00FE,
0001,
0002,
0007,
0002,
0005,
0007,
0006,
0006,
0005,
0004,
0008,
00F8,
00FB,
00FE,
0001,
0002,
00FC,
0000,
00FE,
0001,
0002,
0001,
0004,
0002,
0007,
0004,
00FE,
00FE,
0000,
0004,
0005,
00FD,
00FE,
00FE,
0002,
0004,
00FF,
00FF,
0008,
0011,
000C,
00FC,
00F6,
00E9,
00FC,
0002,
00FB,
00F6,
00EE,
00EE,
00FB,
00FE,
00FE,
00FB,
00FB,
00FB,
0003,
0005,
0001,
0002,
00FE,
00F9,
00FA,
00FA,
00F7,
00F8,
00F9,
00F8,
00F8,
00F6,
00F7,
00FC,
00F8,
00F4,
00F3,
00F8,
0001,
00FD,
00FA,
00F8,
00FB,
0003,
0000,
00FE,
00FA,
00FA,
0001,
00FF,
00FD,
00F6,
00FB,
00F9,
00F0,
00F7,
00FA,
00F8,
00F6,
0001,
000E,
0003,
00FA,
00FE,
0006,
0005,
00F2,
00FE,
00FD,
00FF,
00FC,
0001,
0000,
0001,
0000,
0000,
00FF,
00FD,
0000,
0002,
0004,
0000,
00FE,
0000,
0003,
0005,
0004,
00FE,
00FE,
00FE,
00FE,
00FC,
00FC,
00FC,
00F6,
00FA,
00F9,
00FC,
00F4,
00F9,
00FA,
00FB,
00F9,
00F6,
00F9,
00FA,
00FA,
00F7,
00F7,
00FB,
00FC,
00FA,
00F8,
00F7,
00F9,
00F9,
00F9,
00F8,
00FA,
00FB,
00FB,
00FC,
00FA,
00FB,
00F9,
00FB,
00FC,
00FE,
00FF,
00FC,
00FE,
0000,
0002,
0000,
00FA,
00FE,
0001,
00FF,
00FC,
00F8,
00FC,
0000,
00FE,
00FC,
00FA,
0000,
00FF,
00FD,
00F9,
00F8,
0003,
00FF,
00FE,
00F9,
00FA,
0003,
00FC,
00FE,
0008,
000B,
0019,
0013,
0019,
00F9,
00F8,
0002,
00FE,
0000,
00FA,
00FA,
0006,
0001,
0003,
00F6,
00FC,
00FE,
00FC,
00F9,
00FA,
0000,
0005,
0000,
00FE,
00F9,
00FB,
00FC,
00FC,
00FC,
0000,
0000,
00FF,
00FD,
00FE,
0003,
0006,
0004,
0000,
0003,
00F1,
00F5,
00FC,
0000,
00FE,
00F5,
00F9,
0001,
000A,
0001,
00F4,
00F4,
00F8,
00FA,
00F5,
00FC,
00FA,
0001,
0003,
0004,
00FD,
00FB,
00FD,
00FE,
0005,
00FD,
0002,
0003,
00FE,
00FB,
0006,
000F,
000A,
0002,
00FE,
0012,
0016,
000F,
0005,
0004,
00FF,
00F4,
00F1,
00EE,
00F1,
00FF,
00F1,
00F0,
00EF,
00F5,
0004,
0003,
00F2,
00FF,
0005,
00FF,
00F1,
00F2,
000E,
0006,
00FF,
00F6,
00F1,
0002,
0001,
00FF,
0001,
00F5,
0005,
0002,
00FA,
00FC,
0000,
0003,
0001,
00FE,
0000,
00FD,
00FD,
00FE,
00F9,
00FF,
00FE,
0001,
0002,
00FB,
00FD,
00FE,
00FF,
0005,
0001,
0000,
00FE,
00FB,
00FD,
0000,
0001,
0003,
0000,
00FF,
00FD,
0000,
0000,
0001,
0001,
00FE,
0001,
0000,
00FF,
0001,
00FE,
0003,
0002,
0002,
0004,
00FE,
0003,
0000,
0001,
0003,
00FE,
0006,
0002,
0003,
0003,
00FC,
00FD,
00FE,
00FE,
0001,
00FC,
0005,
000E,
0009,
0005,
00FC,
00FA,
00F9,
0000,
0003,
0001,
0000,
0000,
0002,
0004,
00FD,
0003,
0003,
0001,
0000,
00FE,
0008,
000A,
0004,
00FD,
0010,
0019,
0015,
0004,
00F9,
001B,
001F,
0012,
00FF,
00F8,
0012,
0010,
0006,
00FD,
00FA,
0008,
0005,
0002,
00FE,
00FA,
0000,
0000,
0001,
0000,
0000,
0001,
0001,
0002,
0000,
0001,
0001,
0001,
0002,
0002,
0002,
0000,
0001,
0002,
0001,
0001,
00FF,
0000,
0001,
00FF,
0000,
0002,
0003,
0006,
0005,
0001,
0002,
0000,
0001,
0005,
0002,
0001,
00FA,
00F7,
0001,
0004,
00FE,
00FC,
00FB,
0002,
0007,
00FF,
00FE,
00FF,
0004,
0008,
00FD,
00FE,
00FA,
0005,
00F6,
0000,
0004,
00F2,
0012,
00F5,
0009,
000E,
00E4,
0009,
00F6,
000C,
000E,
00E3,
0003,
0002,
0005,
0005,
00F3,
00FC,
00FF,
00F8,
00FE,
0004,
00FF,
00FA,
00FC,
000A,
0012,
000A,
0002,
000C,
001C,
001F,
0015,
000C,
0002,
000F,
0016,
0007,
0002,
00FB,
0002,
0007,
00FF,
00FA,
00F8,
00FB,
0001,
0006,
0002,
00F7,
00F5,
00F5,
0007,
0009,
00FC,
00FA,
00F0,
00FA,
0004,
00FB,
00FF,
00FC,
00FA,
00FF,
00F9,
00FA,
00FA,
00FB,
0001,
00FE,
0000,
0001,
0003,
0004,
00FF,
00FE,
00FC,
0000,
0002,
00FF,
00FC,
00F8,
00F8,
00FD,
00FF,
00FE,
00FA,
00F9,
00FC,
0001,
0001,
00FF,
00FD,
00FE,
0001,
0001,
0003,
0000,
0002,
00FF,
00FC,
0000,
0000,
0002,
00FD,
00FB,
0000,
0001,
0004,
00FF,
00FD,
00FE,
0001,
0003,
0002,
0002,
0002,
0001,
0002,
0005,
0004,
00FE,
0002,
0006,
00FF,
00FA,
00F4,
00FA,
0003,
00FD,
00F7,
00F8,
00FB,
0002,
00FF,
00FD,
00FD,
00FF,
0004,
0001,
0000,
00FE,
0002,
0006,
00FC,
00FC,
00FF,
0001,
0001,
00FB,
00FA,
00FD,
0003,
0002,
00FC,
00F6,
00F4,
00FC,
0002,
0007,
00FF,
00F6,
00FC,
00FF,
0007,
0006,
00FF,
00FE,
00FF,
00FF,
00F7,
0000,
000B,
0005,
00FD,
0002,
0009,
00FD,
00FB,
00F8,
00F6,
00EB,
00F9,
0008,
00F3,
00F7,
0005,
0012,
000B,
00FA,
00FE,
0006,
0004,
0002,
00FD,
00FE,
00FF,
0002,
0000,
00FF,
00FC,
00FE,
0007,
0004,
00FF,
00FC,
00FE,
0006,
0005,
00FE,
00FD,
00FF,
0002,
0004,
0000,
00FF,
0003,
0006,
0006,
00FD,
00FD,
00FF,
0002,
0000,
00FE,
0000,
0004,
0004,
00FF,
0002,
0000,
00FC,
00FB,
00FE,
00FA,
00FD,
0009,
000E,
0007,
00FF,
0007,
000B,
0001,
00F8,
0001,
0005,
0001,
00FA,
00FC,
0002,
00FE,
00F4,
00F5,
00FC,
00FF,
00FC,
00FD,
00F8,
0000,
0000,
00FC,
00FB,
00FA,
0002,
00FF,
00FE,
0002,
0005,
0003,
0002,
00FD,
00FE,
00FB,
00FA,
00FF,
0006,
00FF,
00FD,
0001,
0000,
00FF,
00EE,
0005,
0000,
0000,
00FD,
00FD,
0007,
00FD,
0002,
0001,
0004,
0000,
0002,
00FB,
00FC,
0001,
0000,
0003,
0000,
00FD,
00FF,
00F8,
00FE,
00FD,
00FB,
000C,
00F8,
00FA,
00F8,
00F5,
0004,
0001,
0001,
00FF,
00FC,
00FE,
0003,
0003,
00FE,
00FB,
0001,
0001,
0001,
00FE,
0000,
0005,
00FF,
0000,
0000,
0004,
0002,
00F8,
0003,
0000,
00FF,
00FC,
00FF,
0002,
0000,
0002,
0003,
0001,
00FC,
00FD,
00FA,
00FB,
00FA,
00F7,
00FA,
00F7,
00FD,
0001,
00FE,
00FA,
00FC,
0009,
000E,
0007,
0000,
0003,
000D,
0010,
0006,
0002,
0003,
0008,
000A,
0000,
0004,
0003,
00FE,
00FF,
00FF,
00FF,
0000,
00FE,
0002,
0002,
0000,
0002,
0001,
0001,
0004,
0002,
0003,
0001,
00FF,
0001,
00FF,
0001,
0003,
0001,
0001,
0001,
0003,
0000,
00FB,
00FE,
0000,
0004,
0000,
00FA,
00F9,
0000,
0001,
0000,
00FB,
00F8,
00FE,
00FB,
00FD,
00FE,
00FC,
0002,
00FD,
00FE,
00FF,
0000,
0001,
0002,
00FF,
00FD,
00FE,
00FE,
0000,
00FE,
00FE,
0000,
00FD,
00FD,
00FE,
0002,
0003,
0001,
00FC,
00FF,
0005,
0004,
0001,
0000,
0002,
0005,
0003,
00F8,
00F9,
0001,
000E,
0014,
00F2,
00F3,
0005,
0015,
0018,
00E3,
00EA,
0006,
0016,
0019,
00EE,
00EF,
00F9,
0004,
0005,
00FE,
00FD,
00FA,
00FA,
00FB,
00FF,
0003,
0004,
0001,
00FB,
00FF,
0001,
0009,
000E,
0007,
0001,
0002,
000C,
0013,
0010,
00FF,
0002,
0006,
0008,
0005,
00FF,
0001,
0001,
00FF,
00FD,
0002,
0005,
00FF,
00FF,
00FE,
0001,
0001,
0001,
0001,
0000,
0003,
00FF,
0002,
0003,
0002,
00FD,
00FE,
0000,
0002,
00FE,
00FE,
00FD,
00FE,
0001,
00FE,
0004,
0005,
0001,
00FA,
00FD,
0000,
00FD,
00F8,
00FA,
00FF,
0002,
00F6,
00F4,
0001,
0001,
00FC,
00F7,
00F7,
0001,
0005,
00F9,
0000,
0004,
0001,
0004,
0002,
0000,
00FC,
00FF,
0001,
00FE,
00FA,
00F9,
00FC,
00FF,
00F7,
00F5,
00F7,
00FB,
00FE,
00FA,
00F7,
00F7,
00FB,
0000,
00FB,
00F6,
00F6,
00FD,
0000,
0001,
00FD,
00FF,
0000,
00FD,
0002,
00FF,
0002,
0001,
00FD,
0005,
0000,
0004,
0000,
00FE,
0006,
0000,
0002,
0002,
00FC,
0003,
0000,
0003,
0002,
00FF,
0004,
0002,
00FC,
00F8,
00FB,
0008,
0005,
00FA,
00EE,
00F3,
000D,
000E,
0006,
00ED,
00E5,
000C,
0010,
0011,
00FC,
00E9,
0008,
0009,
0006,
00FB,
00F5,
0000,
00FA,
00F7,
00FB,
00FB,
00F7,
00F0,
00ED,
00F2,
00F4,
00EF,
00EA,
00E8,
00EC,
00F2,
00F6,
00F0,
00EF,
00F3,
00FB,
00FB,
00FA,
00F9,
00FB,
0001,
0000,
0003,
0006,
0003,
0001,
0003,
0002,
0004,
0003,
0003,
0004,
0001,
00FC,
00F9,
0000,
0002,
00FD,
00F8,
00F5,
0000,
0006,
0005,
0002,
0000,
0008,
00FA,
00F8,
0003,
0002,
00FB,
00F7,
00FC,
0004,
00FF,
00F9,
00FE,
00FE,
00FE,
00F9,
00FA,
00FF,
0001,
0002,
00FD,
00FA,
00FA,
00FF,
0004,
00FE,
00F8,
0000,
00FF,
0000,
0000,
0000,
0002,
0000,
00FE,
00FE,
00FF,
0005,
0002,
00FF,
00FC,
00FD,
0005,
0005,
0002,
00FF,
00FE,
0004,
0004,
0004,
0002,
0000,
0000,
0001,
0002,
00FF,
0001,
0001,
00FE,
0000,
00FE,
0000,
0002,
00FD,
00FF,
00FE,
0000,
0002,
00FD,
00FE,
00FE,
00FE,
0002,
00FD,
00FE,
00FC,
00FD,
0005,
0008,
000C,
0010,
000C,
000B,
0011,
0019,
001B,
0012,
0018,
001F,
0024,
001C,
0008,
0010,
000D,
000A,
0001,
00FD,
00FC,
00FB,
0000,
0001,
00FE,
00FF,
0002,
0004,
0000,
00FA,
00FE,
0000,
0000,
00FD,
00FB,
00FF,
0001,
0000,
00FA,
00F9,
00FD,
0000,
00FD,
00FA,
00FD,
00FE,
0001,
0001,
00FF,
0000,
00FD,
00FB,
0000,
00FD,
00FA,
00FA,
00FC,
0003,
0001,
00FC,
00FB,
00FE,
0006,
0001,
00FF,
00FB,
00FC,
0002,
0000,
00FF,
00FA,
00FE,
0001,
00FF,
00FE,
00FD,
00FC,
00FC,
00FF,
0001,
0000,
00FB,
00F9,
00F7,
00F7,
0003,
00FB,
00F6,
00F7,
00F8,
0006,
0006,
0001,
00FE,
00FE,
0002,
0003,
0006,
0005,
0003,
00FF,
0002,
00FF,
00FD,
00FF,
0001,
0000,
00FF,
00FE,
00FF,
0003,
0001,
00FF,
00FF,
0002,
0001,
00FF,
00FF,
00FF,
00FF,
0001,
00FF,
00FF,
00FE,
00FF,
0002,
00FD,
00F8,
0010,
0006,
00F7,
0013,
00DA,
00EE,
000B,
00EA,
0027,
00FC,
00E8,
0007,
00F2,
0007,
0004,
0003,
000B,
0003,
00F9,
00F8,
0002,
00FE,
0004,
0003,
0008,
0006,
0001,
0005,
00FD,
00FC,
0005,
00FD,
00FF,
00F4,
00DD,
00FA,
0003,
00FF,
0007,
00FA,
00FA,
0003,
0002,
0008,
000B,
0000,
0001,
0000,
00FF,
00FE,
00FF,
00FE,
0001,
0000,
00FE,
0002,
0001,
0000,
00FD,
00FB,
00FE,
0000,
00FE,
00FD,
00FD,
00FE,
00FF,
00FE,
00FD,
00FE,
0000,
0000,
00FC,
00FC,
0000,
0004,
0003,
0000,
0001,
0003,
0005,
0002,
0000,
0005,
0006,
0006,
0003,
00F9,
0001,
0005,
0005,
0001,
00FC,
0002,
0002,
0002,
0000,
0002,
0000,
00FF,
0000,
00FE,
0001,
0000,
00FF,
0002,
00FF,
0002,
0003,
0000,
00FE,
00FD,
0001,
0002,
00FD,
00FF,
00FF,
0000,
0001,
00FF,
0001,
00FE,
00FE,
000D,
000A,
00F1,
00F4,
00FD,
0019,
002C,
00F8,
00F4,
00EC,
00FC,
0022,
00FC,
00FD,
00F8,
00EB,
00FF,
00FE,
0000,
000D,
00FA,
00FC,
00FF,
00FD,
0002,
00FF,
0005,
0000,
0000,
00FE,
00FB,
0001,
00FF,
0000,
0000,
00FF,
0004,
0002,
0002,
00FC,
00FD,
0000,
00FC,
00FC,
00FE,
00FF,
0002,
00FC,
00FD,
00FF,
0000,
00FF,
00FF,
0000,
00FF,
0001,
0002,
0003,
0002,
00FD,
00FE,
0002,
0003,
0001,
00FD,
00FE,
0000,
0001,
0000,
00FF,
00FF,
0002,
0001,
0001,
0001,
0001,
0001,
0002,
0003,
00FD,
0001,
0002,
0004,
0007,
0002,
00FC,
00F1,
0001,
0005,
00FF,
00FE,
0006,
000A,
00F8,
00FA,
00FC,
0000,
00FF,
0000,
0001,
00FD,
00FB,
0005,
0002,
000B,
00FE,
00E6,
0004,
0002,
000F,
0006,
00E0,
00FF,
0002,
000B,
000F,
00EA,
00FF,
0001,
00FE,
0003,
00F8,
00FE,
00FF,
0000,
00FF,
0002,
0001,
00FE,
0000,
0002,
0003,
0002,
0001,
00FE,
00FE,
00FD,
00FF,
0000,
0001,
0001,
0000,
0001,
0001,
00FF,
0001,
00FF,
00FF,
00FE,
0007,
0007,
0006,
0007,
0006,
0006,
0003,
0001,
0002,
0002,
00FF,
00FD,
00FB,
00FC,
00FE,
00FF,
00FD,
00FA,
00FC,
00FE,
0000,
0000,
00FE,
00FF,
0003,
0002,
0001,
0003,
00F9,
0007,
0009,
00F0,
001D,
00F2,
00EE,
0002,
00D3,
001D,
0012,
00F5,
000F,
00F6,
00F6,
0004,
0006,
0002,
0009,
00FE,
0000,
0000,
0002,
0006,
0003,
0000,
0001,
0001,
0003,
0001,
00FB,
00FC,
0001,
0003,
0003,
00FE,
00FF,
00FE,
0000,
0001,
00FE,
00FE,
00FE,
00FF,
00FF,
00FE,
00FF,
0005,
0000,
00FF,
00FF,
0001,
0003,
0007,
00FD,
0004,
0000,
0007,
0005,
00F1,
0006,
0002,
00FF,
00FD,
00F6,
0007,
0001,
0002,
0004,
00FF,
0005,
00FE,
0001,
0002,
00FF,
00FF,
0004,
00FD,
00FB,
00FC,
00FE,
0000,
00F9,
00F7,
00F7,
00FA,
00FC,
00FF,
00FB,
00F9,
00FD,
00FF,
0003,
00FD,
00FB,
00FE,
00FF,
0001,
00FA,
00FD,
0003,
0001,
00FB,
00FC,
0019,
0012,
00FE,
0001,
0005,
000C,
0000,
00FC,
0005,
0000,
00FB,
0003,
0001,
0007,
0007,
0000,
0000,
0000,
0002,
0000,
00FF,
0001,
0003,
0002,
00FE,
00FD,
00FF,
0001,
0002,
00FF,
00FA,
00FA,
00FF,
0003,
0002,
00FE,
00FB,
00FF,
0003,
00FF,
0000,
00FF,
0001,
00FD,
0000,
0000,
0001,
0001,
00FE,
00FE,
00FE,
00FF,
0000,
0001,
00FF,
0000,
0000,
00FF,
00FF,
00FF,
0002,
0005,
0001,
00FC,
00FD,
00FF,
0001,
0000,
0004,
0006,
0002,
0004,
00FD,
0006,
0005,
00F1,
0002,
0001,
0002,
00FC,
00DE,
00FA,
0006,
00FF,
00FB,
00EE,
0000,
0009,
0004,
0001,
00FB,
00FF,
0004,
0005,
0006,
0006,
0004,
0005,
00FC,
00FA,
00F8,
00F9,
0000,
00FA,
00F4,
00F3,
00F8,
00FB,
00FD,
00F5,
00F6,
00FA,
00FE,
0000,
00FF,
0001,
0000,
0005,
0002,
0000,
00FD,
0000,
0003,
0002,
00FF,
00FF,
0005,
0003,
0006,
00FC,
00F1,
00F6,
00FF,
0005,
0001,
00F5,
00F1,
00F9,
0000,
0003,
0006,
0004,
00FD,
0003,
0003,
0002,
00FD,
00FC,
0003,
0003,
0003,
00FE,
00FB,
0001,
0000,
0002,
0000,
00FC,
00FE,
00FE,
0001,
00FE,
00FD,
00FC,
00FD,
00FF,
00FE,
00FC,
00FF,
00FF,
0001,
00FE,
0001,
0000,
0000,
0002,
00FF,
0002,
0000,
0001,
0004,
00FF,
0002,
00FC,
00FD,
0001,
00FF,
00FE,
00FD,
00FD,
0003,
0000,
00FF,
0002,
00FE,
00FB,
00FC,
00FD,
00FE,
00F8,
00F3,
00F6,
00FA,
00F8,
00F1,
00ED,
00F2,
00F7,
00FB,
00F6,
00F4,
00F7,
00FC,
00FE,
00FA,
00FA,
00FE,
0003,
0003,
0001,
0003,
00FD,
0001,
0000,
00FD,
00FA,
00F2,
00FA,
00E9,
00D9,
00E1,
00F0,
0000,
00FF,
0014,
002E,
0025,
0015,
00FC,
00FA,
00FA,
00F4,
00F8,
00F8,
00FD,
00FA,
00F9,
00FC,
00FD,
0001,
00FB,
00F2,
00F7,
00FF,
00FD,
00FB,
00F5,
00F7,
0001,
0000,
00FF,
00FA,
00FD,
0001,
0001,
0001,
00FF,
00FE,
00FD,
00F9,
00F3,
0000,
0004,
0004,
00F1,
00E3,
00FA,
0005,
000B,
00FD,
00DC,
00ED,
0003,
0011,
0010,
00EF,
00F9,
000A,
000C,
000D,
00FF,
0006,
000D,
00FF,
00FB,
00FB,
00FE,
00FE,
00FC,
00FE,
00FE,
00FF,
0003,
00FB,
0009,
0008,
00F3,
00FA,
0000,
0016,
000F,
00EE,
00FD,
0002,
0009,
00FF,
00FA,
00FE,
0003,
0021,
002B,
000A,
0000,
000C,
000C,
00F3,
00F1,
0002,
00FF,
00DB,
00D0,
00F7,
0007,
0000,
0002,
0003,
0005,
00FD,
00FD,
0003,
0003,
0000,
0000,
0001,
00FE,
0000,
00FF,
00FE,
0003,
00FF,
0001,
00FE,
00FC,
0002,
0002,
0004,
0002,
00FF,
00FF,
0001,
0002,
0002,
0001,
0005,
0001,
0003,
0003,
0000,
0001,
0005,
0000,
0001,
00FE,
00FE,
0003,
00FE,
0001,
0000,
00FF,
0001,
00FE,
0001,
00FE,
00FD,
00FD,
00FD,
0000,
00FD,
00FD,
00FD,
00FB,
0001,
0000,
0001,
0003,
0003,
00FF,
0004,
00FC,
0000,
00FA,
00F9,
0004,
00FD,
00FC,
00F1,
00F5,
0001,
0000,
00FD,
00F7,
00FB,
0005,
00FF,
00FE,
00FD,
0002,
0005,
00F6,
00F6,
00F5,
00FC,
00FA,
00FB,
00F4,
00F1,
00F9,
00FB,
000B,
00FF,
00EE,
00F5,
00FC,
0012,
0014,
0004,
00FE,
00FF,
0009,
000E,
000F,
0005,
0001,
00FC,
00FC,
00FE,
0001,
0001,
0000,
0004,
0002,
00FF,
00FF,
00FE,
0000,
00FE,
00FF,
0001,
00FC,
0001,
0004,
0003,
0001,
0002,
0004,
0001,
00FE,
0000,
0001,
0000,
0002,
0002,
0002,
00FF,
00FE,
0001,
0003,
0002,
0000,
00FF,
00FF,
0000,
0000,
0001,
0000,
00FF,
00FF,
00FF,
0000,
0001,
0000,
00FF,
00FF,
00FE,
0002,
0010,
0001,
00FF,
0005,
0009,
0007,
00FC,
00FF,
0007,
00FC,
00F3,
00F3,
00FD,
0004,
00F9,
00F5,
00F7,
00FE,
0001,
00FA,
00F8,
00FB,
00FD,
00FC,
00FD,
0002,
0002,
0002,
00FD,
0000,
0011,
0010,
0004,
00F8,
00FC,
0011,
0016,
000A,
00F2,
00F6,
0000,
0008,
0004,
00F3,
00F4,
00F8,
00FE,
00FE,
0006,
00FE,
00F8,
00F8,
0000,
0000,
00F1,
00E5,
00EC,
00F9,
00F9,
00E7,
00DD,
00E7,
00F7,
00FE,
00F2,
00EB,
00F4,
00FF,
0004,
00FD,
00FB,
00FF,
0006,
0001,
0005,
0000,
00F9,
000F,
0003,
0001,
0004,
00E4,
00F7,
00F8,
00FE,
0034,
00FC,
00EF,
00EF,
00FF,
0031,
0011,
00FC,
00F6,
00FD,
000C,
0006,
00FF,
0000,
0000,
0000,
0000,
0000,
0000,
0000,
0000,
0000,
0000,
0000,
0000,
0000,
0000,
0000,
0000,
0000,
0000,
0000,
0000,
0000,
0000,
0000,
0000,
0000,
00FE,
00FE,
00FE,
00FE,
00FE,
00FF,
0000,
0000,
0000,
00FF,
00FF,
0000,
0001,
0001,
0000,
0001,
0001,
0001,
0002,
0002,
0000,
0001,
0002,
0002,
0001,
00FF,
0000,
0003,
0008,
0004,
00FD,
0002,
0005,
0010,
000A,
00FF,
0003,
0000,
000A,
0008,
00FF,
0008,
0000,
0001,
0004,
00FE,
0005,
0001,
00FC,
00FF,
00FD,
00FC,
00EC,
00FA,
0003,
00EF,
00E5,
00E7,
000D,
000F,
00F5,
00FE,
000C,
0014,
0008,
0004,
0007,
0008,
000B,
0002,
0004,
0005,
0002,
0008,
0003,
00FF,
00FE,
00FD,
00FD,
0000,
0000,
00FA,
00F9,
00FC,
00FF,
00F9,
00F2,
00FC,
0002,
0005,
00F9,
00F8,
0008,
000B,
0009,
00FA,
00FE,
000A,
000A,
0007,
00FE,
0000,
00FF,
0000,
00FD,
00FC,
0002,
00FE,
0001,
00FE,
0001,
0003,
00FC,
00FE,
00FE,
00FF,
0000,
00FE,
00FE,
0000,
0002,
0002,
00FE,
00FE,
00FF,
0001,
0000,
00FD,
00FC,
00FF,
0000,
0002,
0000,
00FD,
0001,
00FE,
00FC,
00FA,
00FA,
0001,
00FF,
00FC,
0000,
0003,
0005,
0001,
0003,
0004,
0003,
00FF,
0004,
0003,
0001,
00FF,
0000,
0007,
0004,
0002,
00FF,
0001,
0006,
0001,
00FD,
00FD,
00FF,
0004,
0000,
0001,
00FE,
00FF,
0006,
0003,
0002,
00FF,
00FF,
00FE,
00FE,
0000,
0003,
0006,
00F9,
00F7,
00F8,
00F9,
00FC,
00FD,
00FD,
00FC,
00F5,
00FA,
0002,
0001,
0001,
00FB,
0002,
0003,
00FF,
0000,
00FD,
0003,
00FD,
0003,
0001,
0001,
00FD,
00FD,
00FE,
0001,
0003,
0001,
00FE,
0000,
0007,
0003,
0001,
00FC,
00FF,
0000,
0002,
00FF,
00FB,
00FC,
00FA,
0001,
0003,
00FD,
0000,
0000,
0001,
0007,
0000,
0000,
0003,
0003,
0008,
0001,
0001,
00FE,
0000,
0005,
0002,
0003,
0008,
0004,
0006,
0003,
0002,
0008,
0009,
0005,
00FD,
0002,
00FE,
00FE,
0000,
0001,
0008,
00F8,
0004,
0004,
0002,
00FE,
00DA,
0013,
001E,
0002,
00FA,
00D4,
0000,
0019,
0001,
0003,
00FA,
00F9,
0000,
00FC,
0001,
0000,
00FE,
00FF,
00FD,
00FF,
00FF,
00FD,
00FF,
0000,
0001,
0002,
0002,
0001,
0000,
0000,
0000,
00FF,
00FF,
00FF,
0002,
0000,
0003,
00FE,
0008,
000C,
0008,
0002,
0000,
0008,
0007,
0003,
00FE,
00FC,
00FF,
00FC,
00FB,
00F8,
00F7,
00F7,
00F7,
00F8,
00F6,
00F7,
00F6,
00F6,
00F8,
00F7,
00F6,
0001,
00FC,
00FC,
00FC,
0000,
0000,
00F7,
00F3,
00F5,
00FF,
0006,
00FA,
00F2,
00F8,
0002,
0009,
0007,
00FD,
00FE,
0002,
0007,
0008,
0001,
00FF,
0001,
00FC,
00FF,
0000,
00FE,
00FE,
00F9,
00F8,
0000,
0004,
00FE,
0000,
00F2,
00F8,
0001,
00FF,
0006,
00FD,
00FD,
0004,
0005,
0003,
0002,
0000,
0004,
0005,
0000,
0000,
0000,
0000,
0000,
0001,
0001,
0000,
0000,
0001,
0002,
0001,
0001,
0000,
0002,
0001,
0001,
0001,
0001,
0001,
0003,
0004,
0005,
0004,
0002,
00FD,
00F9,
00FE,
0001,
00FF,
00FC,
00FF,
0006,
0004,
00FC,
00FE,
0002,
0005,
0004,
00FB,
00FB,
00FD,
0000,
00FC,
00F8,
00FC,
00FC,
00FB,
00F9,
00F8,
000C,
0006,
00F9,
00F2,
00EE,
0016,
0014,
0004,
00EB,
00E6,
0011,
0016,
0002,
00EB,
00EC,
0009,
0005,
00FD,
00F8,
00F6,
0005,
00FF,
00FE,
00FD,
00FB,
00FF,
00FF,
00FF,
0000,
0001,
00FF,
00FF,
0000,
00FF,
0000,
0000,
00FF,
00FE,
00FF,
0001,
0000,
00FF,
00FF,
0002,
0002,
0000,
0000,
0001,
0002,
0002,
00F8,
00FC,
0000,
00FF,
0002,
000B,
0011,
000E,
00FF,
00FA,
00FE,
00E6,
00DA,
00E8,
00F1,
00F8,
00FA,
00FF,
0004,
00FF,
00FE,
0006,
0009,
0003,
0001,
00FF,
00FF,
0002,
0001,
0002,
00FC,
00FD,
0000,
00FF,
00FF,
00FC,
00FD,
00FE,
00FB,
00FB,
00FD,
00FF,
0000,
00FC,
00FB,
00FD,
0000,
0001,
00FE,
00FD,
00FD,
00FC,
00FD,
00FC,
0000,
00FC,
00FD,
00FE,
00FE,
0001,
00FB,
00FC,
00FB,
00FA,
00FD,
00FE,
00FD,
00FA,
00FB,
00FD,
00FE,
00FD,
00FA,
00FB,
00FD,
0000,
00FE,
00FF,
00FB,
00F7,
0001,
00FD,
0000,
00FB,
00F9,
00FC,
00F6,
00F0,
00EB,
00FA,
00FF,
00FB,
00FA,
00FF,
000A,
0008,
000F,
0018,
0018,
0010,
00FE,
00FF,
00FF,
00FF,
0000,
00FD,
00FE,
00FF,
00FF,
0000,
00F6,
00F7,
00F6,
00F8,
00F9,
00FB,
00F9,
00F9,
00FC,
00FD,
00FC,
00FA,
00F9,
00FF,
0000,
00FF,
0000,
0001,
00FD,
00FD,
00FD,
00FE,
0000,
00FC,
00FC,
0006,
0006,
0008,
0002,
0001,
0000,
00FF,
0001,
00FE,
0000,
0001,
0001,
0002,
00FE,
00FF,
0003,
00FA,
00F4,
00F9,
00FE,
00F9,
00F7,
00F4,
00FA,
00FC,
0005,
0003,
0003,
0003,
0005,
0007,
0004,
0004,
0000,
00FD,
0001,
0005,
0006,
0003,
0001,
0004,
0000,
0002,
0004,
0002,
00FF,
0000,
0004,
0005,
0004,
00F8,
00FC,
00FF,
00FF,
00FF,
00FC,
00FD,
00FE,
00FD,
00FF,
0001,
0003,
0002,
0000,
00FF,
0003,
0004,
0003,
0002,
0000,
0001,
0000,
00FD,
00FD,
00FD,
00FF,
00FC,
00FB,
00FD,
00FD,
00FD,
00FD,
00FE,
0000,
0000,
00FE,
00FF,
00FE,
0000,
0000,
00FE,
0008,
0007,
00FD,
00F4,
000A,
0018,
0014,
0000,
00FB,
000E,
001C,
0018,
0006,
00FE,
0005,
0011,
0011,
0005,
00FB,
00FF,
0002,
0003,
00FD,
00F6,
0000,
00FE,
0000,
00FF,
00FA,
0003,
0003,
0004,
0004,
00FE,
0002,
0004,
0002,
0001,
0002,
00FE,
0002,
0002,
0001,
00FF,
00FB,
00FC,
00FF,
00FF,
00FD,
00FE,
0002,
0007,
0006,
0006,
0000,
0004,
000C,
000D,
000B,
0003,
0005,
000D,
0011,
000D,
0000,
0000,
0005,
0008,
0008,
00FC,
00F9,
00FB,
00FD,
0000,
00FF,
0004,
0003,
0003,
00FC,
0007,
000A,
0001,
00FD,
00FD,
0006,
0004,
00F8,
00F7,
00FB,
0002,
0003,
00FE,
00FB,
00F9,
0002,
0005,
0005,
0003,
00FB,
0002,
000A,
000C,
0003,
0000,
0002,
0008,
000B,
0002,
0005,
0000,
000D,
0011,
0007,
0008,
0004,
0008,
0005,
00FA,
00FC,
0000,
0002,
0006,
00FD,
0001,
00FE,
00F9,
00F2,
00F9,
00FE,
00FA,
00EF,
00EE,
00FA,
00FD,
00F5,
00E9,
00F6,
0001,
0002,
00F5,
00F8,
0001,
0000,
00FF,
00F6,
00FD,
0000,
00FC,
00FE,
0002,
0001,
0000,
00FF,
0000,
0001,
00FF,
00FE,
00FE,
0001,
00FE,
00FD,
00FB,
00FE,
0002,
00FF,
00FD,
00FD,
0000,
0003,
00FF,
00FD,
00FF,
0001,
0003,
0001,
00FC,
00FC,
00FD,
0001,
00FA,
00FA,
0002,
0001,
0001,
00FD,
000C,
0007,
0001,
0000,
00FD,
00FD,
00F9,
0002,
0002,
00FD,
0002,
0008,
0006,
0001,
0002,
00FF,
00FD,
00FD,
00FE,
00FE,
00FD,
00FC,
00FE,
00FF,
00FA,
00FA,
00F8,
00FA,
00FE,
00FD,
00FD,
00FE,
00FE,
0000,
00FF,
00FE,
00FE,
00FE,
0000,
0001,
0002,
0003,
0000,
0000,
0005,
0002,
00FE,
00FE,
0000,
0002,
00F6,
00F8,
00FA,
0000,
0000,
00FF,
0006,
0000,
00FE,
0000,
0003,
0003,
00FF,
00FD,
00F7,
00FF,
0008,
0000,
00F8,
00FC,
0003,
000B,
0007,
00FF,
0003,
0002,
000A,
000A,
000B,
0000,
0003,
0006,
0003,
0005,
00FC,
0000,
0005,
0000,
0002,
0000,
0004,
000D,
0000,
00FD,
0001,
0004,
000D,
0009,
00FF,
00FF,
0003,
0005,
0003,
0005,
0002,
0004,
0003,
0000,
0000,
00FD,
00FC,
00FD,
00FB,
00FA,
0005,
00FF,
00F8,
00F5,
00FF,
0002,
00F8,
00F0,
00EC,
00F9,
0003,
00F3,
00EC,
00ED,
00F8,
0006,
00FD,
00F9,
00F7,
00FC,
000A,
0003,
0002,
0002,
0008,
0002,
0002,
0004,
0002,
00FF,
0002,
0001,
0002,
0000,
00FE,
0003,
00FF,
0000,
00FC,
00FE,
00FF,
00FD,
0000,
00FE,
0000,
00FF,
00FE,
0000,
0001,
0003,
00FD,
00FE,
00FE,
00FE,
00FE,
00FE,
00FE,
00FF,
00FE,
00FE,
00FD,
00FD,
00FE,
00FD,
00FE,
00FE,
00FE,
00FF,
00FF,
00FF,
00FF,
0000,
0000,
00FF,
00FF;