memory_initialization_radix=16;
memory_initialization_vector=
00FE,
00FF,
00FD,
00FD,
00FC,
00FE,
0001,
0001,
00FD,
00FD,
0002,
0007,
0003,
00FF,
00FE,
00FD,
0003,
0002,
00FE,
00FD,
0002,
0000,
0006,
0003,
0001,
00FE,
0002,
0001,
00FD,
00FF,
0008,
0005,
0000,
00FE,
00FF,
0002,
0001,
00FF,
00FB,
00FA,
00FF,
00FD,
00FE,
00FE,
00FE,
00FE,
00FC,
00FF,
0001,
00FF,
0001,
00FA,
00F9,
00FD,
0003,
00FD,
00F5,
00F4,
00F9,
00FF,
00FF,
00FC,
00F9,
00FC,
00FF,
00FF,
00FF,
00FF,
00FE,
0000,
0002,
0002,
0001,
0002,
0001,
00FF,
0002,
00FF,
00FE,
00FC,
0000,
00FC,
00F6,
00FC,
0001,
00FB,
00F8,
0007,
000D,
0008,
00FB,
0002,
000F,
000A,
00FD,
0000,
00FE,
00FD,
00F8,
00FC,
00FC,
00F6,
00F3,
00FD,
00FE,
001A,
0006,
00E5,
00FA,
00F9,
0011,
0002,
00F8,
0004,
00FC,
00FF,
0004,
0000,
0002,
00FE,
0004,
0003,
00FB,
00FF,
00FC,
0001,
0002,
0001,
0002,
0002,
0003,
0001,
0001,
0004,
0002,
00FF,
00FA,
00FB,
0000,
0000,
0004,
00FF,
00F9,
00FB,
00FC,
0008,
0006,
0000,
00FD,
00FB,
00FF,
0001,
00FF,
0000,
0004,
0000,
0001,
00FE,
0002,
0005,
00FF,
00FF,
00FC,
0000,
0001,
00FD,
00FF,
00FF,
0000,
0003,
00FE,
0002,
0003,
0007,
0006,
0006,
0004,
00FD,
00F8,
0003,
0005,
000C,
00FE,
00F2,
00F9,
0001,
000B,
0006,
00F7,
00FC,
0002,
0006,
000B,
0001,
00FB,
0001,
0002,
0006,
0003,
0000,
00FE,
0002,
0004,
0002,
00FF,
00FB,
00FF,
0004,
0006,
0001,
00FE,
0009,
0014,
000E,
0002,
0004,
0005,
0000,
00F6,
00F7,
00FE,
00FA,
00F5,
00F7,
00F9,
00FD,
0008,
000C,
0003,
0003,
0002,
000E,
0013,
000E,
0005,
0001,
000A,
0018,
0010,
0007,
0003,
0007,
000A,
000C,
0008,
00FE,
0003,
0006,
0005,
00FF,
0000,
0003,
00FE,
00FE,
0002,
0004,
0004,
00FD,
0000,
0002,
0002,
00FC,
0003,
0006,
0005,
0002,
00FF,
0007,
0004,
00FE,
0006,
0006,
0005,
00F9,
00FE,
0004,
0000,
0001,
000C,
0007,
0006,
0006,
00FF,
0001,
0009,
0002,
0007,
0003,
00FF,
0005,
00FD,
0000,
0003,
0005,
0005,
00FD,
0002,
0002,
0006,
0005,
0007,
0000,
00F9,
0000,
0004,
0003,
00FD,
00EE,
00F3,
00FE,
0000,
00FC,
00EB,
00ED,
00FD,
0001,
0004,
00FB,
00F6,
00FE,
0004,
0008,
0002,
00FC,
00FC,
00FE,
00FB,
00FD,
00FD,
00FD,
00FE,
00FF,
0000,
00FB,
00FF,
00FC,
00FF,
00FB,
0006,
000A,
00FB,
00FB,
0003,
0006,
0001,
00FC,
00FF,
0008,
0007,
00FF,
00FF,
0000,
0001,
00FE,
0001,
00FE,
00FF,
00FF,
00FC,
00FE,
0003,
0003,
0002,
00FE,
0003,
0001,
0002,
0001,
00FF,
0001,
0000,
0002,
0001,
00FE,
00FF,
00FE,
00FF,
00FE,
00FE,
0001,
00FF,
0004,
0006,
00FE,
00FD,
00FC,
00FC,
0004,
00FE,
00FA,
0000,
00F8,
00F6,
00FA,
00FA,
0000,
00FE,
00FB,
00FD,
0001,
0005,
0005,
0003,
00FA,
00FB,
00FD,
0003,
000D,
0005,
00FF,
0003,
000B,
0015,
0010,
0006,
00FF,
00FE,
00FF,
0001,
00FF,
0004,
0005,
0009,
000A,
0004,
0001,
0003,
0002,
00FF,
00FF,
00FE,
0001,
0001,
0002,
0002,
00FA,
00FE,
0006,
0006,
0003,
00F9,
0003,
0008,
0003,
0000,
00FF,
0002,
0001,
0000,
0000,
0002,
00FA,
00F2,
00F5,
00FD,
00FD,
00EF,
00E3,
00E5,
00F6,
00F7,
00EA,
00E0,
00E6,
00F6,
00FC,
00F5,
00F0,
00F7,
0002,
0007,
0002,
00FF,
0005,
0008,
0002,
00EE,
00FA,
0006,
0003,
00F5,
00E6,
0019,
0006,
00FB,
00F5,
0018,
0027,
00E0,
00F4,
0003,
0011,
00ED,
00F2,
0002,
0005,
0001,
00ED,
0003,
00FF,
00FE,
00FE,
00FC,
00FA,
00FC,
0002,
0003,
00FA,
00FA,
00FE,
00F9,
00F5,
00F0,
0000,
0003,
0000,
0003,
000C,
000D,
0003,
0001,
0002,
0003,
00FF,
00FC,
00FF,
00FE,
0005,
0003,
00FE,
00FC,
00EF,
00FF,
0004,
0001,
00FD,
00F1,
00F9,
0005,
0004,
0002,
00FF,
0002,
0003,
0003,
0005,
0001,
0005,
0003,
0001,
00FE,
00F9,
00F9,
0000,
0002,
00F9,
000F,
0001,
00FD,
00FD,
00FA,
0002,
0003,
0004,
0002,
0001,
0003,
0004,
0003,
0000,
0000,
00FD,
0000,
00FF,
00FC,
0003,
0002,
0002,
0002,
00FF,
0002,
0004,
0004,
0006,
0000,
0002,
0004,
0007,
000A,
0005,
0000,
00FF,
0004,
0009,
0006,
0002,
0004,
0007,
0007,
0003,
00FD,
00FD,
00FF,
00FE,
00FF,
0001,
0000,
00FF,
0001,
0001,
0005,
0006,
00FA,
0000,
00FE,
00FC,
0000,
00FC,
0006,
0002,
00FA,
00FC,
00FB,
0005,
0005,
00FD,
0006,
000C,
00FE,
0002,
0000,
000C,
000F,
00FA,
00F9,
0004,
0008,
0007,
00FA,
00F1,
0005,
0002,
0006,
0000,
00F5,
0000,
0004,
0005,
0001,
00FA,
0001,
00FE,
00FF,
00FC,
00F9,
0000,
00FD,
0005,
00FE,
00FB,
0002,
0003,
000D,
0000,
00FA,
0001,
00FC,
0000,
00FE,
00FB,
00FC,
00FB,
0004,
0005,
0000,
0000,
0002,
0003,
00FE,
00FB,
0000,
0003,
0003,
00FC,
00FE,
00FE,
00F9,
00FA,
00FA,
0001,
0000,
00FE,
0006,
0008,
0003,
0002,
0004,
0007,
0000,
0001,
00FE,
00FD,
0002,
0003,
0005,
0000,
00FB,
0000,
0003,
0006,
0006,
0006,
000A,
0006,
0005,
0003,
0005,
0000,
00FC,
00FF,
00FF,
00FE,
00FC,
00FE,
0003,
00FB,
00FB,
00FD,
0000,
0000,
00FF,
0001,
0003,
0006,
00FE,
00FF,
0000,
0002,
0004,
00FD,
00FE,
00FF,
00FF,
0001,
00FE,
0001,
0000,
0001,
0002,
0000,
00FE,
00FD,
0006,
0000,
00FD,
00FD,
0005,
000D,
00FF,
00FF,
0001,
00F9,
00F8,
00FD,
0004,
0005,
0001,
0002,
0003,
0007,
0007,
0006,
0006,
0003,
0004,
00FA,
000B,
0006,
0006,
00FE,
000A,
000B,
00F1,
00E7,
0001,
00F8,
000F,
001D,
00E4,
00FE,
00ED,
00EB,
0004,
00F9,
0002,
00FD,
00F3,
000B,
0008,
00F9,
0002,
0000,
0002,
0002,
0000,
0001,
00FD,
0000,
0002,
00FF,
00FF,
00FF,
0009,
000A,
0004,
0001,
0006,
0010,
000C,
0003,
0004,
0004,
0006,
0001,
00FE,
0002,
0001,
00FF,
0001,
0006,
0002,
00FF,
00FD,
00FC,
0003,
0000,
00FA,
00F8,
00FE,
0001,
00FE,
00FB,
00F9,
00FE,
00FF,
00FD,
00FF,
00FC,
0002,
0002,
00FE,
00FE,
00F9,
0001,
0008,
0002,
00FE,
00F7,
00FB,
0006,
00FD,
00FC,
00F7,
00F4,
0002,
0000,
0000,
00F7,
00F5,
0004,
00FF,
0000,
00FF,
00F8,
0009,
0000,
00FE,
00FE,
0000,
00FF,
00FE,
0000,
0001,
0004,
0000,
0001,
0001,
00FF,
0000,
00F9,
0004,
0003,
0000,
00FA,
00FD,
0002,
00FE,
00FD,
00FD,
0003,
0004,
0001,
0002,
0003,
0000,
0005,
0002,
0003,
0003,
00FD,
0002,
00F3,
00EE,
00FF,
00FE,
0005,
000D,
00F4,
0000,
0001,
0008,
0013,
00FC,
00FE,
0000,
0001,
00FF,
00FD,
00FE,
0000,
00FF,
00F8,
00F4,
00F9,
0001,
00FB,
00F3,
00F1,
00F7,
0000,
00F8,
00F4,
00F8,
00FC,
0000,
00FA,
00FA,
00FF,
0000,
00FC,
0000,
0006,
00F9,
00FD,
0004,
0001,
00FC,
00FF,
0002,
0003,
0001,
00FD,
0006,
0005,
00FD,
00FF,
00FF,
0004,
00FA,
00FB,
0001,
0001,
00FE,
00FD,
00FD,
00F9,
00FC,
00FC,
00FE,
00FF,
00FB,
00FB,
00FA,
00FD,
00FF,
00FA,
00F9,
00F7,
00F8,
00FE,
00FC,
00FC,
00FB,
00FA,
00FF,
00FD,
00FC,
00FD,
00FC,
00FF,
0001,
0001,
0005,
0004,
0003,
0003,
0003,
0008,
0006,
0004,
0004,
0003,
0005,
0005,
0002,
0002,
0000,
0000,
0000,
0000,
0003,
0000,
0000,
00FF,
00FF,
0001,
0008,
000C,
0007,
0001,
0000,
0009,
000B,
0009,
0002,
00FB,
0002,
0007,
000B,
0008,
00FB,
0001,
0006,
0009,
0006,
00FB,
00FD,
00FF,
0000,
00FF,
0001,
00FF,
00FE,
0001,
0002,
0002,
00F9,
00F6,
00F9,
00FD,
00FD,
00F4,
00F3,
00FC,
00FF,
00FE,
00F9,
00FE,
0003,
0002,
0002,
0002,
0007,
0006,
0002,
00FE,
00FD,
0003,
0002,
00FE,
00FB,
0000,
0004,
0002,
00FE,
000A,
000E,
000C,
0004,
0001,
0005,
0007,
0001,
00F9,
00FF,
0002,
0002,
0004,
0004,
0002,
0003,
0000,
00FA,
00FB,
00FF,
0001,
00F7,
00F9,
00FF,
0002,
0013,
00F9,
00FA,
0001,
0000,
000B,
0000,
0001,
0002,
00FF,
0002,
0004,
0005,
0000,
0000,
00F4,
00FA,
00FD,
00FD,
00FB,
00F2,
00EF,
00EC,
00F7,
00FE,
00F4,
00EA,
00DF,
00E6,
00F4,
00F7,
00F3,
00F2,
00F2,
00F3,
00F9,
00F8,
00FD,
00FF,
00FD,
0001,
00FE,
00FC,
00FF,
00FF,
0002,
00FD,
00FE,
00FE,
00FE,
00FE,
00FB,
00FB,
00FD,
00FD,
00FD,
00FD,
00FF,
00FF,
00FC,
00FB,
00FD,
00FD,
00FC,
00FA,
00FE,
00FF,
00FF,
00FF,
00FF,
00FF,
00FE,
00FF,
00FF,
00FF,
0000,
00FE,
00FF,
0000,
0000,
0000,
00FD,
00FD,
00FE,
00FF,
0002,
0000,
0000,
0000,
0001,
0003,
0001,
0000,
0007,
0004,
00FF,
00FC,
00FB,
0004,
000A,
0001,
0001,
00F5,
00F9,
0003,
00FE,
00FF,
00F9,
0005,
000A,
00FA,
0002,
0003,
0003,
0001,
0000,
0001,
0001,
0002,
0003,
0001,
00FF,
00FC,
00FA,
00FE,
0004,
00FA,
00EE,
00F4,
00FC,
0005,
00FA,
00F4,
00FB,
00FE,
0006,
00FF,
00FA,
00FE,
00FE,
00FC,
0005,
0003,
00FD,
00FF,
00FE,
0002,
00F0,
000B,
0008,
00F9,
00F5,
00EF,
001A,
000A,
00FE,
0001,
00F9,
0000,
00F8,
0002,
0001,
00FB,
00FE,
0004,
0003,
0002,
0003,
00FD,
00FB,
0002,
0004,
0003,
00FB,
00FA,
0004,
0005,
0003,
00FC,
00FC,
0003,
0004,
0002,
00FC,
00F9,
0001,
0001,
0002,
00FD,
00FA,
00FE,
00FC,
0001,
0008,
0002,
0000,
00FE,
00F9,
0000,
0000,
0000,
00FF,
00F5,
00FA,
0005,
00FD,
0002,
00FE,
00FE,
0005,
0002,
0003,
00FD,
00F9,
00FC,
0005,
0004,
0005,
0002,
0000,
00FE,
00FB,
00FA,
00FA,
00FB,
00FE,
0000,
0002,
00FC,
00FA,
00FF,
0003,
0004,
0001,
00FF,
0002,
0002,
0003,
0002,
0003,
0006,
0008,
00F9,
00F0,
00FB,
00F4,
00F0,
0038,
0018,
00FE,
0000,
00E2,
00F5,
0009,
000A,
0008,
00FD,
00F2,
0007,
0008,
00FA,
0001,
00FC,
00FF,
00FE,
0005,
0001,
00FC,
0002,
0004,
0004,
00FC,
00F5,
0003,
0003,
0001,
00FA,
00F5,
00FF,
0000,
0008,
0002,
00FA,
00FB,
00FE,
000A,
0008,
0000,
0000,
0002,
00F7,
0002,
000E,
000E,
0004,
0001,
0010,
000B,
0003,
00FF,
0007,
0000,
00F5,
00FB,
0003,
00FB,
00F3,
00FF,
0006,
0004,
00FF,
00FC,
0003,
0001,
00FD,
00FF,
00FF,
00FF,
00FF,
00FF,
00FF,
00FF,
00FF,
00FF,
00FF,
00FF,
00FF,
00FF,
00FF,
00FF,
00FF,
00FF,
00FF,
00FF,
00FF,
00FE,
00FF,
00FE,
00FF,
00FF,
00FD,
0001,
00FE,
0003,
0001,
0001,
0000,
00FB,
0007,
0001,
00FD,
00F7,
0003,
000E,
0007,
00FE,
00F9,
000B,
000A,
0001,
00FE,
0001,
000E,
0003,
0000,
0005,
0006,
0009,
0005,
00FC,
0006,
0002,
00FF,
0003,
00FE,
0001,
0001,
00F4,
00F9,
000B,
0002,
0003,
00FB,
00FF,
0007,
0002,
0002,
00FF,
0000,
00FF,
00FF,
0000,
0003,
0003,
0002,
0000,
0000,
0003,
0003,
0005,
0003,
0002,
0006,
0006,
0008,
0002,
0004,
0005,
0003,
0004,
0004,
0003,
0002,
0000,
0003,
0000,
00FE,
0000,
0003,
0002,
0001,
00F9,
00FF,
0007,
0001,
00FD,
00F6,
00FB,
0003,
0005,
0001,
00FD,
00FB,
0003,
0005,
0000,
0001,
00FD,
00FE,
0001,
0008,
0008,
0007,
0002,
0001,
0005,
0004,
0001,
00FD,
00FE,
0004,
00FE,
00FA,
00FA,
00FB,
0000,
00FC,
00FB,
00FC,
00FB,
00FF,
00FD,
00FE,
00FD,
00FE,
00FC,
00FF,
0001,
00FC,
00FA,
0002,
0004,
0005,
0000,
0001,
0001,
0002,
0003,
00FD,
0002,
00FF,
00FD,
00FD,
00FD,
0002,
0000,
00FE,
0001,
0003,
0004,
00FE,
0002,
00FD,
00FD,
00FC,
00F9,
00F0,
00EE,
00F1,
00F8,
00FE,
00FA,
00F2,
00F0,
00F6,
00FD,
0008,
0006,
00FB,
00FA,
00FB,
0009,
0009,
00FF,
00FC,
00F9,
0001,
0004,
00FE,
00FC,
00F6,
00F9,
0008,
001B,
0006,
00FB,
00F7,
00FE,
000C,
0003,
00FB,
00FA,
00F7,
0001,
0006,
0000,
00FF,
00FD,
0002,
00FF,
00FC,
000B,
0005,
00F8,
00FE,
0000,
0018,
000C,
00F0,
00FB,
0006,
0015,
00FD,
00DE,
00F9,
0003,
0006,
00F5,
00EB,
00FD,
0002,
0005,
0001,
00F9,
00FC,
0002,
0001,
00FF,
0000,
00FD,
00FE,
0002,
0006,
0007,
0002,
0005,
0007,
000E,
0008,
0005,
0004,
00FE,
000A,
0006,
00FE,
0004,
0005,
0008,
0004,
00FF,
0002,
0002,
0002,
0000,
00FF,
0000,
0003,
0001,
0005,
0001,
00FC,
00FF,
00F9,
00FB,
00FD,
00FE,
0006,
00FA,
00FB,
0000,
00FA,
00FF,
0005,
0003,
00FF,
00FB,
00FA,
0007,
000D,
0005,
0005,
000C,
0018,
0017,
0005,
00FB,
00F8,
00F2,
00F5,
00F4,
00FC,
00FB,
0003,
0000,
00FE,
00FB,
00FA,
00FA,
00F9,
00FB,
0007,
0005,
00FE,
00FE,
0003,
0008,
00F8,
00FB,
0001,
00FD,
00FE,
00F3,
0005,
0002,
00FA,
00F7,
00F8,
0007,
00FE,
00FC,
00F7,
00FC,
00FC,
00F9,
00FC,
00FF,
0002,
0002,
00FF,
0003,
00FF,
0000,
00FB,
00FB,
0009,
0000,
0002,
00F8,
00FF,
000D,
00FE,
00FD,
00FA,
0002,
0007,
00FD,
00FE,
00FC,
0002,
0003,
0002,
00FF,
0000,
0000,
0001,
0001,
0002,
0006,
0005,
0002,
00FE,
0002,
0003,
0000,
00FD,
0001,
00FD,
00FD,
0004,
0001,
0000,
0002,
0003,
0006,
0008,
00FA,
0004,
000B,
0000,
00FF,
00F8,
00FD,
0015,
0008,
00FF,
00FF,
00DE,
0006,
000F,
0002,
0007,
00DF,
00F3,
000E,
0003,
000A,
00F4,
00EF,
0002,
0005,
00FC,
0001,
0000,
00FE,
00FF,
0005,
0003,
00FE,
00FE,
0001,
0007,
00FD,
00FA,
00FE,
0003,
0004,
00FA,
00FE,
00FF,
0000,
00FF,
00FE,
0000,
0001,
00FF,
00FE,
00FE,
00FD,
0001,
00FE,
000E,
0001,
00E8,
00DE,
00EE,
000C,
0009,
00F8,
00E1,
00E4,
0008,
0007,
000C,
000A,
00FC,
0008,
0005,
0003,
000B,
0004,
0001,
0004,
0003,
0005,
0003,
0004,
0003,
00FD,
00FD,
00FE,
000B,
000A,
0004,
00FF,
00FD,
0003,
0000,
0003,
0000,
0000,
0004,
00FF,
0002,
0000,
0001,
0000,
000B,
0003,
00FB,
0002,
00FB,
0000,
0007,
0006,
0002,
00F2,
00D1,
00F4,
000F,
000C,
00FE,
00E2,
00EC,
0006,
0008,
0000,
0001,
00FA,
00FE,
0000,
0001,
0005,
0004,
00FF,
00FA,
00FA,
00FC,
0000,
00FD,
00FD,
00FD,
00FD,
0006,
0004,
00FE,
00FE,
0000,
0005,
0001,
00FC,
00FF,
0003,
0000,
00FE,
00FF,
00FF,
00F2,
0005,
0002,
00FE,
00FA,
00EE,
0002,
0000,
00FE,
00FA,
00F9,
0006,
0007,
00FE,
00F8,
00F9,
0003,
0005,
00FF,
00FF,
0001,
0004,
0002,
00FF,
0004,
0004,
000D,
0004,
0000,
0005,
000D,
000E,
0002,
00F9,
0002,
000A,
0007,
00F5,
00F3,
00FD,
00FF,
00F9,
00F9,
00F9,
00F9,
00F8,
00FB,
00FB,
00F8,
00F7,
0008,
000E,
00FE,
00FE,
00F9,
0014,
000F,
00F8,
00FA,
0000,
0008,
0006,
0007,
0004,
00FD,
00FF,
000B,
0007,
0001,
0005,
0001,
0004,
00FE,
0001,
0001,
0002,
0002,
0003,
0001,
0000,
0001,
0001,
0001,
0000,
0000,
0000,
0000,
0001,
0001,
0000,
00FF,
00FF,
0001,
0001,
00FF,
00FE,
00FE,
0001,
0001,
0001,
0001,
000D,
000C,
00FE,
0002,
00FA,
0001,
0016,
0006,
0001,
00F9,
00F4,
0007,
0002,
0000,
00FE,
00F9,
00FF,
0002,
00FE,
0002,
00FC,
0000,
0002,
00FF,
00FF,
0000,
0000,
00FF,
000B,
0008,
0000,
0001,
0003,
000B,
0001,
00F9,
00FD,
0001,
0001,
00FB,
00F6,
00FE,
00FF,
0000,
0002,
0002,
0001,
0002,
00FE,
00F2,
00FC,
0003,
0001,
00EB,
0017,
0000,
00F9,
00FE,
000F,
002B,
00F6,
00F0,
00FB,
0001,
00F8,
00F6,
0004,
00FE,
0000,
00FC,
0004,
0003,
0001,
0000,
0004,
0000,
00FA,
00F9,
00FD,
00FE,
00FC,
00FA,
00F6,
00F9,
00FA,
00FE,
0000,
00FC,
00FD,
00FA,
0002,
0007,
0003,
00FC,
00FE,
00FD,
0001,
0001,
0001,
0000,
0002,
0002,
0001,
0001,
0002,
0001,
00FF,
00FE,
00FE,
0000,
0001,
00FF,
00FE,
00FB,
0000,
0002,
00FF,
0000,
00FD,
0000,
0000,
00FC,
00FF,
0004,
0001,
00FE,
0007,
0006,
0002,
00FA,
00FA,
0008,
0009,
0000,
00FC,
00F6,
00FC,
0002,
0002,
0003,
0000,
0000,
0000,
0001,
0004,
0001,
00FF,
00FB,
0001,
0001,
0000,
00FE,
00FE,
0000,
0000,
00FF,
00FE,
00FE,
0002,
0004,
0002,
0001,
0001,
0000,
0000,
00FE,
00FE,
00FD,
0001,
0001,
00FF,
00FF,
00FF,
0002,
0006,
0000,
00FC,
00FE,
0002,
0000,
00F5,
00F8,
00FC,
00F4,
00F5,
0002,
0004,
0002,
00F9,
0002,
000F,
0008,
00FF,
0002,
0005,
0009,
0002,
0002,
0002,
0002,
0000,
00FA,
00FE,
00FD,
00FC,
00FE,
00FB,
00FD,
00F7,
00F6,
00FB,
00FB,
00FD,
00FE,
00F9,
00F9,
00FC,
0002,
0002,
00FE,
00FE,
0003,
0007,
00FF,
00FE,
0001,
0003,
00FF,
0001,
00FB,
0000,
00FF,
0000,
0001,
00F9,
00FD,
0003,
0001,
00FF,
00FE,
0000,
0003,
0000,
00FE,
00FF,
0000,
00FF,
00FF,
0004,
0004,
00FC,
00FF,
00FD,
0000,
0000,
00FE,
0000,
00FE,
00F5,
00FF,
0000,
0002,
0001,
00FC,
0008,
0006,
00FE,
00FE,
00FD,
0003,
0000,
0000,
0000,
0000,
0001,
0000,
0002,
0003,
0002,
0008,
0004,
0000,
0006,
0002,
0005,
0004,
000C,
0008,
0002,
00FF,
00FE,
0006,
0001,
0001,
0002,
0000,
0002,
0003,
0000,
00FF,
00FF,
00FD,
00FE,
0001,
00FE,
00FA,
00F9,
00FD,
00FB,
00F6,
00F4,
00F4,
00F8,
00F4,
00F1,
00EF,
00F1,
00F5,
00F7,
00F4,
00F1,
00F3,
00F7,
0003,
0001,
00FF,
00FD,
0001,
0003,
00FD,
00FB,
00FC,
00FF,
0001,
0000,
00FF,
00FC,
00FA,
0002,
0002,
0001,
00FF,
00FE,
0000,
0001,
00FE,
00FD,
00FC,
0001,
00FD,
00FC,
00FD,
0003,
0002,
00FE,
00F4,
00FA,
000A,
00FF,
00F7,
00EF,
0000,
000F,
00FF,
00F8,
00FD,
0004,
0008,
00FE,
00FD,
0004,
0006,
000A,
0000,
00FF,
00FF,
00FB,
00FC,
0001,
0000,
00FE,
00FB,
00FB,
0000,
0000,
0000,
00FC,
00FE,
00FE,
00FC,
00FD,
00FD,
00FE,
00FF,
00FE,
00FF,
0000,
0000,
00FC,
00F4,
00F8,
00F1,
00F7,
00F6,
00F5,
0007,
0006,
0002,
0001,
00FF,
000D,
000E,
0005,
00FF,
00FD,
0003,
0001,
0000,
00FF,
00FF,
0001,
0001,
0001,
00FC,
00FF,
00FD,
00FC,
00FC,
00FE,
00FF,
00FE,
00FC,
00FE,
00FB,
00FF,
00FD,
00FA,
00FB,
00FC,
0000,
00FE,
00FE,
00FC,
0001,
0003,
0002,
0000,
00FD,
0000,
0002,
0005,
0000,
00FC,
0004,
0007,
0006,
0000,
00FD,
000D,
0015,
000E,
0003,
0003,
0009,
000A,
0008,
0009,
0005,
0007,
0007,
000F,
0009,
0003,
0000,
0000,
0005,
00FE,
00FD,
0002,
0003,
0006,
00FD,
00FE,
00FF,
00FF,
0002,
00FD,
00FE,
00FE,
00FE,
0003,
00FD,
00FD,
00FF,
00FE,
0001,
00FE,
00FD,
00FE,
0001,
0000,
00FD,
00FE,
00FE,
00F5,
00EE,
00F7,
0001,
000C,
0004,
00FA,
000E,
0013,
0000,
0002,
00FE,
0009,
0008,
00FC,
00FE,
00FB,
00F7,
00F9,
0004,
0006,
0004,
0003,
0002,
0000,
0007,
0004,
0004,
0003,
00FD,
00FF,
0001,
0002,
0000,
0005,
0000,
00FF,
0004,
0001,
0002,
0003,
00FD,
0000,
00FE,
0000,
0000,
00FE,
00FF,
00FE,
00FD,
00FA,
00F9,
00FA,
00FE,
00FC,
0015,
000E,
00F1,
00FD,
00FF,
000B,
000E,
00FB,
00FC,
00FD,
00F5,
0005,
0007,
00FF,
0003,
0004,
0005,
0006,
0006,
0006,
0003,
0006,
000A,
0004,
0004,
00FB,
00F9,
00FC,
00FD,
00FF,
00FA,
00F5,
00F9,
00FF,
0000,
00FF,
00FE,
0001,
0001,
0004,
0001,
00FE,
00FC,
0003,
0007,
0001,
0006,
0004,
0006,
0012,
0010,
0011,
000F,
0008,
0009,
000B,
000D,
0008,
0006,
000A,
000B,
000C,
0007,
0004,
0000,
0001,
0003,
0004,
0000,
0004,
0003,
0006,
0009,
0007,
0004,
0005,
000A,
000D,
0008,
00FD,
0005,
000B,
0008,
0001,
0001,
0008,
0009,
0007,
0003,
00FF,
0000,
00FC,
00FC,
00FB,
00FC,
00FC,
00FA,
00FB,
00FD,
00FA,
00FA,
00FF,
0000,
00FF,
0002,
0001,
0001,
0002,
0002,
00FF,
0000,
0003,
0003,
0000,
00F9,
00EA,
00FC,
0007,
0003,
00E8,
0000,
002E,
0021,
0005,
001B,
0032,
0023,
0001,
00F2,
000B,
00FC,
00FB,
00F9,
00FB,
00FC,
00F7,
0003,
0000,
00FF,
0004,
0005,
0001,
0001,
0001,
00FF,
00FE,
00FE,
0000,
00FF,
00FD,
00FE,
00FF,
0001,
0000,
00FE,
0001,
00FE,
00FF,
00FF,
00FF,
0001,
00FF,
0000,
0001,
0000,
0002,
00FF,
00FF,
0000,
00FC,
00FC,
00FA,
00FD,
0000,
00FB,
00F8,
00F8,
00FE,
0000,
00F8,
00FA,
00FD,
0000,
00FF,
00FC,
00FD,
0000,
0002,
0002,
0001,
0001,
00FF,
0004,
0001,
00FD,
00FE,
0001,
0004,
0004,
0009,
0011,
0005,
00FF,
00FF,
0003,
000A,
0005,
0000,
0000,
0003,
0003,
0001,
0003,
0004,
0004,
0004,
0003,
0004,
0001,
0004,
0007,
0003,
00F3,
00F8,
0001,
0009,
00FA,
00F0,
00F5,
0004,
0007,
00FE,
00F6,
00F8,
0000,
0006,
0002,
00FF,
00FF,
0005,
0003,
0007,
0004,
00FF,
0005,
0003,
0004,
0000,
00FE,
0000,
00FA,
00FA,
00FA,
00FD,
000C,
0007,
000B,
0007,
0007,
0005,
0000,
0006,
00FE,
00F9,
00FF,
0005,
00FD,
00FB,
0009,
00FF,
000C,
0001,
00EF,
0008,
00FC,
0003,
00FF,
00F2,
0001,
0003,
0003,
000C,
0005,
00FB,
0002,
00FE,
0008,
0005,
0000,
0001,
00FC,
00F5,
00FB,
00FF,
00FA,
00FF,
0006,
0001,
0002,
00FA,
0003,
0008,
0003,
0001,
00FC,
00FB,
00FF,
0002,
0001,
0002,
0002,
0004,
0006,
0004,
0005,
0002,
0002,
0002,
0000,
0000,
00FE,
0001,
00FE,
00FD,
0002,
000B,
0008,
0000,
00FE,
00FD,
00FB,
00F7,
00F6,
00FC,
00FC,
00FB,
0000,
0003,
0002,
0001,
00FE,
0002,
0002,
0000,
00FF,
00FF,
00FD,
0001,
0003,
0000,
0003,
00FC,
0000,
0006,
0000,
0003,
00FC,
00FC,
0004,
00FF,
00FF,
00FF,
00FF,
0003,
0001,
0003,
0003,
0003,
00FD,
00FD,
00FA,
00F6,
00FC,
00F7,
0000,
0002,
00FF,
0001,
0003,
0000,
0003,
0002,
0001,
0003,
00FF,
0002,
0000,
0001,
00FD,
00FE,
00FF,
00FF,
00FD,
00FF,
0000,
0000,
00FF,
00FE,
00FF,
00FE,
00FC,
00FC,
00FB,
00FD,
0003,
0001,
00FE,
00FE,
00FE,
0002,
00FF,
00FD,
00FD,
00FD,
0008,
0004,
00FA,
00FB,
0002,
00F5,
00FA,
0013,
0014,
0008,
0005,
001B,
0026,
00FF,
00EF,
00FF,
00FB,
00EE,
00F5,
0000,
00FC,
00FD,
0003,
0005,
00FC,
00FA,
00FA,
00FC,
00FA,
00FA,
00FB,
00FB,
00FB,
00F8,
00F9,
00FB,
0001,
0004,
00FC,
00FE,
0000,
000F,
0011,
0007,
0007,
0000,
0003,
0001,
00FD,
00FF,
0001,
00FE,
00FF,
0003,
0003,
00FF,
00FE,
00FF,
0004,
0002,
00FF,
0000,
0000,
0002,
0000,
0000,
0001,
00FF,
0001,
0000,
00FF,
0001,
0000,
0001,
0000,
00FF,
0001,
0005,
0003,
0001,
0000,
00FE,
0003,
0003,
00FF,
0000,
00FD,
0003,
0003,
00FE,
00FF,
00FE,
0003,
0001,
0003,
0001,
0001,
0002,
0001,
0002,
0000,
0000,
0005,
0003,
0002,
0000,
0001,
0004,
0001,
0001,
00FE,
00FD,
00FC,
00F9,
00FC,
00FE,
00FF,
0001,
0000,
0002,
0000,
0000,
0003,
0000,
0000,
00FF,
00FE,
0002,
00FE,
00FE,
0001,
0004,
0008,
0006,
0003,
00FC,
00FD,
0000,
0003,
0002,
0000,
0001,
0000,
00FE,
0003,
00FE,
0003,
0001,
0001,
0001,
0002,
00FB,
00FA,
0003,
0002,
0003,
00FE,
00F4,
0005,
0004,
0009,
000A,
0001,
000F,
0004,
0001,
00FE,
00FD,
0007,
00FE,
0000,
00FE,
00FC,
0005,
0002,
0005,
0002,
0002,
0003,
0002,
0007,
00F7,
00EE,
00F9,
00FE,
00FA,
00F2,
00F0,
00F0,
00F3,
00FE,
0008,
0008,
0006,
0001,
0004,
0008,
0008,
0006,
0008,
0000,
00FA,
000D,
0004,
0000,
0003,
00F6,
00FE,
00F9,
0002,
0002,
00F1,
00EF,
00F6,
0005,
00FB,
00FD,
00F6,
00FF,
0002,
00FB,
000A,
0004,
0005,
00FF,
0002,
0007,
0004,
0003,
0003,
0006,
000D,
0007,
0007,
0003,
00FD,
00F3,
00F2,
00F5,
00F9,
0000,
00F9,
00FE,
00FF,
00FE,
0006,
0003,
0006,
0008,
0006,
00FF,
0002,
00FE,
00FE,
00FE,
00FE,
0000,
00FC,
00FC,
00FC,
00FE,
0001,
00FD,
00FE,
00FC,
00FB,
00FE,
00FA,
00FC,
00F9,
00FA,
00FF,
00FD,
00FD,
00FC,
00FF,
0002,
0007,
00FF,
00FD,
0000,
0002,
0009,
0003,
0002,
0001,
00FA,
00F8,
00FD,
0001,
0000,
0004,
0000,
0001,
0001,
00FE,
0004,
0003,
0004,
00FD,
0002,
00FF,
00FC,
00F8,
0000,
00FA,
00F6,
00F6,
00FD,
0004,
00F8,
00F4,
0000,
0005,
0003,
00F9,
00FA,
0002,
0003,
0001,
00FD,
00FF,
0002,
0000,
0000,
0000,
0000,
0000,
00FF,
00FF,
0000,
0000,
0000,
00FF,
00FF,
0000,
0001,
0000,
00FF,
00FF,
0000,
00FF,
00FF,
00FF,
00FF,
0000,
0000,
00FF,
00FF,
00FE,
0003,
0005,
0000,
0001,
0003,
0002,
0003,
00F6,
00FD,
0000,
0004,
0000,
00EC,
00FA,
0001,
0001,
0002,
00F3,
00F5,
00FE,
0003,
0006,
0001,
00FD,
0001,
00FF,
00FD,
00F9,
00F3,
0000,
00FF,
00FC,
00FB,
00F2,
0002,
0000,
0003,
0016,
00FF,
000B,
0000,
0003,
000F,
00F3,
00FD,
00FF,
00FF,
00FA,
00E9,
00FB,
0003,
0006,
0009,
0004,
0004,
00FD,
00FF,
00FF,
00FD,
0000,
0001,
0002,
0003,
00FE,
0001,
0003,
0005,
0003,
0003,
0002,
0002,
0006,
0006,
0003,
0002,
0001,
0000,
0003,
0004,
0000,
0002,
00FD,
00FB,
0003,
0002,
0001,
0005,
00FE,
00FC,
00FF,
0000,
0007,
0005,
0000,
0000,
0002,
0008,
0007,
0005,
0006,
00FA,
00F8,
00F9,
0000,
0004,
00FC,
00FA,
00FA,
0001,
0003,
0003,
0003,
0002,
0003,
0002,
0002,
0004,
0004,
0001,
0000,
0000,
0004,
0003,
0001,
00FF,
0000,
0000,
0000,
0001,
0000,
0001,
0002,
0004,
0004,
0001,
0004,
0002,
0006,
0004,
0002,
0003,
0001,
0001,
00FC,
00FE,
0005,
0002,
00FE,
00FD,
00FE,
00FE,
0001,
00FC,
0003,
0002,
00FE,
0001,
0005,
0006,
0002,
00FE,
00FE,
0005,
0000,
0004,
00FD,
00FA,
00FF,
00FD,
0003,
0000,
00FB,
00FC,
0000,
0003,
0008,
0009,
0002,
0000,
00FB,
0007,
000A,
0003,
0002,
00FE,
00FF,
0009,
0004,
0006,
0002,
00F8,
00FD,
00FE,
0001,
0000,
00FC,
00F4,
00F9,
00F8,
00FA,
0005,
00F1,
00F6,
00F8,
000C,
00FE,
00EE,
00F9,
00F8,
0001,
0000,
00FC,
00FF,
0009,
00F9,
00FD,
000A,
0004,
000C,
00FA,
0004,
000A,
0002,
000B,
0005,
0003,
00FD,
00FD,
0004,
0001,
0003,
00FB,
00F6,
0006,
0005,
0003,
00FC,
00F3,
0002,
0005,
0002,
00FE,
00F7,
00FD,
0001,
0002,
00FE,
00FB,
00FE,
0001,
0001,
0002,
0001,
0002,
000B,
0001,
0001,
0000,
00FC,
0004,
0003,
0008,
0006,
00F8,
00FD,
0005,
0005,
00FD,
00F6,
00FE,
0000,
00FE,
00F8,
00FB,
0001,
00FC,
00FD,
0002,
0006,
0006,
0000,
00FD,
00FA,
00FD,
00FC,
0001,
00F9,
00F5,
00F8,
00FC,
0000,
00FF,
00FB,
00FF,
0001,
0001,
0004,
0005,
0006,
0002,
00FC,
0007,
0005,
0003,
00FC,
00F6,
0019,
00E6,
0000,
00FC,
0004,
002D,
00D1,
0003,
0004,
00F3,
000F,
00F0,
0002,
0000,
00F9,
0007,
0006,
00FC,
00FF,
0003,
0000,
00FD,
0000,
0001,
00FC,
00F8,
00F5,
00FB,
00FD,
0009,
000B,
0014,
000F,
000C,
00FF,
00FF,
00FD,
00FF,
0003,
00FD,
00F9,
00EE,
00F6,
00FF,
0001,
0001,
00FF,
00F8,
000C,
00FE,
0001,
00FA,
00F2,
000E,
00FC,
0004,
00F6,
00F3,
0011,
00FE,
0003,
00F7,
00F9,
0005,
00FE,
0000,
00FB,
00FD,
0001,
0000,
00FE,
00FF,
00FE,
00FB,
00FF,
00FE,
0000,
00FE,
00FD,
00FE,
00FF,
0000,
00FE,
00FC,
00FE,
00FE,
00FC,
00FF,
00FC,
00FC,
00FD,
00F9,
00FE,
00F9,
00FE,
00FB,
00FE,
0000,
0002,
0000,
0002,
0001,
0002,
0000,
0002,
0000,
0001,
0000,
0000,
0001,
00FF,
0000,
0001,
0002,
0001,
0000,
0001,
0004,
0002,
0005,
0002,
0000,
0000,
0002,
0004,
0001,
0000,
0003,
0002,
0005,
0003,
0001,
0004,
0007,
0001,
0001,
0001,
0002,
0009,
0001,
0000,
0001,
0000,
0003,
0002,
0004,
00F9,
00FA,
0002,
00FE,
0000,
00F3,
00F3,
0000,
00FF,
00FF,
00EF,
00EF,
00FE,
0001,
0000,
00F4,
00F5,
00FE,
0004,
0003,
00FC,
00FD,
0000,
00FC,
00FF,
0006,
0005,
0001,
0002,
0004,
0000,
00F7,
00FA,
000A,
0009,
0000,
00F3,
00F9,
0000,
00FF,
0002,
00FB,
00FB,
00F9,
0001,
0004,
0006,
0000,
0001,
00FD,
00FA,
00FF,
0005,
00FE,
00FC,
00F7,
00FB,
00FF,
00FF,
00FB,
00F9,
00FB,
0003,
0000,
00FC,
00F5,
00F5,
00FF,
00FF,
00FE,
00F6,
00FB,
00FF,
00FF,
0002,
00FF,
0000,
0000,
0003,
0000,
0000,
0000,
0001,
00FF,
00FD,
0001,
00FF,
0002,
0001,
00FF,
0000,
00FF,
0000,
0003,
0003,
0001,
00FF,
0000,
00F5,
00F8,
00F7,
00FC,
0002,
00F5,
00E8,
00E7,
00F8,
0003,
00F9,
00E2,
00E3,
00FA,
0003,
00F9,
00EF,
00F0,
00FB,
0000,
00FB,
00FD,
00FC,
00FC,
00FF,
00FF,
0001,
0001,
00FF,
00FF,
0001,
0003,
0003,
0002,
00FF,
0005,
0009,
0008,
0005,
0002,
0004,
0007,
0005,
0001,
00FD,
0004,
000A,
000B,
0002,
00FB,
0000,
00FE,
00FD,
0000,
0003,
00FD,
00FC,
00F8,
0001,
0003,
00FD,
0002,
00FC,
0002,
0004,
00FB,
00FE,
00FB,
0000,
0001,
0001,
00FF,
0002,
0002,
0005,
0002,
00FF,
0002,
00FB,
00FE,
0001,
00FD,
0001,
00FD,
00FA,
00FF,
00F9,
0004,
0007,
0003,
0001,
00F8,
00FE,
0008,
0005,
00FD,
00FB,
00FB,
0000,
000B,
00F8,
0003,
0008,
0009,
00FE,
0003,
000F,
000B,
0015,
0003,
000B,
0010,
000C,
0018,
0007,
0006,
000A,
0006,
000F,
0003,
0003,
0008,
0004,
000D,
00FF,
0002,
0001,
00FD,
00FF,
0001,
0002,
0000,
00FC,
00FB,
0001,
0003,
0002,
00FF,
00FE,
0004,
0002,
0002,
0002,
0001,
0002,
0003,
0000,
0000,
00FE,
00FF,
00FC,
00FC,
0013,
00F9,
0001,
00FE,
00FE,
0023,
00F7,
0007,
0009,
000A,
0037,
00FE,
0010,
0000,
0001,
001F,
00F4,
0008,
0001,
00FE,
0010,
00F9,
0007,
00FC,
00FE,
00FE,
0001,
0000,
00FD,
00FE,
00FD,
00FF,
00FF,
00FC,
00FB,
00FA,
00FB,
00FC,
00FC,
00FD,
00FB,
00FF,
00FE,
00FD,
00FF,
00FF,
0001,
00FF,
0000,
00FE,
0001,
0000,
0000,
0000,
00FE,
0002,
0001,
0003,
0000,
0000,
0004,
0001,
0006,
00FF,
0000,
0004,
0001,
0001,
0002,
0003,
0007,
0004,
0004,
0004,
0006,
0009,
0007,
0003,
000B,
000A,
0005,
0000,
00FF,
0006,
0000,
00F9,
00FF,
0002,
0000,
0000,
0004,
0008,
0003,
0003,
0005,
0004,
00FE,
00FD,
0001,
00FE,
00F6,
0006,
0001,
0007,
0004,
00FC,
000A,
0003,
0008,
0005,
00FE,
000C,
0007,
0006,
0001,
00F9,
0006,
0004,
0006,
00FE,
00F8,
0002,
0003,
00FD,
0000,
0001,
00FF,
00FE,
00FA,
0002,
00FE,
00FC,
00FE,
00FF,
000B,
0005,
0000,
0005,
00FC,
0002,
00FD,
00FE,
0001,
0000,
0003,
00FF,
0003,
0006,
0002,
0006,
0006,
0002,
0000,
0001,
00FA,
00FE,
00FC,
00FE,
0007,
00F7,
00F6,
00FE,
00FF,
0007,
0005,
00F6,
00FB,
00FF,
0002,
0005,
00FD,
0000,
0002,
0003,
0002,
0002,
0002,
0000,
0002,
0001,
00FF,
00FE,
00FE,
0003,
00FE,
00FC,
00FF,
0003,
00FF,
00FB,
00FE,
0001,
0004,
00FE,
00FC,
0002,
0003,
0004,
00FF,
00F0,
00F6,
00FE,
0001,
0003,
00F7,
0009,
0003,
0000,
000D,
0008,
0010,
0002,
00FB,
0001,
00F1,
00F5,
00FD,
00FF,
00FB,
00FE,
00FC,
00FE,
0000,
00F9,
0007,
0001,
0002,
0002,
0000,
000B,
000C,
00FE,
0000,
0006,
0009,
0009,
00F8,
0000,
0005,
00FD,
00F5,
00F0,
0000,
0006,
00FF,
0002,
00FF,
00FE,
0001,
0000,
0001,
0000,
00FE,
0002,
0000,
0001,
0004,
0000,
0001,
00FE,
00FB,
0002,
0002,
0000,
00FD,
00FB,
00FF,
0000,
0001,
00FF,
00FD,
0000,
0000,
00FD,
00FF,
00FA,
00FB,
00FF,
00FD,
0002,
00FB,
00F9,
00FE,
00FD,
00FF,
00F8,
00F9,
00FF,
00FF,
0000,
00F9,
00FC,
00FE,
0004,
0000,
00FD,
00FB,
00FD,
00FD,
00FD,
0001,
00FF,
0002,
0001,
0000,
0002,
00FD,
00FE,
0000,
0000,
0004,
00FE,
00FF,
0001,
0000,
0000,
00FE,
0002,
0002,
0002,
00FF,
0000,
0004,
00FF,
00FA,
000D,
0012,
0002,
00F9,
00E0,
00E7,
00FC,
00FA,
0001,
00F7,
00EE,
0002,
0001,
0008,
0013,
0003,
0002,
0003,
00FC,
0007,
0000,
00FE,
00FC,
00FF,
00FD,
0002,
00FD,
00FF,
00FF,
00FD,
00FE,
00FF,
0000,
0003,
0002,
0002,
0003,
0003,
00FD,
00FC,
00FB,
00FA,
00FB,
00FF,
00FF,
00FE,
00FA,
00FC,
0000,
0000,
0003,
0001,
0002,
0000,
00FF,
0001,
0003,
0000,
00FE,
00FD,
00FF,
0000,
0000,
00FE,
00FD,
00FB,
00FE,
00FE,
00FD,
00FD,
00FB,
00FE,
00FE,
00FD,
0001,
0001,
0001,
00FE,
00FD,
0003,
00FD,
00FC,
0002,
0001,
00F3,
00D0,
00E8,
0000,
0005,
0007,
000E,
0014,
0008,
00FE,
0006,
0013,
000E,
0000,
00FD,
00FC,
00FB,
00FC,
0000,
0000,
0008,
0005,
0003,
00FE,
00FD,
0009,
000A,
0005,
0000,
00FA,
00FA,
00FD,
0000,
00FE,
00FF,
00FA,
0003,
0003,
0000,
0005,
00FF,
00FC,
0001,
00FF,
0004,
00FD,
00F7,
0002,
0001,
0006,
00FC,
00F0,
0000,
0001,
0004,
00FE,
00F3,
00FE,
0001,
0004,
0005,
00FB,
00FE,
0000,
00FD,
00F9,
00F9,
00FC,
0000,
00FE,
00F7,
00F6,
00FA,
00FF,
00FA,
00F3,
00F3,
00F5,
00FD,
00FC,
00F6,
00F5,
00F7,
00FE,
00FD,
00F9,
00F5,
00F8,
00FF,
0003,
00FE,
00E8,
00FA,
0003,
00FB,
0000,
000C,
0006,
00FF,
00F9,
0003,
0018,
0007,
0001,
0002,
0004,
00EB,
00EF,
0003,
00FA,
0004,
0001,
0002,
0003,
00FC,
00FF,
0001,
0001,
00FF,
00FD,
0002,
0002,
0003,
00FF,
0003,
0008,
0007,
0006,
0005,
0000,
0005,
0003,
0004,
0002,
0001,
0003,
0003,
0005,
0002,
00FC,
0000,
0011,
00F7,
00FD,
00F9,
0009,
001B,
00F7,
00FC,
0002,
0017,
002F,
00FE,
0001,
00FF,
0009,
0023,
00FA,
00FF,
00FA,
0005,
001C,
00F7,
00FF,
00FF,
00FF,
00FC,
00F7,
00FB,
00FF,
0001,
00FF,
00FB,
00FC,
0003,
0002,
0005,
0001,
0004,
0003,
0006,
0002,
00FE,
0000,
0005,
000A,
0003,
0000,
0000,
0006,
0004,
0003,
0005,
0005,
0003,
00F8,
00F0,
00F9,
0003,
00FE,
00FF,
00F4,
00FA,
0006,
00FB,
0005,
0003,
0003,
0005,
00FF,
0003,
0001,
00FE,
00FE,
0003,
00FE,
0000,
0001,
0003,
0001,
00FF,
00FE,
0002,
0003,
0000,
0004,
00FF,
0000,
0001,
0001,
0003,
0005,
0005,
0005,
0001,
0000,
0001,
0005,
0005,
0002,
0002,
00FE,
00FF,
0000,
0002,
0004,
0001,
0002,
0002,
0000,
0003,
00FE,
00FE,
0001,
0001,
0000,
00FD,
00FC,
0000,
0003,
0000,
0002,
0000,
00FF,
0007,
00F2,
00EC,
00F9,
0003,
00FE,
00E5,
00E9,
00F9,
0004,
00FF,
00F3,
000C,
000F,
00FF,
00FF,
00FE,
0012,
000B,
0001,
00FF,
0004,
00FF,
00FF,
00FD,
0005,
0004,
00FE,
0004,
0000,
0003,
0000,
00FC,
0003,
0003,
0001,
00FD,
00F7,
00FF,
00FD,
0005,
0002,
0000,
0003,
00FF,
0000,
00FF,
0001,
0008,
0004,
00FF,
00FF,
0000,
00FE,
00FD,
00FE,
0002,
0007,
0005,
00FD,
0001,
00FE,
00FB,
0001,
0001,
0000,
00FF,
00FB,
00FF,
0003,
0002,
0005,
000A,
0008,
0004,
0002,
00FF,
00FE,
0002,
0000,
0002,
00FC,
00F8,
0004,
00FE,
00FF,
00FB,
00FA,
0002,
0002,
0000,
00FE,
0000,
0000,
0002,
0004,
0002,
0001,
0001,
0003,
00FE,
00FB,
00FF,
0001,
0001,
00FE,
00FB,
00FF,
00FE,
00FF,
0000,
00FF,
0002,
0002,
0002,
00FC,
00FA,
00FC,
00FB,
00FC,
00FC,
00FA,
00FE,
00FD,
0000,
0002,
0003,
0002,
0003,
0002,
0001,
0001,
0002,
0003,
0002,
0001,
0003,
0002,
0004,
0003,
0003,
0000,
00FD,
00FE,
0000,
0003,
00FD,
00FB,
00FC,
0001,
00FC,
0000,
00F5,
00FE,
00FB,
00FC,
0002,
00FF,
0004,
0000,
0001,
0008,
0005,
000A,
0001,
00FA,
00FE,
00F6,
00FC,
00FA,
00FF,
0004,
0004,
0003,
0004,
0001,
0002,
0002,
00F8,
00FF,
00FF,
0001,
000F,
00FC,
00FF,
00F9,
0002,
0020,
0008,
0004,
00FB,
00FA,
0010,
0004,
0001,
00FE,
00FD,
00FE,
00FC,
00FF,
00FD,
0006,
000F,
0002,
0000,
00F2,
00FC,
000C,
0002,
0001,
00ED,
00F6,
0013,
000A,
0001,
00F4,
00F4,
000A,
0005,
0003,
00FE,
00FA,
0006,
0002,
0005,
0005,
0007,
0005,
0004,
00FF,
0002,
0001,
0000,
0004,
0000,
0005,
00F9,
00F9,
0000,
00FD,
0003,
00F5,
00F6,
00F4,
00FF,
0004,
00F9,
0004,
00FB,
00FD,
00FD,
0003,
0008,
00FE,
0001,
0003,
00FD,
00FD,
0009,
0002,
0006,
0005,
00FE,
000A,
0002,
00FF,
0006,
0002,
00FF,
00FC,
00FA,
00FE,
0002,
00FC,
00FF,
0003,
0001,
00FF,
0001,
0000,
00FF,
0000,
0000,
0001,
0001,
0000,
0001,
0000,
0002,
00FE,
0000,
0002,
00FC,
00FE,
00FC,
0000,
0001,
00FE,
0000,
0001,
00FE,
00FF,
000F,
00FC,
00FF,
00FA,
00FB,
000C,
00F6,
0000,
00F9,
00FC,
000F,
00F7,
00FF,
00FA,
00FC,
000C,
00FA,
00FE,
00FA,
00FE,
0007,
00FC,
00FB,
0001,
0000,
0004,
0007,
0005,
0000,
00FF,
0001,
0005,
0000,
0000,
00FD,
00FD,
0005,
0002,
00FC,
00F3,
00F2,
00FE,
0000,
00F6,
00F0,
00F7,
00FF,
0003,
0005,
0003,
0004,
0003,
0000,
0005,
0003,
0001,
0006,
0006,
00FE,
00FC,
00F9,
0000,
0000,
0002,
0002,
00FF,
0000,
00FE,
00FB,
00FD,
00FE,
0000,
00FE,
0002,
0006,
0007,
0005,
0001,
0002,
0003,
00F9,
0001,
00FF,
00FE,
00F1,
00F2,
0002,
00FD,
0001,
00F7,
00FE,
0007,
0001,
0003,
00FD,
0001,
0003,
00FC,
0000,
0007,
0003,
0003,
0004,
00FD,
0004,
0003,
0003,
0004,
00FC,
0001,
0003,
0001,
0003,
00FC,
00FF,
0002,
00FF,
0001,
00FD,
00FE,
0001,
00FF,
0000,
0001,
00FA,
00FA,
00FC,
00FF,
0000,
00FF,
00FD,
0002,
0000,
0000,
0008,
0005,
0004,
0004,
00FE,
0006,
0004,
00FF,
00FE,
00FE,
0002,
0003,
00FD,
00FC,
0003,
0000,
00FC,
00FF,
0007,
0001,
00FB,
00EE,
00F6,
0000,
0000,
00F8,
00ED,
00F4,
00FC,
00FC,
00FD,
00FD,
0000,
0002,
00FF,
0001,
0007,
0006,
0002,
0004,
00FF,
00FF,
0000,
00FF,
0001,
00FC,
00FD,
00FF,
00FC,
0003,
0000,
0004,
0003,
00FF,
00FE,
00FE,
00FF,
0000,
00FE,
0002,
00FE,
00FC,
0001,
0000,
0000,
00FD,
00FC,
0005,
0001,
0003,
0008,
0004,
0010,
0003,
00FE,
0001,
00E2,
00ED,
00FD,
00F9,
0000,
00EC,
00F2,
0001,
0008,
000F,
000D,
0007,
0003,
0000,
0000,
0000,
0000,
0000,
0000,
0000,
0000,
0000,
0000,
0000,
0000,
0000,
0000,
0000,
0000,
0000,
0000,
0000,
0000,
0000,
0000,
0000,
0000,
0000,
00FE,
00FE,
00FF,
0000,
0002,
00FE,
00FF,
0000,
0000,
0003,
00FF,
00FF,
00FF,
0000,
0003,
0000,
00FF,
0000,
0000,
0002,
00FF,
00FE,
0000,
0000,
0001,
0001,
0003,
0002,
0000,
0002,
00FE,
0000,
00FD,
00FC,
00FF,
0001,
00FC,
0004,
00F9,
00FE,
0002,
00FC,
0001,
00FD,
00FF,
0007,
0001,
0003,
0007,
0001,
0004,
0003,
0000,
0005,
0001,
0006,
00FE,
0000,
0005,
0002,
0004,
0003,
0000,
0000,
0000,
0005,
0004,
00FF,
0000,
0000,
0001,
0001,
0001,
0002,
0001,
0002,
0002,
00FE,
00FA,
00FB,
0005,
0002,
00FB,
00F9,
00FC,
0006,
0001,
00F7,
00FA,
00FE,
0005,
0001,
00FD,
00FD,
0001,
0001,
0003,
0000,
00FC,
00FF,
00FE,
0000,
0000,
00FF,
00FF,
00FD,
0003,
0000,
00FA,
00FE,
0006,
0005,
00FC,
00FA,
00FF,
0002,
0001,
00FD,
00FC,
00FD,
00FE,
00FC,
00FE,
00FE,
0000,
00FF,
0000,
0004,
0002,
0003,
0004,
0009,
000B,
0001,
0005,
0003,
0003,
00FD,
00FB,
0003,
0003,
00FD,
00F8,
00FE,
0000,
0001,
0000,
00FE,
0001,
0000,
00FB,
00F7,
00F4,
00FA,
00FE,
00FA,
00F5,
00F4,
00F9,
00FB,
00F7,
00F2,
00F1,
00F5,
00F9,
00F9,
00F6,
00F4,
00F8,
00F9,
00FD,
00F9,
00F7,
00FB,
00FC,
00FF,
00F8,
00F6,
0000,
00FE,
0002,
00F8,
00FA,
0005,
00F9,
0009,
0001,
0004,
000C,
00FD,
0006,
0002,
0002,
000A,
00FF,
0005,
0001,
0002,
0008,
00FE,
0002,
00FF,
0004,
00FE,
0002,
00FF,
00F2,
00FF,
00F4,
0005,
0001,
00F3,
0002,
00EF,
0005,
00FE,
00F5,
00FA,
00F0,
0000,
0003,
0003,
0001,
0002,
0004,
0001,
00FA,
00FD,
00FA,
00FF,
0000,
00F9,
00F6,
00FA,
00FB,
0000,
00FF,
00F1,
00FC,
00FE,
0000,
0002,
00F8,
00FB,
0000,
0002,
0000,
00FF,
00FF,
0001,
00FF,
00FE,
0002,
00FB,
0003,
00FF,
0002,
0003,
00F5,
00FE,
00FE,
00FC,
0001,
0001,
0002,
0001,
00FF,
0005,
0001,
00FE,
0002,
0001,
0005,
00FD,
00FB,
0004,
0005,
00FF,
00FF,
0009,
0002,
0000,
00F6,
00FC,
0006,
0002,
00FF,
00FA,
00FD,
0005,
0000,
00FD,
00FB,
00FF,
0001,
0002,
00FF,
00FD,
0000,
0003,
0000,
0002,
0004,
0000,
00FE,
0008,
000D,
0010,
000D,
0005,
000C,
0012,
0016,
0013,
000C,
0009,
000F,
0012,
000E,
0008,
0004,
000C,
000D,
000A,
0004,
00FC,
00FD,
00FF,
00FF,
0000,
00FB,
00FA,
00FE,
0002,
0000,
00FE,
00FD,
00FD,
0000,
0002,
0003,
0004,
0003,
0000,
0000,
0000,
0003,
0006,
0002,
00FF,
0003,
0008,
0004,
0004,
0001,
0006,
0011,
0016,
0010,
000B,
00FE,
0000,
0000,
00FE,
0001,
0002,
00FE,
00F1,
00F2,
00FF,
00FD,
00FA,
00F0,
00F2,
00FC,
0003,
0002,
0004,
0004,
00FF,
0003,
0000,
0003,
0002,
00FD,
0003,
00FF,
00FF,
0001,
00FD,
0000,
00FD,
00FE,
00FF,
00FB,
00FF,
00FD,
00FE,
00FF,
00FC,
0009,
00FF,
00F3,
00F8,
0001,
00FF,
00F6,
00E4,
00EC,
00FB,
00FD,
00F5,
00E4,
00E9,
00F5,
0000,
00F7,
00EB,
00EE,
00F5,
000A,
0005,
0000,
0004,
0006,
00FE,
0001,
0001,
0001,
0002,
0001,
0004,
0005,
00FB,
00FF,
0002,
00FF,
00FD,
00FA,
00FF,
0000,
00FF,
00FF,
00FE,
0003,
00FE,
00FA,
00FF,
0000,
0001,
0000,
0002,
0001,
00FF,
0000,
0002,
0002,
00FF,
0000,
0000,
0003,
0002,
00FF,
0001,
0002,
0003,
0001,
0002,
0004,
0003,
0001,
0000,
0000,
0001,
0000,
0005,
00FA,
00FD,
0002,
0005,
0001,
00FD,
0003,
00FF,
00FD,
0002,
0005,
000B,
0000,
00F8,
00FF,
00FE,
0005,
00FC,
00F8,
0002,
00FE,
0001,
00FC,
0003,
0001,
0001,
0005,
0002,
00FD,
00FF,
00FC,
00FE,
00FD,
00FC,
0003,
00FE,
00FE,
00FD,
00FF,
0006,
0003,
0001,
0002,
0005,
0003,
0004,
0002,
0003,
0006,
0000,
0000,
0005,
0004,
0002,
00FE,
00FE,
0001,
0002,
0000,
0003,
0004,
0003,
0003,
0004,
0002,
0001,
00FC,
00FB,
0001,
0002,
0000,
00FC,
00FF,
0001,
0000,
0001,
0001,
0001,
0001,
00FD,
0001,
0001,
00FD,
0007,
00FD,
0007,
000B,
00FC,
000D,
00FE,
0004,
000E,
00FE,
0009,
00FC,
00FC,
0005,
00FB,
0001,
00FD,
00FC,
00FC,
00FB,
00FD,
00FF,
00FF,
00FE,
00FB,
00FE,
0005,
0004,
0003,
0001,
00FF,
0001,
0001,
0002,
0000,
00FD,
0001,
0002,
0004,
0002,
00FF,
0001,
0001,
0000,
00FD,
00FD,
00FE,
00FD,
00FD,
00FC,
00FC,
0002,
0000,
0001,
0001,
0002,
00FC,
00FB,
00FC,
00FE,
0000,
00FD,
00FE,
0000,
00FF,
0000,
0001,
0008,
0007,
0005,
00FE,
0005,
000C,
0018,
000B,
0006,
00F7,
00EE,
00F3,
00F2,
00F9,
0005,
00F8,
00EC,
00F6,
00FE,
0008,
0002,
00FA,
0001,
0005,
00FC,
00F3,
00EF,
00F5,
00FB,
00FD,
00F2,
00EA,
00F1,
00F9,
0004,
00FA,
00F0,
00F1,
00F9,
0003,
00FD,
00F8,
00F5,
00FB,
0008,
0003,
00FF,
00FC,
0000,
0003,
0003,
0000,
0001,
0000,
0001,
0001,
00FF,
0000,
00FF,
0001,
0000,
00FF,
0000,
00FE,
00FF,
00FE,
00FE,
0000,
00FE,
00FF,
00FE,
00FF,
0000,
00FE,
00FC,
00FB,
00F9,
00FD,
00FD,
0000,
00FB,
00FC,
00FE,
00FF,
0003,
00FF,
00FE,
0000,
0002,
0003,
00FD,
00FF,
00FE,
00FF,
0003,
00FC,
00FF,
0001,
0000,
0000,
00FF,
0002,
0007,
0006,
00FF,
00F8,
00F8,
0002,
0003,
0002,
00F7,
00F6,
00FF,
0005,
0002,
00FC,
00FA,
00FF,
0005,
0003,
0000,
00FD,
0004,
0008,
0002,
00FB,
00F4,
00F6,
00FC,
00FF,
00F9,
00F1,
00F4,
00FC,
0000,
00FE,
00F5,
00F4,
00FE,
0001,
0001,
00F8,
00F4,
00FE,
0005,
0004,
0001,
00FB,
0003,
0003,
0000,
0008,
00FE,
0002,
0002,
0000,
000A,
00FE,
00FF,
0000,
00FE,
00FD,
00F3,
00F6,
0002,
0004,
00F8,
00EF,
00F8,
0004,
0004,
00FD,
00F8,
00FD,
0006,
0011,
00FE,
000A,
0003,
0004,
0017,
0003,
0009,
0001,
000D,
0022,
0006,
0009,
00FF,
0003,
000E,
00F7,
00FC,
00FB,
00FF,
0006,
00F7,
00FB,
00FC,
0002,
0007,
0001,
00FE,
00FE,
0002,
00FE,
00FD,
0001,
00FF,
0002,
00F7,
00FB,
0002,
0001,
00FD,
00F6,
00FA,
0000,
00FF,
0000,
0000,
0000,
0004,
0002,
0003,
00FE,
00FF,
00FF,
0000,
0001,
00FE,
00FD,
00FF,
0001,
0000,
00FD,
00FA,
00FF,
00FF,
0002,
00FE,
00FC,
0001,
0001,
0004,
00FF,
0001,
0004,
0004,
0001,
00FF,
0003,
00FF,
0002,
00FB,
0001,
0003,
00FF,
0003,
00FF,
0003,
00F8,
00FE,
0001,
0001,
00FC,
00F0,
0005,
0003,
0000,
0000,
00FE,
0003,
0000,
00FE,
0000,
0003,
0001,
0004,
0002,
0002,
0004,
0003,
0003,
0006,
0003,
0005,
0004,
0004,
0002,
00FE,
0002,
0002,
0003,
0001,
00FD,
0001,
0002,
0002,
00FB,
00FC,
00FC,
00FB,
0000,
00FC,
00F9,
00FF,
0000,
0001,
0003,
00FF,
0004,
0005,
0002,
0001,
00FE,
00FD,
00FD,
00FE,
00FD,
00FE,
00FF,
00FE,
0002,
0009,
00FE,
0000,
00FF,
0002,
0000,
00F8,
00FC,
0000,
00FF,
0002,
00FB,
00FC,
00FE,
0003,
0004,
00FA,
00F5,
00FA,
00FB,
0006,
00FB,
00F9,
00FE,
00FF,
0002,
0001,
0001,
00FD,
0000,
0002,
0002,
0003,
0003,
0000,
0000,
00FF,
00FE,
0001,
00FE,
0000,
00FB,
0000,
00FC,
0001,
0003,
0001,
0000,
00FD,
0006,
0004,
0000,
00FF,
0004,
0001,
0001,
0007,
0003,
0008,
0002,
0003,
0009,
0004,
0007,
0006,
00FE,
0002,
0003,
0000,
00FC,
00FA,
00FA,
00FE,
00FF,
00FE,
0002,
00FF,
00FF,
00FF,
00FE,
0003,
0001,
0000,
00FD,
0001,
0005,
0004,
00FE,
00FF,
0002,
0004,
0002,
00FC,
00FD,
00FE,
0002,
00FF,
00FD,
00FE,
00FB,
00FE,
00FE,
00FE,
00FE,
00FE,
00FE,
00FE,
00FD,
00FE,
00FE,
00FD,
00FD,
00FD,
00FE,
00FD,
00FD,
00FD,
00FD,
00FE,
00FD,
00FD,
00FD,
00FC,
00FE,
00FE;