memory_initialization_radix=16;
memory_initialization_vector=
00FF,
000A,
00F6,
0009,
00F9,
00FF,
00FA,
00EF,
0006,
00FF,
0003,
00FE,
00FF,
00FB,
00FC,
00FF,
0000,
00FB,
00FA,
00F5,
00F8,
0008,
00FC,
000F,
0005,
0000,
00F8,
00FD,
0005,
0002,
00FC,
00FD,
0004,
0005,
0001,
0003,
00FF,
00FE,
00FF,
00FD,
00F4,
00FD,
00FE,
00FC,
0006,
00FC,
0000,
0004,
0008,
0007,
0004,
00F2,
0003,
0004,
00FE,
00FE,
0007,
00FC,
00FA,
00FC,
0001,
000A,
00F6,
00FD,
0009,
00FE,
00FD,
00F9,
0008,
00FA,
00F9,
00FE,
0003,
00FA,
0004,
00FC,
0005,
00FF,
0001,
0000,
0001,
00FC,
00FE,
00FA,
00FC,
00F8,
00FD,
00FA,
00F9,
00FD,
00FD,
0002,
00FF,
00FD,
0000,
0005,
0000,
0006,
0006,
00FE,
00F7,
0002,
00FA,
0000,
00FE,
000F,
0000,
00FD,
0002,
00FA,
000C,
0007,
0003,
0005,
000F,
0001,
0000,
000F,
00FC,
00FC,
00FA,
00FF,
0008,
00F7,
000C,
0000,
00FB,
0000,
0004,
0002,
00FF,
0001,
00FF,
00F8,
00FD,
0005,
00F9,
00FF,
00F3,
00FC,
0002,
00FF,
0004,
00F9,
0000,
000F,
00FB,
00FE,
0001,
0002,
0001,
0009,
00FE,
00FE,
0002,
00FD,
00F8,
00FD,
00FE,
0003,
00FF,
00F9,
0001,
0001,
0006,
00FE,
00FD,
0004,
00F6,
0001,
00FC,
00F2,
00FC,
0006,
00FB,
0002,
00FF,
00FD,
0004,
00FE,
000C,
00FD,
0003,
0001,
00FC,
00F7,
00FB,
0001,
0006,
00F4,
0007,
0001,
00FF,
00FE,
0005,
000D,
0004,
000B,
00FC,
00FD,
00FD,
0001,
0000,
0000,
000D,
0003,
00FD,
00FA,
00F7,
00F9,
00FE,
0000,
00FE,
00FF,
00FD,
00FC,
00FC,
0001,
00FB,
0004,
0008,
00FD,
0003,
00FD,
00FA,
00F0,
0005,
0005,
00FB,
00FB,
00FE,
0000,
00FE,
0008,
000B,
0001,
00FA,
00FD,
0003,
0004,
0009,
0006,
0001,
0002,
00F0,
00FE,
00FD,
000C,
0004,
00F3,
00FA,
00F9,
0004,
00F8,
0002,
00FC,
00F6,
0001,
00F5,
00FD,
000C,
00FC,
0011,
00F5,
00F6,
00FC,
0004,
00F4,
00FC,
0007,
0004,
0003,
00FF,
00F7,
0000,
0003,
0000,
00FC,
00FA,
00F4,
0007,
00FD,
00F3,
00EE,
0002,
0001,
0007,
00EC,
00FB,
00F9,
0003,
00FD,
0008,
0004,
0002,
000F,
0009,
000C,
00EE,
0006,
00FC,
00FE,
00FE,
00FB,
0007,
00FB,
00F8,
00F9,
000E,
0004,
0005,
0001,
00F2,
00FF,
00FD,
00FA,
00FA,
00FB,
0007,
00FC,
00F3,
0004,
0003,
00FB,
00F9,
00FC,
00F8,
00FC,
00FA,
0003,
00FE,
0007,
0006,
0008,
00F7,
000F,
00FE,
0001,
00FE,
00F5,
00FD,
000E,
00FE,
000B,
0002,
0001,
0005,
00FD,
0000,
0002,
0008,
00F8,
0001,
0004,
0001,
00FF,
00F9,
00F8,
0001,
00FE,
0008,
000A,
0010,
00F3,
0006,
00FA,
0007,
00FD,
0006,
00FF,
0000,
00FD,
00FC,
00FE,
00FC,
000A,
00FF,
000A,
00EB,
0004,
0000,
00F7,
00FC,
00F8;