memory_initialization_radix=16;
memory_initialization_vector=
00FC,
00FB,
00FD,
0000,
00FE,
00FF,
00FA,
0002,
0004,
0002,
00FD,
0001,
00FF,
0002,
0001,
00FE,
0008,
00FF,
0000,
0001,
00FD,
00FC,
00FF,
00FD,
0001,
00FA,
00FD,
00FC,
00FE,
0000,
00FF,
00FE,
00F9,
00FF,
0001,
0001,
00FB,
00FC,
00FF,
0000,
00FE,
0001,
000B,
0002,
0001,
00FC,
00FD,
0001,
00FB,
0000,
00FB,
00F8,
00F9,
00FD,
0002,
00FD,
00F6,
00F4,
00F9,
00FE,
0001,
00FA,
00FC,
00FF,
0000,
0002,
0003,
0002,
0000,
00FE,
0000,
0002,
0000,
00FF,
0000,
0001,
0004,
0002,
0002,
00FF,
0001,
0005,
0002,
0001,
0001,
0002,
0002,
0005,
0002,
0000,
0000,
00FB,
00FF,
00FD,
00FF,
0002,
00FC,
00FE,
00FD,
0000,
00F6,
00F1,
00FB,
0004,
0006,
0002,
0007,
00FC,
0004,
0003,
0001,
0005,
00FE,
0001,
00FF,
00FA,
00FD,
00FE,
0000,
0001,
00FF,
0001,
00FE,
0000,
0002,
0002,
0002,
00FE,
0001,
0001,
0001,
00FE,
00FB,
0000,
00FF,
0001,
00FD,
00F9,
00FF,
00FF,
0004,
0002,
00FB,
00FF,
00FE,
0003,
0004,
00FF,
00FE,
00FF,
00FF,
00FE,
00FA,
0000,
0001,
00FF,
00FE,
00FD,
0000,
0002,
0000,
00FE,
00FB,
00FD,
00FF,
00FE,
00FF,
00FD,
00FF,
00FF,
00FC,
00FD,
00FC,
00FF,
00FF,
00FF,
00FB,
00F4,
00FA,
0001,
0001,
00FE,
00F9,
00FE,
00FC,
0003,
0005,
00FE,
0009,
0000,
0000,
0003,
00FF,
0003,
00FC,
00FF,
0001,
00FF,
00FE,
00FE,
00FF,
00FF,
00FE,
0002,
00FD,
0006,
0009,
0007,
0008,
0004,
00FF,
0000,
00FF,
00FE,
00FD,
00FB,
00FD,
00FD,
00FB,
00FA,
0001,
0005,
0004,
0002,
00FD,
00FE,
00FF,
0000,
0000,
00FF,
0001,
000B,
000B,
0006,
0005,
0002,
0007,
000B,
000A,
0007,
0003,
0004,
0006,
000B,
0006,
0001,
0003,
0005,
0008,
0004,
0001,
0001,
00FF,
0000,
00FC,
0000,
0001,
0000,
0002,
00F8,
00FF,
00FD,
0001,
0000,
00F8,
00FC,
00FB,
00FE,
00FA,
00F9,
00FD,
00FD,
00FD,
00FC,
00FD,
0001,
0006,
0006,
0001,
0003,
00FD,
00FE,
0003,
00FE,
0005,
00FD,
00FC,
0009,
0000,
0003,
0001,
00FC,
0006,
0008,
0003,
0004,
0001,
0002,
0007,
0002,
00FA,
00F9,
00F8,
00FA,
00FE,
00FD,
00F8,
00F7,
00F5,
00FB,
0003,
00FC,
00FB,
00FB,
0000,
00FF,
00F9,
00F9,
00FA,
00FB,
00FC,
00FB,
00FC,
00FF,
00FC,
0001,
0003,
0002,
00FD,
0004,
0000,
0002,
0003,
00FD,
0003,
0000,
0003,
00FC,
00FA,
0003,
0003,
0001,
00F9,
0003,
0000,
0003,
00FE,
0003,
0008,
00FF,
00FE,
00FF,
0000,
00FE,
0000,
00FD,
00FD,
00FD,
00FC,
00FF,
00FD,
00FD,
00FE,
00FC,
0000,
00FF,
00FE,
00FE,
00FD,
0001,
0000,
0000,
0000,
00FF,
0002,
0000,
0000,
00FD,
00FC,
0000,
00FE,
0003,
0005,
00FD,
00FE,
00FC,
0007,
000F,
00FF,
00FE,
0000,
0001,
00FF,
00FB,
00FB,
0003,
0001,
00FA,
00FB,
00FB,
00FF,
00FB,
00F9,
00FA,
00FF,
00FF,
00FF,
00FC,
00FB,
0000,
0006,
0009,
000E,
0009,
0009,
0003,
0001,
0008,
0008,
0006,
0003,
00FD,
0002,
0003,
0000,
0002,
0000,
0000,
0001,
00FF,
0004,
00FA,
00FC,
00FE,
00FE,
0005,
00FA,
00FE,
0000,
00FF,
00FE,
00FC,
00FF,
0002,
00FE,
00FF,
00FD,
00FF,
0001,
00FF,
0003,
00FB,
00F2,
00F5,
0000,
0003,
00F6,
00EA,
00F1,
00FF,
0000,
00F5,
00EC,
00F3,
00FC,
00FF,
00F7,
00F1,
00F5,
00FD,
0000,
00FD,
00F6,
00F7,
00FE,
0004,
00F9,
00FB,
000D,
0000,
0000,
00F0,
0010,
0008,
00FC,
00FB,
00FD,
0023,
00F4,
00FB,
00F7,
000A,
0003,
00EF,
0002,
00FC,
0009,
00F1,
00FC,
0002,
0001,
0003,
0001,
0001,
00FE,
0002,
0002,
00FE,
0000,
00FD,
0001,
00FD,
00F9,
00FC,
00FB,
0000,
00FF,
00FE,
00FD,
00FD,
00FE,
00FE,
00FD,
00FD,
00FF,
00FD,
00FF,
00F6,
00FF,
0000,
00FE,
0009,
00F2,
0001,
0000,
00F6,
000D,
00EE,
0001,
0003,
00EF,
0001,
00F6,
00FE,
0001,
00F8,
0000,
00FF,
0002,
0003,
00F9,
00FB,
0001,
00FE,
00FD,
0005,
000B,
0003,
00FD,
00FD,
00FC,
00F6,
00F6,
0001,
0000,
00FF,
00F9,
0001,
0006,
00FF,
0002,
0001,
0004,
0004,
00FD,
00FF,
0000,
0001,
0001,
00FF,
0001,
0003,
0002,
0001,
0001,
0001,
0003,
0003,
0003,
0003,
0000,
00FF,
00FF,
0000,
0002,
0002,
0001,
0001,
0000,
0000,
00FA,
00F2,
00F7,
00FB,
00FD,
00F9,
00F0,
00F4,
00FB,
00FE,
00F5,
00F1,
00F3,
00FA,
00FD,
0016,
001D,
0016,
000A,
0008,
0013,
001C,
0012,
0007,
0003,
0000,
00FD,
00F6,
000C,
00FC,
00FE,
00FC,
00EE,
0017,
00FA,
0000,
00FC,
00EF,
0026,
0001,
0003,
00FA,
00F3,
001D,
00F9,
0003,
00FB,
00F8,
0015,
00FE,
0000,
0001,
0000,
00FC,
00FE,
0001,
00FF,
00F8,
00FB,
00FF,
00FF,
0002,
00F9,
00FA,
0003,
00FE,
0007,
0008,
0004,
0005,
00FC,
0001,
0002,
0003,
00FE,
00FF,
0001,
0000,
0002,
0005,
0000,
0004,
0002,
0006,
0006,
0000,
0000,
00FC,
00FF,
00FE,
00FF,
00FD,
00FA,
00F9,
00FA,
0001,
0000,
0004,
0003,
0001,
00FF,
00FE,
0007,
00FD,
00FD,
0002,
00FD,
0007,
00FC,
00FC,
0002,
00FE,
000B,
00FA,
00FE,
00FC,
0000,
0009,
00F9,
0000,
00FA,
0000,
0003,
00F9,
00FF,
0000,
00FF,
0000,
0002,
0001,
0001,
0004,
0004,
0007,
0000,
0002,
0005,
0005,
0007,
0000,
0000,
0004,
0004,
0005,
00FF,
0001,
0004,
0003,
0005,
0001,
00FF,
00FC,
0003,
0003,
0001,
0001,
0002,
0008,
0003,
0000,
0002,
00FC,
00FE,
00FD,
0001,
0003,
00FE,
00FE,
00FF,
0000,
00FE,
00FF,
0001,
00FF,
00FF,
0005,
0002,
00F5,
00FB,
0005,
00FD,
00F7,
00D9,
00F1,
0003,
000E,
0011,
0008,
0007,
0004,
000C,
0001,
0003,
000B,
0001,
00FE,
00EF,
00F1,
0004,
00FF,
00FF,
0001,
0001,
0000,
0003,
0001,
0001,
00FF,
0000,
0004,
0000,
0000,
0000,
0003,
0004,
0001,
00FE,
0001,
0005,
0003,
0001,
0001,
00FF,
0001,
0002,
00FD,
00F0,
0002,
0001,
00FF,
0004,
00F2,
0015,
0003,
00FF,
000B,
00FF,
0021,
0002,
0008,
0005,
00F9,
0009,
00F8,
0004,
0002,
00F9,
0000,
00FB,
0000,
0003,
00FC,
0001,
0004,
00F5,
0000,
00F8,
0002,
00FC,
00F6,
0002,
0001,
0012,
000B,
0002,
00FD,
00FE,
000D,
0003,
0000,
00FF,
00FD,
000E,
0002,
0002,
0002,
0001,
0001,
00FC,
00FD,
0002,
00FE,
0000,
00FE,
00FF,
00FF,
00FE,
00FE,
0002,
0000,
00FE,
00FF,
00FF,
0003,
00FF,
00FE,
00FE,
00FD,
00FD,
00FC,
0005,
00FF,
0001,
0001,
0002,
0000,
00FD,
0002,
0004,
0000,
00F5,
00EE,
00F5,
0001,
00FF,
0001,
0001,
00F5,
0000,
0002,
0008,
0014,
0002,
00FE,
00FF,
00FF,
0000,
0000,
00FE,
00FF,
0000,
00FE,
00FC,
00FC,
00FE,
00FF,
00FD,
00FC,
00FD,
00FE,
00FE,
00FD,
00FE,
00FE,
00FE,
00FC,
00FD,
00FE,
00FD,
00FD,
00FF,
00FC,
0002,
00FF,
00FD,
00FF,
0008,
0002,
00FA,
00FE,
0000,
0001,
00F6,
00FA,
0001,
00FE,
00F9,
00F9,
00FE,
0000,
00FD,
00FB,
00FB,
00FE,
00FD,
00FF,
00FF,
00FE,
0000,
0000,
00FE,
00FD,
00FD,
00FE,
00FE,
00FF,
00FE,
00FE,
00FD,
00FC,
00FE,
00FE,
00FF,
00FD,
00FD,
00FF,
00FE,
0001,
0000,
00FF,
0000,
0001,
0003,
0004,
0002,
0002,
0002,
0003,
0006,
0005,
0001,
00FF,
0001,
0004,
0004,
0001,
00FF,
0001,
0003,
0002,
0001,
0000,
0002,
0002,
0001,
00FE,
0004,
0005,
0005,
0002,
0003,
000C,
0010,
000F,
000C,
0004,
000D,
0012,
0014,
0012,
00FC,
00FE,
0002,
0009,
0006,
00F8,
00F8,
00FA,
00FE,
00FD,
0000,
0001,
00FF,
0000,
00FF,
00FF,
0000,
00FF,
0000,
0001,
0001,
0001,
00FC,
00FD,
0002,
00FF,
00FE,
00FA,
00FC,
0001,
00FE,
00FF,
00FE,
0001,
0000,
0002,
0000,
00FF,
0001,
0001,
0002,
00FB,
00FE,
0003,
0001,
0001,
00F9,
0000,
0006,
0001,
0000,
00FD,
0001,
0001,
0000,
0002,
00FF,
0002,
0000,
00FF,
0001,
00FB,
00FB,
00FE,
00FE,
0004,
00F8,
00FD,
00FE,
00FB,
0015,
00FD,
00F9,
00FE,
00FA,
0010,
00FE,
00F8,
00FD,
00FE,
000C,
00FF,
00FB,
00FF,
0002,
00FF,
00FC,
00FC,
0001,
00FF,
0003,
00FA,
00F6,
0001,
0004,
000B,
0000,
00F6,
00FC,
0002,
0008,
0002,
00FD,
00FF,
00FE,
0002,
00FF,
00FD,
0001,
0001,
0000,
00FF,
00FF,
0000,
0001,
0001,
00FE,
00FE,
00FE,
00FF,
00FF,
00FD,
00FC,
00FD,
00FE,
00FD,
00FC,
00FD,
00FE,
00FF,
00FC,
00FC,
00FC,
00FD,
00FF,
00FF,
0000,
0000,
00FF,
00FF,
00FE,
00FF,
0000,
00FF,
00FE,
00FE,
00FE,
00FF,
00FF,
00FE,
00FF,
00FE,
00FF,
00FF,
00FE,
0001,
00FF,
00FF,
00FD,
00FD,
00FF,
0001,
0003,
00FB,
0004,
00FD,
00F8,
0001,
00EE,
00FE,
0001,
00F9,
000C,
00F2,
00F7,
00FF,
00FC,
0000,
00F9,
00F7,
00FC,
0000,
0001,
0002,
00FB,
0002,
0004,
00FF,
00FA,
00FE,
00FF,
000B,
0004,
00F6,
00FC,
0001,
000F,
0003,
00F4,
00FC,
0000,
0006,
00FA,
00F5,
00FA,
0001,
0001,
00F9,
00F6,
00FA,
0001,
00FE,
00FD,
00FB,
00FD,
00FE,
00FC,
00FD,
00FF,
00FE,
00FC,
00F8,
0002,
0008,
0004,
00FF,
00FC,
00FA,
00FE,
00F9,
0001,
0000,
00FD,
00FD,
00FF,
00FD,
0000,
00FE,
00FB,
0004,
00FD,
00FF,
00FD,
00FB,
0007,
00FE,
0000,
00FC,
00FE,
000A,
00FF,
0000,
00FB,
0002,
0009,
00FE,
00FC,
00F9,
0004,
0006,
0000,
00FF,
0007,
00FF,
00FC,
00FF,
00FA,
0006,
0006,
0000,
0000,
00FB,
0003,
0001,
00FE,
00FF,
00FF,
0000,
00FE,
00FD,
0001,
0004,
0001,
0004,
0000,
0009,
000B,
0009,
0002,
0002,
0008,
0009,
000B,
0001,
0002,
0005,
0004,
0009,
0003,
0000,
00FF,
00FB,
00FF,
00FF,
0001,
00FF,
00FC,
00FB,
00FE,
0000,
00FC,
0005,
00FC,
00F3,
00FA,
00FB,
000A,
001A,
000D,
0001,
00FF,
00F3,
00F7,
00FA,
00FE,
0006,
00FA,
00F2,
00FF,
0002,
0002,
00FC,
00FE,
0000,
00FD,
0001,
0005,
00FA,
00FE,
0000,
0001,
00FF,
00F4,
00F9,
0000,
0002,
0000,
00F7,
00FC,
0002,
0002,
0003,
00FC,
00FE,
0000,
0002,
0002,
00FF,
0001,
0001,
00FE,
00FD,
0003,
0006,
00FF,
00FE,
00FF,
00FC,
0005,
0003,
0001,
0001,
00F9,
0003,
0005,
00FD,
00FD,
00FF,
0005,
0005,
0001,
0000,
0002,
0003,
0004,
0000,
0000,
0000,
0000,
0000,
0000,
0000,
0000,
0000,
0000,
0000,
0000,
0000,
0000,
0000,
0000,
0000,
0000,
0000,
0000,
0000,
0000,
0000,
0000,
0000,
0000,
0000,
00FD,
00FE,
00FF,
0000,
0000,
00FE,
00FE,
00FC,
0001,
0001,
0004,
00FC,
00FD,
00FE,
00FF,
0003,
00FA,
00FF,
00FE,
00FF,
00FF,
00FC,
0002,
0005,
0001,
0004,
00FE,
00FA,
0004,
0003,
00FF,
0006,
0000,
0005,
0004,
00FF,
0001,
0000,
0004,
0007,
0002,
00FB,
00FF,
0003,
0004,
0005,
0000,
0000,
0004,
0003,
0003,
0004,
0003,
0002,
0002,
0005,
0005,
0002,
0001,
0003,
0007,
0007,
0005,
0000,
0003,
0006,
0006,
0003,
00FF,
0002,
0003,
0003,
0000,
00FD,
0000,
0004,
0002,
0001,
00FB,
00FA,
0001,
0000,
0001,
00FD,
00FA,
00FC,
0002,
0001,
00FF,
00FC,
00FA,
0000,
0003,
0000,
0000,
00FE,
00FE,
0000,
0000,
00FF,
00FE,
00FE,
00FC,
0004,
00FF,
00FC,
00FD,
0000,
0005,
00FF,
00FD,
00FD,
0001,
0002,
00FD,
00FD,
00FD,
00FE,
00FF,
00FD,
00FE,
00FE,
00FD,
00FE,
00FE,
0001,
00FF,
0001,
00FF,
00FE,
0000,
0001,
0000,
0002,
0002,
0001,
0002,
0002,
00FE,
0001,
0000,
00FD,
00FD,
00FF,
0000,
0002,
00FE,
00FE,
00FE,
00FF,
00FC,
00FE,
0001,
0001,
00FB,
00F7,
00F8,
00FF,
0000,
00FB,
00FB,
00FA,
00FC,
0001,
0000,
0007,
0002,
00FE,
00FE,
00FE,
0006,
0003,
00FF,
0003,
00FF,
00FD,
00F9,
00F7,
00FE,
0000,
0003,
0002,
00FC,
00FD,
0000,
00FD,
00FF,
00FD,
0001,
00FE,
00F4,
00F2,
00FD,
0001,
00FB,
00F9,
00FB,
00FD,
00FF,
00FB,
0004,
0001,
00FD,
00FA,
00FD,
0018,
000A,
00FA,
00F8,
0000,
0013,
00FD,
00F1,
00FC,
0003,
000A,
00F8,
00F2,
0000,
0003,
000A,
00FB,
00F9,
00FE,
0000,
0002,
0003,
00FF,
00FF,
0000,
0003,
0002,
00FE,
00FE,
0001,
0004,
0000,
0001,
00FC,
00FD,
0002,
0000,
0001,
0000,
0001,
0006,
0005,
0000,
00FF,
0002,
0003,
0001,
0002,
0000,
0001,
00FE,
00FE,
0001,
0000,
00FF,
00FE,
0002,
0003,
0001,
0001,
0001,
0002,
0001,
0001,
00FE,
0002,
0000,
00FE,
0005,
0005,
0006,
0008,
0005,
0005,
0003,
0004,
00FF,
00FF,
0002,
00FA,
00F6,
00F3,
00FB,
0004,
00FE,
00FB,
00FB,
0003,
0001,
0000,
00FD,
00FC,
0000,
00FC,
00FC,
00FE,
00FF,
0001,
00FD,
00FF,
00FB,
00FE,
0001,
0003,
0000,
00F9,
0002,
0000,
0004,
0001,
00F9,
0004,
00FF,
0001,
00FF,
00FF,
0005,
00FD,
0002,
0002,
0005,
00FE,
00FD,
0000,
0001,
0001,
0001,
00FC,
0001,
0003,
0001,
0006,
0002,
0002,
0001,
0001,
0001,
0002,
0002,
0002,
00FF,
00FE,
0002,
0001,
0001,
00FC,
00FE,
00FF,
0002,
00FF,
0000,
00FF,
0000,
00FF,
00FE,
000C,
0002,
00FF,
0003,
0003,
0009,
0002,
00FF,
0002,
0002,
0001,
0003,
0002,
00FF,
0003,
0006,
0000,
0001,
00FA,
00FD,
00FD,
0001,
00FC,
00FC,
00F2,
00EF,
0004,
0000,
00FA,
00F1,
00ED,
0000,
0003,
00FD,
00FA,
00F8,
00F8,
00FF,
00FE,
0003,
00FF,
00FE,
00FC,
0000,
0006,
00FF,
00FE,
00FC,
0007,
0008,
00FC,
00FD,
00FE,
0007,
0004,
00FD,
0000,
00FF,
0001,
00FF,
00FF,
0001,
0000,
0004,
0000,
00FE,
0005,
0006,
0004,
0004,
00F2,
00F5,
0006,
0003,
000A,
0000,
00F1,
00F3,
00FF,
0005,
0003,
0003,
00FC,
0002,
0003,
0001,
0004,
0004,
0002,
00FF,
00FB,
0000,
0003,
00FF,
0000,
00FD,
00FC,
0001,
00FE,
00FF,
0007,
00FE,
0001,
0000,
00FB,
0007,
0003,
0000,
0004,
00FD,
0005,
0005,
0002,
000B,
000A,
0002,
00FF,
0002,
00FF,
0005,
0008,
0005,
0002,
00F5,
00E9,
00FD,
0009,
0002,
0006,
00F3,
00F2,
00FF,
0000,
0003,
0007,
0006,
0003,
0001,
0002,
00FF,
00FA,
00FF,
00FF,
00FF,
0000,
0004,
0002,
0001,
00FB,
00FB,
00F8,
00FD,
00FD,
00FF,
00FD,
00FF,
0000,
00FE,
00FF,
00FF,
00FD,
00FD,
00FF,
00F9,
0019,
000B,
00F6,
0001,
00FA,
0025,
0008,
00F9,
0001,
00FD,
002A,
00FE,
00FB,
00FF,
0004,
0019,
00F5,
00FF,
00FF,
000A,
000D,
00F0,
00FB,
00FD,
0006,
0005,
0002,
00FE,
00FC,
0003,
0001,
00FC,
00FD,
00FD,
0002,
0001,
00FF,
00FC,
00FF,
0001,
0000,
00FC,
00FB,
00FF,
0000,
00FE,
00FA,
00FC,
00FE,
00FF,
00F9,
00F6,
00FC,
0001,
00FC,
0003,
00FB,
00FA,
0000,
0004,
0013,
0001,
0002,
0001,
0002,
0004,
00FB,
0001,
00FB,
00FF,
00FD,
00FD,
00FD,
00FA,
0000,
0001,
0001,
0000,
0000,
0001,
0000,
0002,
0002,
0001,
0000,
0001,
0001,
0002,
0001,
00FF,
0000,
0001,
0002,
0001,
00FF,
0001,
0001,
0002,
0000,
00FF,
0003,
000E,
000C,
0002,
00FB,
00FB,
0009,
0010,
0004,
0000,
00FD,
00F2,
00FC,
0001,
0001,
0002,
00FB,
00FE,
0000,
00FE,
00FF,
00FF,
0000,
0002,
0001,
0005,
0003,
0003,
0000,
00FE,
0001,
0001,
0003,
0005,
00FD,
00F9,
00F7,
00FA,
00FF,
0005,
0002,
0003,
0001,
00FD,
0001,
0001,
0005,
0005,
0000,
0001,
00F9,
0003,
00FD,
0005,
00FD,
000A,
0009,
00F7,
0001,
00F5,
000E,
00F8,
00FA,
00FF,
00F9,
00F9,
00F2,
0003,
0002,
0003,
00FC,
00FC,
0004,
0001,
0003,
00FF,
00FC,
00FA,
0000,
0007,
00FF,
00FE,
00FE,
0004,
0007,
00FF,
0001,
0004,
0006,
0002,
00FF,
0002,
0004,
0003,
0001,
0000,
0004,
0001,
0000,
0000,
00FE,
00FD,
00FC,
00FD,
00FE,
00FE,
00FE,
00FC,
00FB,
0001,
0001,
00FF,
00FC,
00FC,
0002,
0002,
00FF,
00FE,
00FE,
0001,
0002,
00FE,
00FE,
0000,
0002,
0003,
0008,
0009,
0007,
0001,
00FA,
00FC,
0004,
0009,
0000,
00FB,
00F7,
00FA,
0001,
0002,
00FF,
00FD,
00FE,
0002,
0001,
00FF,
00FE,
0000,
0002,
0000,
0000,
0000,
00FF,
00FF,
0000,
00FF,
00FF,
00FF,
00FF,
00FF,
00FF,
00FF,
00FF,
0001,
0002,
0002,
0002,
0001,
0002,
0002,
0002,
0001,
0000,
0001,
0002,
0005,
0000,
00FE,
0005,
0002,
0001,
0002,
0000,
0004,
0000,
00FE,
0000,
0003,
0003,
00FC,
00F9,
00FC,
0001,
0000,
0000,
00FC,
00FD,
0001,
0000,
0003,
0001,
00FD,
00FE,
0002,
0002,
0000,
00FD,
00FE,
0001,
0002,
00FD,
00FD,
00FE,
0001,
0001,
00F9,
00FA,
00FB,
0001,
0001,
00FC,
00FD,
00FE,
0001,
00FC,
0003,
0005,
0002,
00FE,
00FC,
0008,
0004,
0006,
00FE,
0005,
0015,
000C,
000C,
0005,
00FF,
0009,
0002,
0007,
00FF,
00FB,
00FC,
00FB,
00FE,
00FB,
00FB,
00FB,
00FF,
0000,
00FD,
00FF,
00FF,
0002,
00FF,
00FE,
00FF,
00FE,
0001,
00FF,
00FD,
00F9,
00FB,
0001,
00FE,
00FF,
00FB,
00FF,
00FF,
0001,
0000,
00FF,
00FE,
00FD,
00FF,
00FE,
00FE,
00FB,
000E,
00FF,
00FB,
0000,
00FE,
0019,
00FF,
00FE,
0002,
00FC,
0005,
00FE,
00FE,
0004,
00FD,
00FF,
0000,
0000,
0003,
0001,
0000,
00FF,
00FF,
0002,
0000,
0000,
00FE,
00FF,
0001,
00FD,
00FC,
00FC,
00FE,
00FE,
00FB,
00F8,
00F9,
00FD,
00FC,
00F8,
00F7,
00F7,
00FB,
00FE,
00FB,
00FA,
00FD,
0001,
0003,
00FE,
00FB,
00FD,
0001,
0004,
0000,
00FF,
00FE,
00FF,
0004,
00FE,
00FE,
00FF,
00FF,
0003,
00FC,
00FA,
00FF,
0003,
0003,
0000,
00F9,
00FB,
00FF,
0003,
0001,
00F3,
00FD,
0009,
0002,
0000,
00EF,
0006,
0014,
0001,
0000,
00EF,
000B,
0009,
0003,
0000,
00FB,
0005,
00F6,
0000,
00FF,
00FD,
00FC,
00FC,
0001,
00FF,
00FE,
00FC,
00FC,
0004,
0004,
0004,
0001,
0001,
0001,
0002,
0001,
00FE,
0000,
0002,
0003,
0002,
00FF,
00FF,
0009,
0013,
001B,
0018,
000C,
0005,
000A,
000D,
0008,
0003,
00F5,
00E3,
00DF,
00ED,
00F9,
00FF,
00F9,
00F5,
00FF,
0003,
0002,
0000,
00FB,
0001,
0000,
00FF,
00FE,
00FD,
00FE,
0000,
00FE,
00FF,
00FE,
00FF,
0000,
00FD,
00FD,
00FF,
00FF,
00FE,
00FC,
00FC,
00FF,
00FD,
00FC,
00FC,
00FE,
0001,
0000,
00FD,
00FD,
00FE,
00FF,
00FD,
00FF,
0001,
0001,
0005,
0001,
00FE,
0005,
0008,
000A,
0003,
0001,
0004,
0002,
0004,
0003,
0002,
0002,
0000,
0003,
0002,
00FF,
0000,
00FE,
0002,
0000,
00FE,
0001,
00FF,
0002,
00FE,
00FE,
00FF,
00FF,
0000,
00FD,
00FE,
0000,
00FE,
00FF,
00FD,
00FD,
0001,
0000,
0000,
00FD,
00FD,
00FE,
0005,
0005,
00FE,
00FF,
00FE,
0001,
0002,
0003,
0005,
00FA,
00F4,
00EE,
00F6,
00FB,
0005,
0004,
0002,
0001,
00F9,
0002,
0006,
000C,
000A,
0001,
0005,
0003,
0000,
0001,
0001,
0003,
0003,
00FF,
0001,
0001,
00FC,
00FD,
00FB,
0004,
0004,
00FE,
00FB,
00FA,
0002,
0007,
0005,
0000,
00FC,
00FF,
0005,
0003,
0001,
00FD,
0005,
0001,
0002,
00FE,
00FF,
0008,
0006,
00F9,
00FC,
00FE,
00FB,
00FF,
00FE,
000B,
000E,
0000,
00FF,
00FF,
00FD,
00FA,
0006,
0002,
00FE,
0000,
0004,
00FF,
00FF,
00FA,
0000,
0000,
00F8,
00FB,
0006,
000D,
0011,
0001,
0000,
0002,
0005,
0006,
00F8,
00FD,
00FC,
0001,
0004,
00F9,
00FB,
0001,
00FC,
00FD,
0000,
0002,
00FF,
00FA,
00FC,
0000,
0001,
00FE,
00FA,
00F8,
00FE,
0000,
00FA,
00F6,
00FA,
0001,
0001,
0000,
00FF,
0001,
0002,
0003,
0000,
0001,
0002,
0002,
00FF,
0005,
0006,
0005,
0005,
0003,
0009,
000C,
000A,
000A,
0007,
0003,
0007,
0008,
0006,
0002,
00FE,
00FF,
00FF,
00FD,
00FE,
0003,
0002,
00FE,
00FE,
00FD,
0004,
0001,
0001,
0002,
0002,
00FF,
0000,
0002,
0004,
0002,
00FE,
00FC,
00FD,
00FD,
0001,
00FE,
00FE,
00FE,
00FD,
00FF,
0003,
0003,
0001,
0001,
00FD,
0003,
00F5,
00EA,
00F7,
00FF,
00FC,
00F2,
00F3,
0001,
0005,
00FD,
0001,
00FE,
0004,
0003,
0009,
0003,
00FF,
00FF,
0001,
00FF,
0001,
0001,
0000,
0000,
00FF,
0000,
00FF,
00FE,
00FE,
00FF,
0000,
0000,
00FF,
0000,
00FF,
00FF,
00FF,
00FE,
00FF,
00FE,
0000,
00FF,
00FD,
00FE,
0004,
00FE,
00FD,
00FF,
00FE,
0005,
00FF,
00FE,
00FF,
00FF,
0005,
00FE,
00FE,
0000,
0000,
0004,
00FE,
00FE,
0001,
00FF,
0005,
00FF,
00FE,
0000,
00FF,
0001,
00FE,
00FD,
0000,
0000,
0000,
00FE,
00FE,
00FF,
00FD,
0004,
0004,
0003,
00FE,
00FE,
0009,
0010,
000F,
0003,
0001,
0002,
0008,
000A,
0001,
0000,
0003,
0003,
0003,
0004,
0002,
0002,
00FD,
00FD,
00F8,
00F9,
0002,
00FF,
00FF,
00F1,
00F7,
0003,
0000,
00FE,
00F6,
00FD,
0000,
00FF,
0003,
0001,
0005,
0003,
0000,
0005,
0006,
00FF,
0002,
00FF,
0004,
0004,
00FE,
00FF,
00FB,
0000,
00FE,
00FA,
0001,
00FC,
0002,
0001,
00FB,
0003,
0001,
0009,
0005,
00FF,
00FF,
0000,
0003,
00FE,
00FD,
0002,
0002,
00F6,
00F2,
00F5,
0004,
0000,
00F6,
00FB,
00FD,
00FF,
0001,
00FE,
0004,
0002,
0002,
0005,
0002,
0002,
0004,
00FD,
00FE,
00FC,
0000,
0000,
0001,
00FF,
0003,
0004,
0002,
00FE,
00F9,
00FE,
0000,
0001,
0001,
00FF,
00FF,
0000,
0003,
0000,
0002,
0001,
0000,
00FF,
0002,
0001,
0002,
0004,
0002,
0002,
0000,
00FF,
00FE,
00FE,
00FF,
00FD,
00FC,
00F9,
00FC,
0000,
00FF,
0002,
0002,
0004,
0002,
0005,
0006,
0004,
0004,
0000,
00FE,
0002,
0003,
0001,
00FF,
00FA,
0003,
0002,
0001,
0000,
00FC,
0002,
0000,
0001,
00FF,
00FE,
0000,
00FE,
00FF,
0000,
00FC,
0000,
0001,
0002,
0001,
0003,
0008,
0006,
0000,
0003,
00FF,
00FB,
00FB,
00FD,
0003,
0002,
00FA,
00FA,
00FE,
0006,
0006,
0002,
0001,
0002,
0004,
0003,
0001,
0001,
0003,
00FF,
00FF,
00FE,
00FF,
0000,
00FF,
00FE,
00FE,
00FE,
00FF,
00FF,
00FE,
00FD,
00FF,
0000,
0001,
00FF,
00FE,
00FF,
0000,
0001,
0000,
00FE,
00FF,
0000,
0007,
0006,
0007,
0009,
0004,
0003,
00F6,
00F7,
00FE,
00FF,
00F8,
00F7,
00FA,
00FA,
00FC,
00FE,
0005,
0000,
0002,
0002,
0004,
0001,
0002,
0003,
0001,
0001,
00FE,
00FD,
00FD,
00FD,
00FE,
00FD,
0000,
00FE,
00FB,
00FE,
00FC,
0004,
0002,
00FB,
0000,
00FD,
0005,
0003,
00FC,
00FD,
00FE,
00FE,
00FD,
00FE,
0004,
0001,
00FF,
0002,
0002,
0003,
0002,
0001,
0003,
0004,
0002,
0005,
0007,
0006,
0006,
00FF,
0003,
0005,
0004,
0004,
00FE,
0000,
0000,
0002,
0002,
00FD,
0000,
00FE,
00FF,
00FF,
00FE,
00FE,
00FF,
0005,
0001,
0001,
00FD,
00FD,
0003,
0000,
0001,
00FF,
00FC,
00FE,
00FF,
0002,
0000,
00FD,
00FE,
0000,
00FF,
00FE,
00FD,
00FF,
0000,
00FF,
00FD,
00FB,
00FB,
00FC,
0002,
0002,
0003,
0004,
0002,
00FD,
00FD,
00FD,
00FE,
0000,
00FE,
00FE,
00FE,
0000,
0002,
00FF,
00FE,
00FD,
00FE,
0001,
0002,
0002,
0003,
0003,
0004,
0001,
00FD,
00FE,
0003,
0003,
00FF,
00FE,
00FC,
00FE,
00FF,
0003,
0002,
00FF,
00FF,
0000,
00FF,
0000,
0001,
00FE,
00F2,
000B,
0014,
0017,
0013,
0000,
00F7,
00FD,
0002,
00FA,
00F5,
0002,
0004,
0006,
0002,
0000,
00FD,
0001,
0001,
00FD,
00FE,
00FC,
0004,
0008,
0003,
00F9,
0004,
0015,
0022,
0011,
00FD,
0002,
0013,
0020,
0015,
0008,
00F1,
00EA,
00EE,
00F1,
00F5,
00F2,
00ED,
00EC,
00EF,
00F4,
0000,
0009,
00F9,
00FE,
0002,
0006,
00FB,
00F2,
0009,
0004,
000B,
00F6,
00F4,
000C,
0005,
0003,
00FD,
0008,
000A,
00FF,
00FE,
00FD,
0007,
0005,
00FF,
00FE,
00FE,
0000,
00FD,
00FD,
00FD,
0000,
0004,
0003,
00FE,
0002,
0003,
0004,
0002,
0001,
00FD,
0001,
0004,
0001,
00FD,
00FE,
0000,
0002,
00FD,
00FD,
0000,
0003,
0001,
0001,
0002,
00FF,
0002,
0001,
0001,
0002,
0000,
0007,
0005,
0004,
0005,
0000,
0008,
0006,
0005,
0005,
0000,
0008,
0004,
0004,
0007,
00FC,
00FF,
00FE,
00FB,
00FB,
00FD,
0005,
0007,
0002,
00FE,
00FF,
00FC,
00FC,
00FD,
00FE,
0002,
0002,
0000,
0000,
00FC,
00FD,
00FF,
0000,
00FF,
00FC,
0000,
0002,
0003,
00FF,
0001,
0006,
0002,
00FF,
00FB,
00FD,
0007,
00FD,
00F7,
00F4,
00FB,
00FF,
00FB,
00F9,
00FB,
0000,
0003,
0001,
00FD,
0001,
0006,
00FF,
00FF,
0000,
00FE,
00FE,
00FF,
0000,
0000,
00FF,
00FF,
0000,
0001,
0002,
0001,
0001,
0000,
0000,
0001,
0000,
0000,
00FF,
00FF,
0000,
00FF,
00FF,
00FF,
00FD,
0002,
0005,
0000,
00FF,
00FD,
0002,
0005,
0000,
00FB,
00FA,
00FC,
0001,
0001,
00FD,
00FF,
0001,
0002,
0003,
00FF,
0000,
0006,
0005,
0005,
0006,
0006,
00F6,
0003,
00FC,
000F,
0005,
00ED,
000A,
00FD,
0010,
0003,
00E6,
0008,
00F6,
0007,
00FC,
00EF,
0010,
00FE,
0002,
00FB,
00F9,
000A,
0000,
00F8,
0000,
0000,
00FB,
00F6,
0004,
0010,
0011,
0008,
00FF,
0016,
0021,
0025,
0018,
000A,
0008,
0016,
0018,
000D,
0001,
00FC,
0005,
0006,
00FD,
00F8,
00FA,
00FC,
0004,
0009,
0003,
00F9,
00F9,
00FC,
0009,
0009,
00FF,
00FE,
00F7,
00FE,
0006,
0000,
0002,
00FD,
00FE,
0003,
00FD,
00FD,
00FC,
00FE,
0002,
0000,
0000,
0000,
0002,
0002,
0000,
00FF,
0000,
0003,
0005,
00FD,
00FC,
00FA,
00FC,
00FE,
00FD,
00FB,
00F9,
00FA,
00FD,
00FE,
00FE,
00FD,
00FC,
00FD,
0000,
00FE,
0000,
0001,
0002,
00FE,
00FD,
00FF,
00FF,
0002,
0001,
00FD,
00FE,
00FE,
0003,
0002,
0000,
0000,
0001,
0001,
0004,
0005,
0005,
0004,
0001,
0004,
0004,
0000,
0002,
0006,
00FE,
00F9,
00F6,
00FD,
0004,
00F9,
00F5,
00F7,
00FD,
0006,
00FE,
00FD,
00FF,
0000,
0006,
0001,
0001,
0000,
0002,
0004,
0001,
00FE,
0001,
0001,
0001,
00FD,
00FD,
00FF,
0003,
0006,
0000,
00FB,
00F9,
00FE,
0004,
0005,
0004,
00FD,
00FC,
00FE,
0002,
0003,
0000,
00FD,
00FC,
0002,
00FA,
00FB,
00FF,
0003,
00FA,
00F8,
00F4,
00F5,
00FE,
00FF,
00FA,
00F2,
00F8,
0002,
000C,
0010,
0014,
000C,
0000,
0001,
0005,
0007,
0003,
00FF,
00FE,
00FE,
0000,
0002,
00FF,
00FF,
00FC,
00FE,
0003,
0002,
0000,
00FD,
00FE,
0002,
0002,
00FF,
00FE,
00FE,
00FF,
00FF,
0001,
0000,
0002,
0003,
0002,
0003,
0001,
0001,
0002,
0004,
0005,
0003,
0007,
0005,
0003,
0004,
0004,
0001,
00FD,
00FE,
00FE,
00FF,
00FB,
00FA,
00FC,
00FC,
00F8,
00F4,
00F5,
00F8,
0004,
0004,
0000,
00FE,
00FE,
0001,
0002,
00F9,
00FB,
0000,
00FE,
00FB,
00F6,
00FB,
0000,
00FD,
00FB,
00FC,
0000,
0002,
00FF,
0001,
0004,
0004,
0003,
0002,
00FB,
0001,
00FD,
00FF,
00FF,
0002,
0000,
0000,
00FC,
0002,
0002,
00FB,
0002,
00FB,
00FC,
0001,
0003,
0000,
00FB,
00FC,
00FD,
00FF,
00FC,
00FE,
00FD,
0000,
0003,
0000,
00FF,
00FC,
00FC,
0002,
00FD,
0000,
00F6,
00FD,
000D,
00F7,
00FB,
00FA,
00FF,
0007,
00FC,
00FD,
0001,
00FF,
00FF,
0001,
0002,
00FD,
00FA,
00FD,
00FE,
0000,
00FC,
00FF,
0002,
00FD,
0003,
0000,
0004,
0002,
0000,
0006,
00FD,
0000,
00FD,
0001,
00FE,
0001,
0000,
0001,
00FF,
00FB,
00FA,
00F9,
00FF,
0000,
00FB,
00FB,
00F8,
0001,
0003,
00FD,
0000,
0004,
000E,
000E,
0002,
0004,
0009,
0012,
0012,
0004,
0002,
0007,
000E,
000D,
0002,
0000,
0001,
00FE,
00FF,
0000,
00FD,
0000,
00FE,
00FD,
00FE,
00FD,
00FF,
0001,
00FF,
0002,
00FD,
0002,
0001,
0000,
00FF,
00FD,
0000,
00FF,
0000,
0002,
00FE,
00FB,
00F8,
00FA,
00FE,
00F8,
00F5,
00F3,
00F3,
00F6,
00F5,
00F1,
00EF,
00F0,
00F3,
00FC,
00F5,
00F5,
00F8,
00FA,
0004,
00FC,
00FB,
00FC,
00FF,
0001,
0002,
0003,
0002,
0000,
0000,
00FF,
0000,
00FF,
00FE,
0001,
0001,
00FF,
0000,
0001,
0005,
0005,
0002,
0004,
0004,
0005,
0004,
0002,
0003,
0002,
00ED,
00F0,
00F3,
0001,
000E,
00E1,
00E8,
0000,
0012,
0019,
00DA,
00E5,
000D,
0024,
0020,
00EB,
00F2,
0003,
0014,
0012,
00FB,
0000,
0001,
0001,
0003,
0000,
0001,
0003,
0001,
0001,
00FB,
00FF,
0005,
0007,
0005,
00FD,
00FF,
0006,
000C,
000A,
0000,
0000,
0001,
0003,
0003,
0000,
0002,
00FE,
00FC,
0000,
0001,
0000,
0003,
0000,
0001,
00FF,
00FF,
0001,
0001,
0000,
0000,
00FF,
0002,
0002,
0000,
00FE,
00FD,
0002,
0003,
00FF,
0000,
00FE,
0003,
0003,
0001,
0001,
0003,
0004,
0000,
0003,
00FD,
00F8,
00F7,
00FC,
0003,
00FE,
00F2,
00F4,
0000,
0006,
00FF,
00FB,
00FD,
00FE,
0002,
0002,
0006,
0005,
0002,
0000,
0002,
0000,
00FF,
0003,
0004,
00FE,
00FC,
00FB,
00FF,
0000,
00FB,
00F9,
00F8,
00FC,
00FE,
00FF,
00FB,
00FA,
00FD,
00FD,
00FE,
00FA,
00F9,
00FD,
0000,
0005,
0000,
0001,
00FE,
00FD,
0004,
0001,
0002,
00FE,
00FD,
0005,
0002,
0003,
0001,
00FD,
0002,
0000,
0002,
0000,
00FD,
00FF,
0000,
0003,
0002,
00FF,
0007,
0006,
00FA,
00F9,
00F7,
000B,
000D,
0002,
00EE,
00EF,
0011,
0014,
0007,
00E9,
00E5,
0010,
0010,
0008,
00F3,
00E9,
0006,
0006,
00FE,
00FA,
00F4,
00FC,
00F7,
00F4,
00F6,
00F6,
00F2,
00EB,
00E7,
00EB,
00F0,
00ED,
00E7,
00E6,
00E8,
00ED,
00F5,
00EE,
00ED,
00F0,
00F4,
00FB,
00F5,
00F2,
00F5,
00F8,
0004,
0003,
0004,
0004,
0005,
0002,
00FF,
0002,
0002,
0004,
0000,
00FB,
00FA,
00F9,
00FD,
0002,
00FE,
00F8,
00F6,
00FE,
0007,
0004,
0002,
0000,
0006,
00FA,
0004,
000C,
0006,
00FB,
00FE,
000C,
0011,
0009,
00FF,
0006,
0011,
0015,
0015,
0005,
00FB,
0002,
000B,
000A,
00FF,
00F6,
0002,
000A,
0003,
00F7,
00FE,
0000,
0002,
0000,
0001,
0000,
0000,
0000,
00FE,
00FF,
0002,
0002,
00FF,
00FE,
00FE,
0003,
0003,
0001,
00FE,
00FD,
0003,
0003,
0003,
00FF,
00FE,
0000,
00FF,
0000,
0000,
0001,
0000,
00FE,
00FF,
0000,
0001,
0000,
00FC,
00FF,
0000,
0002,
0000,
00FD,
0001,
0000,
0002,
00FF,
00FD,
0000,
00FF,
0000,
00FD,
00F6,
00F6,
00F9,
00FC,
00FB,
00F4,
00F5,
00FC,
0003,
00FD,
00F5,
00F7,
00FE,
0003,
00FD,
00F9,
00FA,
00FE,
00FF,
00FE,
00FE,
0001,
0001,
0002,
0003,
000A,
000D,
0002,
00FF,
0003,
0007,
000C,
0003,
0002,
0006,
000E,
0012,
0005,
0005,
0000,
0007,
0008,
0001,
0000,
00FF,
0005,
0008,
0001,
0002,
00F8,
00FA,
0000,
00FD,
00F8,
00FC,
00FF,
000B,
0004,
00FB,
0000,
0005,
0012,
0007,
00FD,
00FC,
0002,
0007,
0003,
00FB,
00F9,
00FE,
0000,
00FD,
00FA,
00FA,
00F6,
00F6,
00FD,
0001,
0000,
00FD,
00FA,
00F6,
00F8,
00FF,
00FA,
00FA,
00FD,
00FA,
0005,
0001,
00FD,
00F9,
00FD,
0000,
0000,
0001,
00FF,
00FE,
0002,
0001,
0000,
00FE,
0000,
0002,
0000,
00FF,
00FE,
0000,
0005,
0002,
00FE,
00FF,
0002,
0002,
00FE,
00FE,
00FF,
0000,
00FF,
00FD,
00FD,
00FF,
00FF,
0002,
0005,
00FD,
000B,
0007,
00F2,
0018,
00EB,
00F8,
0009,
00F2,
0022,
00E7,
00F1,
0008,
0000,
000C,
00F2,
0007,
0007,
0004,
00FD,
00F9,
0009,
0000,
0004,
0000,
0006,
0005,
0002,
0001,
00F9,
00FC,
0007,
0001,
00FE,
00F8,
00F4,
0007,
0003,
0002,
0007,
00FE,
0003,
0006,
00FF,
0008,
0005,
00FB,
00FF,
00FF,
00FF,
00FF,
0000,
0000,
0002,
0001,
0001,
0004,
0002,
0000,
00FF,
00FE,
0000,
0001,
0000,
00FF,
00FF,
0001,
0001,
0001,
0001,
0001,
0002,
0002,
00FE,
0000,
0000,
0002,
0003,
00FE,
0001,
0000,
0003,
0003,
00FE,
0001,
0002,
0003,
0003,
00FC,
0002,
0003,
0004,
0004,
0000,
0004,
0002,
0002,
0002,
0000,
0001,
0000,
0001,
00FF,
0000,
00FF,
00FF,
00FF,
00FF,
0000,
0000,
00FD,
00FF,
00FF,
0001,
00FF,
00FE,
0001,
0002,
00FF,
0000,
00FE,
0001,
0002,
00FA,
0003,
0008,
0000,
0000,
00F6,
00F5,
0013,
0004,
00FE,
00FF,
00E8,
0005,
0000,
00FE,
000B,
00F3,
0000,
0001,
0005,
0009,
00FF,
0003,
0002,
0006,
00FF,
00FF,
0005,
00FF,
0001,
00FF,
00FC,
0004,
00FF,
0000,
0000,
0000,
0007,
00FF,
00FF,
00FC,
00FE,
0002,
00FB,
00FC,
00FE,
00FF,
0004,
00FD,
00FD,
0002,
0001,
0002,
00FF,
0000,
0004,
0004,
0004,
0001,
0000,
0003,
0002,
0002,
0000,
00FD,
0000,
00FF,
0000,
00FF,
00FE,
0001,
0000,
0003,
0001,
0000,
00FD,
0000,
0001,
0000,
00FE,
00FE,
0002,
0000,
00FE,
00FE,
0004,
00FB,
00F6,
0001,
0002,
00FA,
00F9,
0007,
0008,
00FA,
00FC,
00FE,
0001,
00FE,
00FA,
00FF,
00FB,
00F7,
0009,
0002,
0008,
00FA,
00EE,
000A,
0003,
0011,
00FC,
00E6,
000B,
0006,
000D,
00FF,
00EB,
0003,
0002,
0001,
0000,
00FB,
0002,
00FF,
0001,
0002,
0003,
0000,
00FF,
0000,
0000,
0001,
0002,
0001,
0000,
00FF,
00FE,
00FF,
00FF,
0002,
0004,
0003,
0001,
0000,
00FF,
0001,
00FF,
0000,
00FF,
0006,
0005,
0005,
0005,
0005,
0002,
0001,
0001,
0001,
0002,
00FF,
00FE,
00FE,
00FE,
00FF,
00FE,
00FD,
00FC,
00FC,
00FD,
0000,
00FF,
00FE,
00FF,
0000,
0006,
00FF,
0000,
00FE,
0006,
0001,
00E8,
0020,
00FE,
00F8,
0000,
00E2,
0020,
00FC,
00F5,
000C,
00FD,
00FD,
00FF,
0009,
0000,
0002,
00FF,
00FF,
00FF,
0003,
0005,
0002,
0000,
0001,
00FE,
00FF,
00FF,
00FD,
00FC,
00FC,
0000,
0001,
00FE,
00FC,
00FD,
00FC,
00FD,
00FC,
00FC,
00FD,
00FD,
00FC,
00FC,
00FD,
0002,
00FC,
00FD,
0002,
00FE,
0004,
0000,
0002,
0007,
00FE,
0008,
00FF,
00FB,
000B,
0000,
0008,
00FF,
00FC,
0006,
0000,
0005,
0001,
00FF,
0006,
0002,
0001,
0001,
00FB,
00FC,
0001,
00FD,
00FC,
00FA,
00FC,
00FE,
00FB,
00F9,
00F7,
00FA,
00F9,
0002,
00FF,
00FD,
00FF,
00FF,
0004,
0001,
00FD,
00FE,
00FD,
0003,
0004,
00FC,
00FD,
00FF,
0001,
00FD,
00FF,
0001,
00FD,
0005,
00FF,
00F8,
00FC,
00FF,
0005,
0002,
00FC,
00FF,
0002,
0003,
0000,
00FC,
00FD,
0001,
0003,
0001,
0002,
0002,
0002,
0001,
00FE,
00FF,
0001,
0002,
0000,
00FC,
00FB,
00FD,
0000,
00FF,
00FD,
00FB,
00FB,
0000,
0000,
00FD,
00FC,
00FC,
0000,
0000,
0001,
0002,
0001,
0002,
00FE,
00FD,
00FF,
00FE,
00FD,
00FF,
0002,
0000,
00FD,
00FF,
00FE,
00FD,
0002,
0000,
0002,
00FD,
00FE,
0001,
0002,
0003,
0002,
0007,
0006,
0002,
00FE,
0005,
000F,
00FE,
00FB,
00FD,
0002,
0005,
00F2,
00FC,
0002,
0001,
00FC,
00F3,
0006,
0007,
0002,
00FF,
00FD,
0009,
0006,
00FB,
00FE,
0004,
0003,
0004,
00FC,
00FC,
0001,
00FA,
00FD,
00F4,
00F6,
0000,
00FC,
00FD,
00FA,
00F7,
00F9,
00FA,
0000,
0001,
0001,
0003,
0001,
0003,
0000,
00FD,
00FC,
00FD,
0000,
0005,
00FF,
0000,
0003,
0001,
0001,
00F9,
00F1,
00F9,
0002,
0002,
0003,
00FD,
00F8,
00FB,
00FC,
0001,
0009,
0004,
00FE,
00FD,
00FB,
0001,
0000,
00FD,
00FF,
00FE,
0001,
00FF,
00FB,
00FE,
00FF,
0001,
0000,
00FE,
00FB,
00FD,
0001,
00FF,
0000,
00FD,
00FE,
00FE,
00FD,
00FE,
00FF,
00FE,
0001,
00FF,
0001,
00FF,
00FE,
0002,
00FE,
0001,
00FF,
00FF,
0003,
0000,
0001,
00FD,
00FD,
0003,
0002,
0000,
00FD,
00FD,
0004,
0002,
0001,
0002,
00FF,
00FE,
00FE,
0000,
00FF,
00FC,
00FA,
00FB,
00FC,
00FC,
00F7,
00F5,
00F8,
00FA,
00FE,
00FB,
00FA,
00FB,
00FD,
0003,
00FE,
00FD,
00FF,
0003,
0001,
0002,
0007,
0003,
0000,
00F6,
00F3,
00F5,
00F3,
00F7,
00F2,
00E8,
00E9,
00EC,
00F5,
0012,
0030,
0040,
0026,
000D,
00F7,
00FB,
0000,
00F6,
00F9,
00FD,
0002,
00FF,
00F9,
00FC,
0002,
0009,
0003,
00F6,
00FC,
0004,
000E,
0009,
00F7,
00FF,
00FD,
0006,
0007,
0000,
0002,
00F9,
0000,
0004,
0000,
0001,
0007,
00FB,
00F0,
00FE,
0000,
0010,
0003,
00E5,
00F7,
00FE,
001A,
0011,
00E3,
00EE,
00F8,
000E,
0012,
00F0,
00F7,
00FF,
0006,
0007,
00F8,
0002,
0006,
0002,
0001,
0002,
0002,
0001,
00FF,
0008,
0002,
00FB,
00FF,
0006,
000C,
00F6,
00EF,
00FD,
0006,
0007,
00F1,
00F6,
0002,
0003,
0000,
00F9,
0003,
0003,
0002,
001B,
0021,
0000,
00F8,
0000,
00ED,
00E9,
00F6,
0000,
0001,
00E4,
00DF,
00FA,
0006,
0006,
0003,
0001,
0003,
00FF,
0000,
0003,
00FF,
00FD,
00FD,
0002,
00FF,
0000,
00FE,
00FF,
0000,
00FF,
0001,
00FF,
00FE,
0003,
0000,
0004,
0001,
00FE,
00FF,
00FF,
0001,
0001,
00FE,
00FF,
0000,
0001,
0003,
0001,
0000,
0001,
00FE,
0003,
00FE,
00FE,
0001,
00FE,
0001,
00FC,
0000,
0001,
00FE,
0004,
00FF,
00FD,
00FD,
00FB,
0000,
00FC,
00FD,
0000,
00FD,
00FF,
00FB,
00FF,
0003,
0001,
00FF,
0006,
00FE,
00FF,
00FC,
00FE,
0007,
00FD,
00FC,
00F8,
00FE,
0007,
00FE,
00FC,
00FC,
0004,
0007,
0001,
00FF,
0001,
0003,
0001,
00F9,
00F8,
00F7,
00FA,
00F8,
0002,
00FA,
00F5,
00FB,
00FA,
000F,
0008,
00F9,
00FD,
00FC,
000F,
0011,
0004,
0002,
0000,
0008,
000D,
000B,
0008,
0002,
00FA,
00F9,
00FD,
0000,
0001,
0000,
0001,
00FF,
00FE,
0001,
0002,
0001,
0001,
0001,
0003,
0003,
0002,
0002,
0000,
0001,
0004,
0002,
0001,
0000,
0002,
00FE,
0000,
0003,
0004,
0004,
00FD,
00FE,
0001,
0002,
0003,
00FF,
00FF,
00FF,
0001,
0004,
0000,
0001,
0001,
0001,
0003,
00FF,
0000,
0000,
00FF,
0000,
0003,
0001,
0008,
0004,
0000,
000A,
0001,
00FC,
00FD,
0006,
0005,
00F8,
00F5,
00F8,
0001,
0001,
00FA,
00FB,
00FB,
0002,
0003,
00FC,
00FB,
00FF,
0001,
0002,
0002,
0003,
0003,
0006,
0000,
00FF,
0002,
0008,
0006,
00FD,
00F8,
00FD,
0007,
0006,
00FF,
00F8,
00F5,
00F9,
00FD,
00FF,
00F9,
00F7,
00F8,
00FB,
0002,
00F9,
00F7,
00FE,
0005,
00F6,
00EA,
00E8,
00F2,
00FF,
00EF,
00E2,
00E2,
00ED,
00FA,
00F9,
00EF,
00F0,
00F7,
00FF,
0004,
00FE,
00FF,
0003,
0006,
0005,
0001,
00FF,
00F9,
000E,
0000,
00FF,
00F7,
00E8,
0010,
00FF,
000F,
00FB,
00D9,
0001,
00FE,
000A,
00F8,
00EC,
00FF,
00FF,
0003,
00FB,
00FF,
0002,
0000,
0000,
0000,
0000,
0000,
0000,
0000,
0000,
0000,
0000,
0000,
0000,
0000,
0000,
0000,
0000,
0000,
0000,
0000,
0000,
0000,
0000,
0000,
0000,
0000,
00FD,
00FD,
00FE,
00FF,
00FE,
00FE,
00FE,
00FF,
0000,
0000,
00FE,
00FF,
0000,
00FF,
0000,
00FF,
0000,
0001,
0002,
0002,
00FF,
0000,
0001,
0001,
0000,
00FC,
00FC,
0002,
0004,
0002,
00FB,
00FB,
0000,
0007,
0005,
00FF,
00FD,
00FA,
0002,
0002,
0000,
0003,
00FC,
0001,
0001,
0002,
0004,
0000,
00FE,
00FE,
00FF,
00FB,
00F3,
0001,
0005,
00F2,
00ED,
00F1,
000D,
000D,
00FA,
00FD,
0005,
000D,
0008,
0000,
0001,
0001,
0003,
0003,
0002,
0005,
0003,
0008,
0006,
0006,
0004,
0000,
00FD,
0000,
0003,
00FF,
00FA,
00FA,
00FD,
00FB,
00F4,
00F6,
00FB,
0002,
00FA,
00F5,
00FE,
0005,
0007,
00FB,
00FD,
0003,
0003,
0003,
00FF,
00FF,
0000,
0000,
0001,
0000,
0000,
00FE,
0005,
0002,
0003,
0003,
00FD,
0001,
0000,
0002,
0004,
00FE,
0001,
00FF,
0001,
0000,
00FD,
0000,
0000,
00FD,
00FE,
00FF,
00FF,
0000,
00FD,
00FE,
00FF,
00FE,
0002,
00FC,
00F9,
00F7,
00FA,
0000,
00FE,
00FE,
00FF,
0001,
0002,
00FF,
0003,
0004,
0001,
00FF,
0005,
0002,
0002,
00FF,
00FE,
0006,
0003,
0002,
00FF,
0001,
0004,
0002,
0001,
0002,
0003,
0003,
0001,
0000,
00FF,
0001,
0002,
0000,
0001,
0000,
00FF,
00FD,
00FD,
0002,
0003,
0001,
0000,
0002,
0007,
0002,
0001,
00FC,
00FC,
00FF,
00FB,
00FF,
0001,
0000,
00FF,
00FC,
0002,
0000,
0000,
0001,
00FE,
0002,
00F8,
0004,
0000,
0001,
00FC,
00FD,
0001,
0003,
0003,
00FD,
00FE,
0001,
0006,
0005,
0000,
00FC,
0001,
0002,
0004,
0002,
00FA,
0001,
0000,
0001,
00FF,
00FF,
00FD,
00FC,
00FF,
0004,
0001,
00FB,
00FA,
00FD,
0003,
0004,
00FC,
00F3,
00F6,
00FF,
0003,
0004,
0006,
0002,
0002,
0004,
0002,
0009,
0008,
0003,
0000,
0004,
00FF,
00FF,
00FF,
0005,
0003,
00F3,
0003,
0006,
00FC,
00EE,
00D8,
0019,
0025,
00FE,
00F8,
00E1,
0011,
0021,
0004,
0006,
00FD,
00FF,
0003,
00FF,
00FF,
0000,
00FD,
00FE,
00FF,
0002,
0001,
0000,
0000,
0001,
0002,
0001,
00FF,
00FF,
0001,
0002,
0001,
0000,
00FE,
0000,
0001,
00FF,
00FE,
00FC,
0002,
0005,
0006,
0006,
0003,
0001,
0001,
0002,
0002,
0000,
00FB,
00FA,
00F9,
00FB,
00FA,
00FC,
00FB,
00FA,
00FA,
00FB,
00FA,
00FB,
00FB,
00FB,
00FC,
0001,
00FD,
00FC,
00FC,
0001,
00FF,
00F6,
00F4,
00F8,
00FF,
0005,
00FC,
00F5,
00F9,
0001,
0004,
0003,
00FF,
0000,
0003,
0000,
0001,
0000,
0001,
0002,
00FF,
00FA,
00FC,
00FA,
00F7,
00FE,
00F8,
00FE,
00FA,
00FA,
00FE,
00F7,
00FE,
00F9,
00F7,
0003,
0000,
0001,
0002,
0001,
0002,
0000,
0003,
0002,
0002,
00FF,
00FF,
00FF,
0000,
0000,
0000,
00FF,
0000,
0000,
0001,
0002,
0001,
0001,
0002,
0003,
00FF,
00FF,
0000,
00FF,
0000,
0001,
0001,
0000,
00FE,
0000,
00FB,
00FB,
00FD,
00FF,
00F9,
00FA,
0000,
0006,
0005,
00FC,
00F9,
0001,
0008,
0004,
00FA,
00FA,
00FE,
00FF,
00FC,
00F7,
00F9,
00F9,
00FE,
00FC,
00F8,
000B,
000A,
00FD,
00F7,
00F5,
0018,
0014,
00FE,
00F0,
00EC,
0014,
000E,
00FE,
00F3,
00EF,
0004,
00FF,
00FF,
00FF,
00F9,
0002,
00FF,
0000,
0003,
00FB,
00FE,
00FF,
00FE,
00FE,
0001,
00FF,
00FF,
00FF,
00FF,
0000,
0000,
00FE,
00FF,
0000,
0001,
0001,
0000,
0000,
0001,
0001,
0001,
0001,
0000,
0000,
0001,
0005,
0008,
0009,
0004,
0003,
0007,
0014,
0019,
000F,
0008,
00EC,
00DC,
00DC,
00EA,
00F4,
00FF,
00FE,
00FE,
00FD,
00FA,
00FF,
0004,
0005,
00FD,
00FE,
0002,
0003,
0006,
0003,
0004,
0000,
0002,
0003,
0002,
0002,
0003,
0005,
0005,
0002,
0002,
00FF,
0002,
0004,
0000,
00FF,
00FD,
0000,
0003,
00FF,
00FE,
00FF,
0000,
0000,
00FF,
0000,
00FF,
0001,
0001,
0000,
00FF,
00FC,
00FD,
00FC,
00FC,
00FD,
00FE,
00FE,
00FB,
00FC,
00FE,
00FE,
00FD,
00FB,
00FE,
00FE,
00FD,
00FA,
00FC,
00FC,
00FC,
00FB,
00FB,
00FA,
00FB,
00FA,
00F5,
00F3,
00ED,
00ED,
00F7,
00FE,
00FE,
0003,
0001,
0001,
0009,
0009,
0012,
000E,
0006,
0000,
0001,
0000,
0003,
0003,
00FF,
0000,
0000,
0002,
0002,
00F9,
00F9,
00F9,
00FC,
00FC,
00FA,
00FA,
00F8,
00FD,
00FD,
00FC,
00F9,
00F8,
00FC,
00FD,
00FF,
00FF,
0001,
00FE,
00FE,
00FD,
00FD,
0000,
00FC,
00FC,
0001,
00FF,
0004,
00FE,
00FF,
00FF,
00FF,
0001,
00FF,
0000,
0002,
0000,
0001,
0000,
0001,
00FB,
00F5,
00F4,
00F9,
00FE,
00FE,
00FA,
00F8,
00FA,
00FE,
000C,
000D,
000F,
000C,
0006,
0000,
0000,
0006,
0001,
00FD,
00FC,
0000,
0003,
00FF,
00FB,
00FF,
00FF,
00FE,
00FF,
0001,
00FE,
00FD,
00FC,
00FE,
0002,
00FD,
00FB,
00FB,
00FD,
00FF,
0001,
00FE,
00FE,
00FE,
00FE,
0003,
0002,
0000,
00FF,
00FD,
0006,
0005,
0004,
0001,
00FF,
0004,
0001,
0000,
00FE,
00FD,
0000,
00FE,
00FE,
00FE,
00FE,
0000,
00FF,
0001,
0001,
0001,
0001,
0000,
0001,
0000,
0000,
0004,
0013,
000D,
00FC,
00F2,
000E,
001E,
0017,
0005,
00F5,
0013,
001E,
0018,
0006,
00F9,
0007,
0010,
000F,
0000,
00F5,
00F9,
00FE,
00FA,
00F5,
00EF,
0003,
0004,
0003,
0000,
00FE,
0005,
0002,
0002,
0002,
00FE,
0006,
0003,
0002,
0001,
0000,
0002,
0002,
0003,
0001,
00FF,
00FF,
00FE,
00FF,
00FF,
00FD,
0000,
0002,
0009,
000A,
0005,
0001,
0005,
000E,
0010,
000B,
0001,
0004,
0010,
0013,
000E,
00FD,
00FD,
0007,
0009,
0008,
00FA,
00FA,
0000,
0000,
0001,
0002,
0003,
00FE,
00FF,
0001,
0005,
0003,
00F6,
00F9,
00FE,
0002,
00FE,
00F4,
00FA,
00FF,
0002,
0004,
00FF,
00FB,
00FC,
0001,
0006,
0005,
0003,
00FF,
0002,
000A,
0003,
00FA,
00FA,
00FE,
0008,
0005,
00FB,
0001,
00FD,
000C,
000B,
0002,
0002,
00FD,
0000,
00FC,
00F8,
00FA,
00FD,
00FE,
00FF,
00FB,
00FF,
0001,
0003,
0000,
0002,
0004,
0002,
0000,
0001,
0005,
0003,
00FF,
00FC,
0005,
0003,
0000,
0000,
0005,
0008,
00FF,
0001,
0001,
000A,
0008,
0004,
0005,
0000,
00FF,
00FE,
00FE,
0001,
00FF,
00FE,
00FD,
00FE,
0001,
00FE,
00FD,
00FC,
00FD,
0000,
00FD,
00FD,
00FD,
00FE,
0001,
00FE,
00FC,
00FD,
00FF,
0002,
00FD,
00FE,
0000,
00FE,
00FF,
00FB,
0000,
0001,
00FF,
0000,
00FD,
0002,
00FC,
0000,
0001,
00FF,
00FD,
00FD,
0001,
0000,
0001,
0004,
0004,
0001,
00FF,
00FE,
00FC,
00F8,
00F8,
00F9,
00FB,
00FA,
00F8,
00FA,
00FC,
00F8,
00F7,
00F6,
00F8,
00FA,
00FF,
00FE,
00FE,
00FF,
0000,
00FF,
00FF,
00FF,
0000,
0001,
0003,
0002,
0003,
0003,
00FF,
0001,
00FE,
0003,
0002,
00FF,
00FC,
00F8,
00FB,
00FC,
0001,
00FC,
0003,
0005,
00FD,
00FC,
00FE,
0002,
0000,
00F9,
00FC,
00F7,
00FB,
0001,
00F8,
00F4,
00FA,
00FE,
00FF,
00FC,
00F8,
0004,
0001,
0004,
0004,
0001,
0001,
0000,
0001,
0001,
00FF,
00FF,
00FF,
0007,
0001,
00FB,
00FC,
00FD,
0006,
00FD,
00FA,
00FD,
00FF,
0005,
0001,
00FF,
0001,
00FF,
00FF,
0003,
0000,
00FE,
0000,
0000,
00FF,
00FD,
00FC,
00FA,
00FF,
00FF,
00FB,
0002,
00F8,
00ED,
00F2,
0001,
0002,
00F3,
00E9,
00EC,
00FB,
00FF,
00F0,
00E8,
00EA,
00F9,
0003,
00FE,
00F8,
00F6,
0001,
0008,
0001,
0001,
0001,
0007,
0000,
0002,
0002,
0001,
00FE,
0000,
0002,
0000,
00FE,
00FF,
00FF,
00FF,
00FE,
00FD,
00FF,
00FE,
00FE,
00FF,
00FF,
00FE,
00FD,
00FE,
0000,
00FF,
0000,
00FE,
00FE,
00FE,
00FE,
00FE,
00FE,
00FE,
00FE,
00FD,
00FE,
00FD,
00FD,
00FD,
00FC,
00FD,
00FE,
00FE,
00FF,
00FE,
00FE,
00FF,
00FF,
00FF,
00FE,
00FE;