memory_initialization_radix=16;
memory_initialization_vector=
000E,
0017,
0014,
001C,
0013,
001A,
001B,
0016,
0017,
001C,
001B,
0011,
0018,
001C,
001E,
0012,
0019,
0019,
001A,
0010,
001A,
0017,
0016,
0018,
0016,
001A,
0010,
0018,
001F,
001A,
0015,
000D,
0017,
0012,
0016,
0014,
001C,
0018,
000E,
0017,
0017,
0018,
0016,
0013,
001C,
0018,
001B,
001E,
0013,
001E,
0012,
001D,
0015,
0017,
0012,
001A,
001F,
001A,
0016,
0012,
0017,
0015,
0017,
0015,
0015,
0012,
0017,
0017,
0012,
0018,
0015,
001A,
0011,
0015,
0016,
0018,
0018,
0011,
000D,
001B,
0019,
0013,
0018,
0013,
0016,
0012,
0018,
0020,
0019,
001A,
0017,
001A,
0014,
000F,
0012,
001A,
001E,
0015,
001C,
0019,
001F,
001D,
001A,
0014,
0015,
000C,
0015,
0019,
0019,
0017,
0016,
001F,
0019,
000E,
0018,
001E,
0011,
0014,
001B,
0018,
001C,
001E,
0015,
0015,
0019,
0017,
0018,
0015,
0019,
0014,
0013,
0018,
001C,
0019,
001A,
001F,
0019,
0016,
0016,
0018,
0019,
001A,
0014,
001C,
001B,
001E,
001C,
0016,
001C,
0013,
001E,
001B,
0017,
0017,
0018,
0013,
0014,
0017,
0018,
0018,
001B,
0018,
0019,
0018,
0015,
001A,
0018,
0019,
0019,
0015,
001A,
001D,
000E,
0018,
0022,
0020,
0016,
0010,
001D,
001B,
001D,
0015,
001F,
001D,
0014,
001D,
0019,
001B,
0013,
001A,
0017,
0013,
0018,
0018,
001B,
001B,
001B,
0014,
0016,
0015,
0013,
0017,
0014,
001E,
001B,
0017,
001C,
001B,
0011,
0015,
0018,
0013,
0019,
0019,
0014,
0012,
0016,
0014,
001A,
001D,
001A,
0017,
0012,
0017,
001B,
001B,
0019,
0012,
0021,
0018,
001A,
0017,
001C,
001D,
0018,
0016,
001D,
0018,
0018,
0017,
001B,
0016,
001C,
001C,
001A,
001B,
0017,
001E,
001A,
001B,
0014,
0023,
000D,
0010,
0014,
001A;