memory_initialization_radix=16;
memory_initialization_vector=
004A,
00FF,
0041,
005D,
0013,
0038,
0065,
005A,
0089,
0014,
0063,
0016,
0067,
0010,
002F,
00E5,
005A,
00EB,
0098,
0040,
003C,
014E,
0087,
005F,
00F0,
003E,
0041,
0024,
00E3,
005C,
0053,
008F,
007E,
001F,
0043,
0089,
000F,
0047,
0082,
003F,
00D7,
0087,
0087,
000C,
00FB,
00BD,
00FB,
0064,
00DD,
0038,
0016,
001F,
0067,
0096,
0013,
008A,
009C,
0093,
00F3,
0018,
00D4,
0023,
00D8,
000E,
0040,
0043,
004C,
00AF,
0003,
0042,
0051,
0009,
00F9,
004B,
004C,
006C,
00F0,
0096,
00D0,
001C,
001C,
000F,
0065,
0024,
00F6,
003D,
00C9,
00F0,
006F,
00DC,
0059,
0023,
00C0,
000F,
004A,
00DF,
00DC,
002E,
00CA,
004F,
0000,
009E,
00D7,
003A,
0017,
00A9,
0022,
00A7,
004E,
001D,
00FF,
002D,
0044,
0034,
0047,
0021,
0105,
00B6,
002D,
0016,
00FE,
0091,
0053,
0070,
0037,
0062,
00E5,
005D,
00D9,
00E0,
0043,
00BE,
004B,
004B,
0068,
0032,
000A,
003D,
0055,
0018,
001E,
00FB,
002B,
0062,
0022,
0020,
002C,
0022,
00EF,
000C,
0107,
0042,
0044,
00CE,
0080,
0028,
006C,
0097,
0088,
0073,
001E,
0017,
00DB,
006F,
00E9,
0051,
0073,
009D,
00E1,
0040,
001C,
0018,
0014,
0034,
0053,
00E3,
00CB,
00A5,
0061,
00B8,
001C,
0018,
0022,
00DF,
0042,
001D,
0030,
0073,
0061,
0027,
0036,
001E,
0048,
00FE,
00E9,
0041,
0034,
0043,
004D,
0041,
0076,
00DB,
0040,
00F2,
00C8,
003B,
0013,
0059,
00D0,
0017,
0035,
0064,
0021,
003D,
0045,
00DC,
00E1,
000A,
008E,
00EE,
0047,
003E,
0067,
0003,
0015,
00F4,
00E0,
00F1,
0021,
0085,
0008,
0033,
003E,
00B1,
0098,
0030,
00FF,
0020,
009E,
0065,
0013,
00F2,
00FB,
003A,
0055,
0015,
00F9,
00F0,
00F0,
0036,
0097,
0024,
000A,
006D,
0004,
001A;