memory_initialization_radix=16;
memory_initialization_vector=
0000,
00FF,
0004,
0000,
0006,
0005,
0001,
00FF,
0003,
0001,
00FD,
00FD,
0006,
0000,
0004,
0006,
0002,
0003,
0002,
00FA,
00FD,
00FE,
0002,
00FC,
00FB,
00FA,
00FA,
0005,
00FC,
0002,
00FF,
00FC,
0003,
00FB,
00FF,
00FD,
00FB,
00FD,
00FD,
0003,
00FD,
0002,
0005,
00FE,
0006,
0001,
0001,
00FB,
00FE,
00FA,
00FE,
00FD,
0000,
00FE,
00F9,
0002,
0000,
0002,
00F9,
00FD,
0000,
00FD,
00FD,
00FF,
00FA,
00FE,
0000,
0006,
0002,
0004,
0000,
00FE,
0004,
00FA,
0006,
0006,
0001,
0001,
00FC,
00FE,
0005,
00FF,
00FE,
00FE,
0006,
0005,
0003,
0005,
0000,
00FC,
0003,
00FA,
00FA,
0004,
0006,
0003,
00FC,
0001,
0000,
0004,
00FF,
0002,
0002,
0003,
00FB,
00FB,
0005,
0000,
00FF,
0006,
00FB,
0001,
00FF,
0006,
0005,
00FA,
0003,
0001,
0004,
00FF,
0002,
00FF,
0006,
00FD,
0003,
00FB,
0001,
0000,
0003,
0003,
00FE,
0000,
00FE,
00FF,
0006,
00FF,
00FA,
00FD,
0000,
0002,
0005,
00FB,
0001,
00FB,
0000,
00FA,
00F9,
00FE,
00FA,
0004,
00FC,
0001,
0004,
00FD,
0000,
00FD,
00FB,
00FD,
0002,
00FF,
0002,
00FC,
0001,
0004,
0004,
0004,
0000,
0002,
00FB,
0002,
00FD,
00FF,
0000,
00FE,
0003,
00FD,
0005,
0002,
0004,
0004,
0005,
0002,
00FE,
00FF,
0003,
0002,
0001,
0000,
0003,
0003,
00FE,
0005,
0000,
00F9,
0001,
00FC,
00FA,
00FC,
0004,
0001,
0001,
00FA,
00FC,
0000,
00FC,
0003,
0005,
0000,
0004,
00FC,
0000,
00FF,
00FC,
0004,
0003,
00FB,
0000,
0000,
0000,
0002,
0003,
0002,
00FF,
00FC,
00FA,
0003,
00FC,
0000,
0005,
00FF,
0004,
0002,
00FA,
00FD,
0002,
0006,
0001,
0002,
0000,
0002,
0002,
00FF,
00FF,
0003,
0005,
00FE,
0004,
00FA,
0000,
00FC,
0003,
0003,
0000,
0005,
0004,
0004,
0004,
0004,
0005,
00FD,
0001,
0004,
00FC,
00FE,
0004,
0005,
0006,
0005,
00FE,
0000,
00FE,
0003,
0003,
0004,
0006,
0004,
0000,
00FC,
0002,
0000,
0005,
0001,
0003,
0000,
00FD,
0001,
00FE,
00FB,
0000,
00FD,
0006,
00FF,
00FF,
0001,
00FD,
0002,
0002,
00FA,
00FA,
00FE,
00FD,
00FC,
00FE,
00FD,
00FF,
00FC,
0004,
00FA,
0004,
00FE,
00FE,
00FE,
0003,
00FD,
0001,
0006,
0003,
0000,
0001,
00F9,
0000,
0004,
00FA,
00FB,
0000,
00FF,
00FE,
0005,
00FA,
0004,
0004,
0002,
00FF,
0005,
00FF,
00F9,
0001,
00FA,
0002,
00FF,
00FF,
00F9,
0002,
00FD,
0004,
00FD,
00FE,
0004,
0005,
0001,
0001,
00FE,
0000,
0002,
00FB,
0005,
00FE,
0003,
0004,
00FB,
00FE,
00FD,
00FA,
0001,
00FA,
0005,
0000,
00FB,
00FC,
00FC,
00FA,
0006,
0004,
00FA,
00FE,
00FC,
00FD,
00FC,
0004,
0000,
00FC,
00FB,
0006,
00FA,
00FA,
0002,
00FB,
00FB,
0001,
00FA,
0000,
0006,
0004,
0006,
00FB,
0004,
0006,
00FA,
0004,
00FC,
0000,
0006,
0006,
00FD,
00FF,
00FB,
0001,
0001,
00FE,
0005,
00FC,
0000,
00FA,
0004,
0004,
0002,
0006,
0002,
00FD,
00FA,
0001,
00FB,
0002,
0000,
00FA,
0003,
0003,
0002,
0004,
00FA,
0003,
00FA,
0005,
0003,
00FA,
0005,
00FE,
00FB,
00FC,
0006,
00FB,
0004,
00FA,
0002,
0002,
0001,
00FE,
00FC,
00FF,
00F9,
00FB,
0003,
0002,
0001,
0005,
00FC,
0004,
00FE,
0004,
00F9,
0002,
00FD,
0002,
0000,
0004,
0005,
0003,
0004,
00FD,
00FD,
0002,
0003,
00FD,
0005,
00FC,
00FB,
0000,
0002,
0001,
00FF,
00FD,
00FF,
00FE,
00FF,
0002,
0003,
0000,
0005,
00FC,
0002,
0004,
00FF,
0006,
00FC,
00FA,
0000,
00FE,
00FB,
0000,
00FF,
0006,
0004,
00FB,
00FC,
0003,
0003,
0003,
00FA,
00FA,
00FD,
0001,
0003,
0005,
00FF,
00FA,
00FD,
00FE,
00FB,
0004,
00F9,
00F9,
0004,
00FE,
0000,
0003,
0003,
00FC,
00F9,
00FC,
00FA,
00FF,
0001,
00FC,
00FD,
0000,
00FC,
00FB,
0001,
0000,
00FD,
00FF,
0002,
00FD,
00FB,
00FD,
0000,
0002,
0002,
00FE,
00FF,
00FE,
0006,
0001,
0004,
00FF,
0002,
00FA,
0002,
00FE,
00FF,
00FD,
0005,
00FF,
0005,
0002,
00FE,
00FA,
0005,
00FB,
00FC,
0002,
00FF,
00FB,
00FD,
00FE,
0000,
0000,
0002,
0005,
0001,
0003,
0005,
00FD,
0006,
00FD,
0005,
0001,
00FA,
0005,
0001,
0005,
0003,
0006,
0002,
0000,
00FA,
00FD,
0001,
00FA,
00FD,
0002,
00FD,
0003,
00F9,
00FF,
0006,
0006,
0003,
00FF,
00FD,
0006,
0004,
00FC,
00FE,
00FF,
00FF,
0001,
00FD,
0000,
0000,
00FD,
00FF,
0002,
0006,
00FD,
0003,
0006,
0006,
00FB,
00FF,
00FA,
0000,
0002,
0004,
00FC,
00FC,
0003,
0004,
0000,
0001,
00FE,
0000,
00FA,
0001,
0001,
00FF,
00FF,
00FE,
00FC,
00FE,
0003,
00FD,
00FE,
00FD,
0003,
0006,
0000,
0003,
00FD,
0000,
0002,
0000,
00FF,
00FB,
0000,
0004,
0003,
0001,
00FC,
00FF,
0003,
0002,
00FB,
00FC,
00FC,
00FD,
0001,
0005,
00FE,
0006,
0003,
0001,
00FC,
00FA,
00FF,
0002,
00FD,
0001,
0000,
0001,
0001,
0002,
00FB,
00FE,
00FC,
0003,
0005,
0002,
00FA,
00FA,
0005,
00FB,
0005,
00FC,
00FF,
0005,
00FE,
0000,
00FC,
0001,
0001,
0006,
00FA,
0004,
00FD,
0004,
00FB,
00FD,
00FF,
00FC,
00FB,
00FB,
00FD,
00FC,
00FD,
0002,
0004,
0001,
00FA,
0001,
0004,
00FA,
00FA,
00FE,
0001,
0003,
00FD,
0003,
00FB,
0003,
00FA,
00FB,
00FC,
00FA,
0002,
0006,
00FA,
00FC,
0006,
00FB,
0002,
0001,
00FA,
00FA,
00FB,
0000,
0004,
0006,
0002,
00F8,
0003,
00FC,
0000,
0000,
00FC,
0001,
00F9,
00F9,
00FB,
00F9,
00FC,
0001,
0005,
00FE,
00FC,
00FE,
0002,
0006,
00F9,
0000,
00F9,
00FF,
0004,
00FB,
0005,
0004,
00FC,
00FA,
00FE,
00F9,
00FF,
0005,
00FE,
00FB,
00FF,
00FC,
00FB,
0000,
0003,
0000,
0003,
00FE,
00FD,
00FF,
00FB,
00FA,
00F9,
00FE,
0005,
0004,
00FD,
00FF,
0001,
0000,
00FE,
0005,
0005,
00FD,
0001,
00FC,
00F9,
0005,
0000,
0004,
00FC,
0003,
0005,
0001,
00FA,
0000,
00FD,
0003,
00FD,
00FD,
0003,
00FD,
0005,
00FF,
0001,
0004,
00FA,
00FD,
00FB,
0001,
0002,
0005,
0003,
00FF,
00FF,
0002,
00FB,
0003,
00FF,
0001,
0000,
0006,
00FB,
00FF,
00FE,
00FE,
0003,
0005,
0003,
00FA,
0003,
00FB,
0003,
0004,
0002,
00FA,
0005,
0000,
0000,
0003,
00FC,
0003,
00FB,
0003,
0005,
00FD,
0004,
0001,
00FF,
0005,
0006,
00FD,
00F9,
00FC,
00FB,
0002,
0001,
00FD,
00FC,
0001,
0000,
0000,
0001,
0006,
00FD,
0002,
00FB,
00FA,
00FA,
00FA,
0001,
0001,
00FE,
0000,
0001,
0004,
0000,
00FC,
0001,
0002,
0005,
0003,
0002,
00FB,
00FC,
0003,
00FC,
0003,
0005,
0003,
0003,
00FE,
0003,
0006,
0004,
00FE,
00FA,
0002,
00FD,
00FA,
0005,
0005,
00FB,
0003,
0001,
0003,
00FE,
0003,
00FF,
0002,
0000,
0006,
00FE,
00F9,
0000,
00FA,
0003,
0002,
0000,
0006,
00FD,
0001,
00FE,
00FF,
0006,
0005,
00FE,
0004,
00FA,
00FB,
0001,
00FD,
0003,
0000,
0001,
00FB,
00FF,
0000,
00FD,
0006,
0002,
0005,
0002,
0003,
00FF,
0006,
0004,
00FF,
00FB,
00FC,
00FC,
00FF,
00FC,
0006,
00FC,
00FF,
0003,
0002,
00FC,
00FD,
00FA,
00FE,
0004,
00FE,
0000,
00FB,
00FC,
0003,
0005,
00FE,
00FC,
00FA,
00FD,
0002,
0002,
00FA,
00FC,
00FB,
00FA,
00FB,
0001,
0006,
00FB,
00FA,
0003,
00FC,
00FC,
0005,
00FD,
00FE,
0002,
00FB,
0002,
00FD,
0006,
0006,
0001,
00FC,
00FD,
0003,
00FB,
0002,
00FC,
00FB,
0000,
00FD,
0000,
0003,
00FC,
0002,
0005,
00FC,
0002,
00FC,
00FA,
00FA,
00FF,
0006,
0004,
00FD,
0003,
00FE,
00FE,
0002,
00FC,
0002,
00FA,
00F8,
0001,
00F9,
0002,
00FB,
00FE,
00FF,
00FD,
00F9,
00FA,
0000,
0005,
0002,
0004,
0004,
0000,
00FA,
00FE,
0001,
00FB,
00FD,
00FC,
0000,
00FD,
0002,
0006,
0005,
00FC,
00FA,
00FA,
0001,
00FD,
00FB,
00FF,
00FD,
00FB,
00FE,
0003,
0004,
00FB,
00FD,
00FF,
00FF,
0002,
0006,
0005,
00FF,
0004,
0003,
0004,
0004,
0000,
0003,
00FD,
0000,
0005,
0004,
0001,
00F9,
0005,
00FD,
0001,
00FE,
0003,
0006,
00FB,
00F9,
00FE,
00FD,
00FF,
0006,
0004,
0005,
0000,
0001,
0000,
00FF,
00FC,
00FB,
00FF,
00FB,
00FB,
0005,
00FB,
0003,
00FA,
00FC,
0005,
00FB,
0006,
00FE,
0000,
0005,
00FA,
00F9,
00FA,
0001,
00FA,
0002,
0004,
00FE,
00FC,
00FA,
0005,
0002,
00FA,
0006,
00FE,
0003,
0001,
00FB,
0002,
00FA,
00FD,
00FB,
0000,
00FE,
0006,
0001,
0006,
0005,
0002,
00FA,
0005,
00FA,
0004,
0002,
00FE,
0003,
00FF,
0006,
0004,
0002,
0005,
00FA,
00FD,
00FC,
00FB,
00FD,
0002,
0003,
00FB,
0002,
00FA,
0004,
00FF,
00F8,
00FA,
00FD,
0001,
00FA,
00FF,
0003,
0002,
00FD,
00F9,
0000,
00FF,
00FC,
00FE,
00FE,
00FE,
00FA,
0005,
00FC,
0006,
0000,
00FE,
0003,
00FA,
00FA,
0001,
00FE,
0000,
0003,
0002,
0002,
0000,
0000,
00FE,
0006,
0001,
00FC,
0003,
0005,
00FF,
00FE,
00FB,
0001,
00FE,
0000,
0003,
0000,
00FF,
0003,
00FF,
0002,
0001,
00FC,
0006,
0005,
00FF,
00FC,
0003,
0003,
00FA,
0000,
00FA,
00FD,
0002,
0001,
0002,
0000,
0000,
0005,
0000,
00F9,
0004,
00FD,
0004,
0000,
00FA,
00FD,
0001,
0002,
00FB,
0001,
0002,
0003,
00FF,
0003,
00FC,
00F9,
00FA,
00FD,
00FE,
0001,
0005,
0001,
0005,
0002,
00FB,
0002,
00FF,
00FD,
00FD,
0003,
00FB,
0005,
0006,
0003,
0004,
0006,
0000,
0001,
00FD,
00FE,
0004,
00FF,
0002,
0003,
0006,
00FB,
00FE,
00FC,
0000,
00FA,
0004,
0004,
00FF,
00FF,
00FD,
00FE,
0005,
00FC,
0003,
00FC,
00FC,
00FC,
00FB,
00FC,
00FD,
0002,
00FD,
0005,
0001,
0002,
00FD,
0002,
00FA,
00FC,
00F9,
0002,
0002,
00FC,
00FE,
0001,
00FF,
0006,
00FC,
0005,
00FC,
00FB,
00FD,
00FB,
0004,
0003,
0005,
00FA,
0006,
0001,
0005,
00FB,
0003,
0005,
0005,
00FE,
0003,
00FD,
00FF,
0000,
0000,
0003,
0004,
0004,
0002,
0001,
0003,
00FB,
0001,
0006,
0001,
0001,
0006,
00FA,
00FC,
0004,
00FC,
0004,
00FB,
00FA,
00FD,
00F9,
00FE,
00FD,
0005,
0002,
0002,
00FD,
0000,
00FE,
00FD,
00FA,
0000,
0004,
0006,
00FF,
0005,
00FE,
0002,
00FE,
0001,
00FF,
00FB,
00F9,
00FE,
00FA,
0005,
0004,
0003,
0001,
00FE,
0002,
0005,
0000,
0006,
00FD,
0004,
0000,
0001,
0005,
00FC,
0003,
0002,
0006,
0004,
0000,
00FC,
00FB,
0003,
0006,
00FF,
0000,
00FF,
00FC,
00FB,
0004,
00FE,
0004,
0000,
0003,
00FD,
0003,
0003,
0003,
0002,
00FD,
00FE,
0000,
0004,
00FB,
0005,
0002,
00FB,
0001,
0003,
00FE,
00FA,
00FB,
00FE,
0002,
00FA,
0006,
0003,
00FD,
00FA,
0007,
0001,
00FC,
0002,
0002,
0000,
0006,
00FF,
0002,
00FF,
00FA,
0000,
0003,
00FE,
00FD,
0005,
00FF,
00FD,
00FF,
00FB,
0003,
0000,
0006,
0000,
0006,
00F9,
0003,
0001,
0002,
00FC,
0002,
0003,
00FA,
00FD,
0004,
00FA,
0002,
0005,
0000,
0004,
00FF,
00FA,
00FD,
0005,
00FF,
00FA,
00FA,
0003,
0006,
00FC,
0003,
00FB,
00FF,
0003,
00FD,
00FE,
0004,
00FF,
00FD,
0003,
0000,
00FD,
0004,
0001,
00FF,
0001,
00FF,
0003,
0003,
00FC,
00FE,
00FC,
0004,
00FE,
0003,
00FF,
00FB,
0003,
00FF,
0005,
0002,
00FF,
0005,
0000,
00FD,
0000,
00FF,
0000,
00FB,
00FF,
00FC,
00FE,
00FD,
0006,
00FC,
0004,
00FF,
0005,
00F9,
0000,
0006,
0001,
00FD,
00FE,
0002,
00FF,
0002,
0003,
00FD,
00FF,
0000,
00FB,
0001,
00FA,
00FD,
00FB,
0002,
00FB,
00FE,
00FF,
0004,
00FD,
0005,
0002,
00FA,
00FF,
00FA,
00FD,
00FA,
0002,
00FF,
00FE,
00FD,
0000,
0006,
0006,
0005,
0000,
00FF,
00FA,
0001,
00FE,
00FA,
00FF,
00FF,
0005,
0003,
00FB,
00FA,
00FA,
00FD,
0004,
00FE,
00FF,
0000,
00FD,
00FC,
0003,
00FF,
00FC,
0001,
0005,
0002,
0003,
0005,
0001,
0004,
0003,
0005,
0004,
0001,
00FA,
0002,
00FE,
00FD,
0001,
0005,
0003,
00FB,
00FA,
00FC,
00FA,
00FF,
0003,
00FE,
00FD,
0006,
00FF,
0003,
0000,
00FE,
00FA,
00FA,
00FF,
00FA,
00FE,
0006,
0000,
00FA,
0005,
0006,
00FB,
00FB,
0002,
0003,
00FB,
00FE,
00FB,
00FF,
00FF,
00FE,
00FE,
00FC,
00FF,
0005,
0006,
00FF,
00F9,
00FD,
0006,
0004,
00FC,
00FE,
0001,
00FA,
00FE,
0004,
0002,
00FB,
00FD,
00FC,
0004,
0006,
0000,
00F9,
00FA,
00FD,
00FD,
0003,
0003,
0002,
0002,
0004,
00FD,
00FC,
00FB,
0005,
00FA,
00FE,
0001,
0005,
0003,
0001,
0006,
0000,
00FC,
00FE,
00FD,
0000,
0006,
00FA,
00FE,
00FB,
00FE,
00FE,
00FB,
0001,
00FA,
00FA,
0001,
0002,
0001,
00FF,
0001,
0001,
0004,
00FA,
00FC,
00FA,
00FD,
00FC,
00FD,
0004,
0001,
0001,
00FF,
00FE,
00FF,
00FF,
0005,
00FD,
00FA,
0004,
00FB,
00FE,
00FA,
0005,
0002,
00FE,
0001,
0006,
00FE,
00FE,
0003,
0002,
0000,
0005,
00FE,
0004,
0003,
0006,
00FA,
00FE,
00F9,
0002,
00FB,
00FA,
00FA,
00FF,
00FA,
0001,
00FD,
0003,
00FF,
00FB,
0001,
00FA,
0001,
0000,
00FF,
0005,
0002,
0001,
00FB,
0003,
0004,
00FA,
00FB,
00FE,
00FE,
00FC,
0000,
00FE,
00FA,
00FF,
00FC,
0004,
0006,
00FB,
00FA,
00FC,
00FE,
00FC,
0002,
00FB,
00FF,
0003,
0005,
0005,
00FB,
00FB,
0003,
00FD,
00FA,
00FC,
00FC,
00FF,
00FC,
00FE,
0003,
0003,
0004,
0000,
00FC,
00FA,
0000,
00FF,
00FF,
0001,
0001,
00FC,
0003,
00FA,
0003,
0003,
00FA,
0003,
00FE,
0000,
00FF,
0006,
00FE,
00FD,
0006,
0004,
0006,
00FF,
0003,
0001,
00FC,
0002,
00FD,
0002,
0001,
00FF,
00FF,
00FE,
0002,
0003,
00FD,
0004,
0001,
00FF,
00FD,
0005,
0003,
0004,
0001,
0001,
0006,
0001,
0002,
0005,
0002,
0001,
00FA,
00FD,
0001,
00FF,
00FD,
00FE,
0004,
00FE,
00FF,
00FA,
00FA,
00FD,
0002,
0003,
00FF,
0002,
00FC,
00FF,
0000,
00FF,
0004,
00FF,
0006,
0004,
0002,
0004,
00FB,
00FA,
0006,
00FB,
0003,
0000,
0004,
00FC,
00FD,
0004,
00FB,
00FA,
0005,
00FA,
0000,
00FC,
00FE,
0005,
0003,
0001,
00FA,
00FC,
00FF,
00FE,
0005,
0004,
0006,
0001,
00FF,
00FC,
00FF,
0005,
0006,
0001,
00FC,
0001,
0000,
00FA,
00FF,
0003,
00FC,
0003,
00FC,
0001,
00FC,
00FB,
00FE,
00FC,
00FC,
0005,
00FD,
0001,
00FE,
0000,
00FD,
0002,
00FA,
00FC,
0002,
0004,
00F9,
0002,
0005,
00FC,
0001,
0001,
0002,
00FC,
0004,
0005,
0006,
0000,
00FB,
00FE,
0001,
0001,
0001,
0004,
0000,
00FA,
0002,
0006,
00FA,
0004,
00FE,
0002,
00FE,
0000,
0006,
0006,
00FE,
00FC,
0004,
00FD,
0006,
00FF,
0004,
0002,
0002,
00FE,
0005,
00FE,
0001,
00FA,
0002,
0006,
0000,
00FB,
00FC,
0000,
0000,
0005,
0002,
00FD,
00FD,
00FF,
00FC,
00FB,
00FA,
0000,
00FE,
0000,
0000,
00FD,
00FC,
0004,
00FD,
0000,
0003,
00FA,
0003,
00FE,
00FC,
00FB,
00FF,
0006,
00FD,
0002,
0004,
00FA,
0004,
00FD,
0004,
00FE,
00FA,
00FB,
00FC,
00FD,
0002,
0001,
0001,
00FC,
00FE,
00FE,
00FE,
0006,
00FE,
0004,
0002,
0006,
0006,
00FF,
0004,
0006,
00FB,
00FA,
0001,
00FB,
00FE,
0002,
00FB,
00FB,
00FD,
0003,
0005,
00FF,
00FB,
0004,
00FD,
00FA,
0000,
00FF,
0000,
0005,
00FC,
0005,
0003,
00FF,
00FE,
0003,
00FE,
0006,
0006,
0001,
0004,
00FE,
0006,
0001,
0000,
00FD,
0004,
0006,
00FC,
0004,
0000,
0000,
00FB,
0001,
00FD,
00FD,
00FD,
00FC,
00FE,
0002,
0004,
00FD,
00FD,
0000,
0001,
0003,
0004,
0006,
00FE,
00FC,
00FA,
00FB,
00FE,
00FF,
0004,
0002,
0001,
0005,
00FD,
00FC,
00FE,
0002,
0006,
0000,
0005,
00FB,
0000,
00FA,
00FC,
00FC,
00FE,
0004,
00FB,
0003,
0002,
0005,
00FD,
00FB,
0000,
00FA,
00FB,
0002,
00FD,
00FD,
0004,
00FB,
0000,
0003,
0003,
00FD,
0001,
0003,
00FC,
00FF,
00FD,
0005,
00FF,
00FD,
0000,
00FB,
0001,
0006,
00FB,
0000,
00FB,
00FA,
00FF,
00FC,
0001,
00FB,
0003,
00FB,
00FD,
0004,
0006,
0000,
00FB,
0004,
0002,
0003,
0002,
0000,
00FA,
00FD,
00FF,
0006,
0004,
0002,
0005,
0004,
0004,
0003,
0000,
0006,
0004,
00FB,
0006,
00FA,
0002,
0000,
00FC,
0004,
00FC,
0001,
00FD,
00FB,
0002,
0001,
00FC,
00FD,
0001,
0000,
00FF,
0004,
00FE,
0005,
0003,
00FA,
00FB,
00FF,
00FB,
00FF,
0006,
00FE,
00FF,
0005,
00FC,
0004,
0000,
0001,
0004,
00FC,
0002,
00F9,
0002,
0003,
00FD,
00FB,
00FD,
0001,
0003,
00FD,
0003,
0005,
00FB,
0000,
00FE,
00FC,
0006,
00FB,
00FF,
00FB,
00F9,
00FD,
00FC,
00FD,
0002,
0005,
00FF,
00FA,
00FA,
0005,
0003,
00FC,
00FB,
0002,
0003,
00FD,
00FF,
0006,
00FB,
0000,
00FB,
00FD,
00FE,
00FE,
0004,
00FA,
0005,
0000,
00FF,
0003,
00FD,
0005,
0002,
0002,
0002,
00FB,
00FC,
0002,
00FD,
00FF,
00FC,
00FB,
0001,
00FE,
00FE,
0006,
00FA,
00FF,
00FC,
00FE,
00FE,
00FB,
0000,
00FC,
00FE,
0006,
00FB,
0001,
0005,
0000,
00FE,
0000,
00FD,
00FA,
0005,
00FB,
0004,
0005,
0002,
00FE,
00FC,
0004,
0005,
0000,
0006,
0001,
0001,
00FE,
0002,
00FD,
0005,
0001,
0006,
0006,
00FE,
00FA,
0005,
0005,
0002,
00FD,
00FD,
00FA,
0003,
0002,
0006,
00F9,
00FB,
00FC,
00FC,
00FC,
00FB,
0005,
00FE,
0005,
0002,
00FD,
0005,
00FC,
00FD,
00FA,
0002,
0001,
00F9,
0003,
0005,
00FD,
0001,
00FA,
0006,
0002,
0003,
0003,
0003,
00FB,
0002,
00FB,
0005,
00FD,
0001,
00FC,
00FB,
00FF,
00FE,
00FA,
00FF,
0000,
00FA,
00FB,
00F9,
00FD,
00FE,
0005,
0005,
0002,
00FA,
00FF,
0002,
00FF,
0000,
00FA,
0001,
00FD,
0002,
0000,
0005,
0005,
00FA,
00FD,
00FE,
0005,
00FE,
00FC,
0003,
0002,
0004,
0004,
0005,
0005,
0002,
0000,
00FB,
00FC,
00FE,
00FB,
00FB,
00FE,
0005,
00FB,
0003,
0004,
00FF,
0000,
0002,
0006,
00FC,
00FF,
00FF,
00FB,
0005,
00FE,
00FB,
0002,
0006,
00FF,
0004,
0002,
0005,
00FE,
00FC,
0000,
0001,
00FE,
0003,
00FC,
0002,
0005,
00FE,
00FB,
0003,
00FA,
0005,
00FF,
00FD,
0000,
0006,
00FD,
0001,
0002,
0006,
0006,
00FE,
00FC,
00FD,
0006,
00FD,
00FD,
00FC,
00FF,
00FE,
00FA,
00FB,
00FC,
00FE,
00FB,
0001,
00FA,
0005,
0001,
00F9,
00FC,
0005,
0005,
0005,
0002,
00FF,
00FA,
00FB,
0001,
00FE,
0002,
0001,
0004,
0002,
00FF,
00FB,
0006,
00FF,
00FB,
00F7,
0000,
0001,
0006,
0000,
0000,
00FB,
0003,
0002,
00FA,
00F9,
0006,
0004,
00FD,
0003,
0001,
0001,
00FC,
00FE,
0001,
00FC,
0005,
00FC,
00FE,
00FA,
00FD,
00FF,
0003,
00FC,
00FC,
0003,
0004,
0004,
0001,
0003,
00FF,
0003,
00FC,
0004,
0003,
00FA,
0000,
0005,
00FC,
0004,
00FC,
00FE,
00FE,
0000,
0001,
00FB,
00FC,
0004,
00FC,
0003,
0006,
0005,
0000,
00FE,
00FE,
00FA,
0006,
00FA,
0000,
00FB,
0003,
0002,
00FC,
00FC,
0000,
0002,
0001,
00FF,
0002,
0005,
0001,
0001,
0002,
0005,
00FD,
0001,
00FF,
0004,
0004,
00FA,
00FD,
0000,
0000,
0003,
00FC,
00FE,
00FE,
00FA,
00FC,
00FD,
00FC,
00FC,
00FE,
0002,
00FF,
00F9,
00FD,
00FA,
00FB,
0002,
00FD,
0000,
00FC,
0000,
00FC,
00FC,
0003,
0006,
0002,
0002,
0006,
0003,
0001,
00FF,
00FF,
00FF,
0004,
00FB,
00FF,
00FA,
0005,
00FF,
00FF,
0006,
00FD,
00FA,
0000,
0002,
0000,
00FF,
00FC,
0001,
00FD,
00FF,
0000,
0006,
00FA,
00FE,
0000,
0003,
0001,
0000,
0002,
00FC,
0005,
0005,
0005,
0000,
0006,
00FD,
0003,
00FD,
0002,
00FA,
0001,
0005,
0001,
0004,
0005,
00FA,
0001,
0002,
0000,
0002,
00FF,
0005,
0004,
00FB,
0000,
00FD,
0002,
00FA,
0003,
00FB,
0006,
00FF,
0004,
00FB,
00FA,
00FE,
0006,
00FE,
00FA,
00FE,
00FD,
00FD,
00FE,
00FC,
0001,
00FE,
00FE,
00FE,
0004,
0001,
00FA,
00FF,
00FC,
0003,
0003,
00FA,
0005,
00FE,
00FD,
00FB,
0002,
0002,
0005,
00FD,
00F9,
00FE,
00FC,
0000,
0004,
0000,
00FD,
00FE,
00F8,
00FA,
0001,
00F9,
00FD,
00FF,
00FB,
00FA,
0004,
00FA,
0002,
00FC,
00FE,
0002,
00FF,
00FF,
0003,
0001,
0004,
00FD,
00F9,
0000,
00FE,
0001,
0002,
0004,
00FF,
00FB,
00FB,
0004,
00FB,
00FE,
0004,
00FF,
00FF,
0004,
00FC,
0005,
0005,
0006,
0005,
00FB,
0005,
0000,
0004,
0003,
00FB,
0004,
0005,
00FD,
00FE,
0004,
0004,
00FA,
0005,
00FE,
0004,
00FC,
0006,
0001,
00FB,
00FE,
0001,
00FB,
00FB,
00FC,
0005,
0004,
0005,
00FE,
00FD,
0002,
0000,
00FF,
00FF,
00FF,
00FA,
00FC,
0003,
0002,
0006,
00FC,
0006,
0002,
0006,
00FA,
00FD,
00FC,
00FF,
0000,
00FF,
00FB,
0002,
0002,
00FA,
00FF,
00FE,
00FB,
0005,
00FA,
0005,
00FC,
0003,
00F9,
00FA,
0005,
0002,
0004,
00FF,
0000,
00FB,
00FD,
00FB,
0001,
0005,
0003,
00FD,
0001,
0005,
0005,
00FE,
00FF,
00FE,
0001,
0005,
0001,
0004,
0006,
0000,
0000,
0002,
00FC,
0001,
00FC,
00FD,
00FA,
00FB,
0005,
0006,
00FD,
0005,
0002,
00FD,
00FB,
00FC,
0002,
00FA,
00FC,
00FA,
0005,
00FD,
0001,
0005,
0001,
0005,
0006,
0001,
0005,
00FF,
0002,
0001,
00FF,
0001,
00FF,
00FB,
0002,
00FD,
00FB,
0005,
00FA,
00FD,
0003,
0001,
0003,
00FD,
0004,
0002,
0005,
00FE,
0000,
0001,
00FD,
00FB,
0003,
0005,
00FF,
0000,
00FD,
0003,
0004,
00FE,
00FA,
00FE,
00FD,
0000,
0000,
0000,
00FD,
0002,
0005,
00FB,
00FB,
0005,
0005,
0000,
0001,
00FB,
0004,
00FB,
0000,
00FF,
00FB,
0001,
00FA,
0002,
00FF,
00FB,
00FE,
0001,
00FD,
0001,
00FF,
0004,
0000,
00FB,
0003,
0002,
0005,
0001,
00FE,
0001,
00FC,
0002,
0004,
00FE,
00FA,
00FF,
00FE,
0002,
00FB,
00FF,
0004,
00FF,
00FD,
00FE,
00FC,
0005,
00FD,
00FD,
0002,
00FE,
0005,
00FC,
0002,
0001,
0000,
0002,
00FD,
0003,
00FC,
0001,
00FA,
0002,
0002,
0002,
0006,
00FD,
0005,
00FC,
0006,
0006,
00FC,
0002,
00FD,
0003,
00FE,
00FA,
00F9,
0004,
00FC,
0003,
0000,
0001,
0002,
00FD,
0005,
0001,
00FE,
0004,
0005,
00FD,
00FE,
0002,
00FD,
0001,
0002,
00FB,
0002,
00F9,
00FD,
00F8,
00FE,
00FE,
00FD,
00FE,
0003,
00FC,
00FC,
0001,
00FD,
0004,
00FB,
0005,
00FE,
0005,
00FE,
0000,
0006,
00FD,
00FE,
0002,
0001,
00FF,
00FF,
0001,
0005,
0005,
00FE,
0005,
0005,
0000,
00FE,
00FD,
00FD,
0000,
0006,
0006,
00FF,
0002,
00FF,
00FC,
0004,
00FE,
0001,
00FE,
0001,
0002,
0000,
00FE,
00FB,
00FE,
00FA,
0001,
00FC,
0001,
0002,
0003,
0004,
00FE,
00FD,
0003,
00FD,
0006,
0003,
00FB,
00FE,
0006,
0000,
0003,
0006,
00FD,
00FD,
00FB,
0000,
0002,
00FC,
00FE,
00FE,
00FF,
0005,
00FE,
0001,
00FA,
0003,
0001,
00FC,
00FE,
00FB,
0003,
00FE,
0003,
00FD,
00FA,
00F9,
0005,
00FF,
00FB,
0001,
0005,
00FE,
0001,
0006,
0000,
0006,
0003,
0001,
00FE,
0004,
00FA,
00FC,
00FD,
0001,
0002,
00FD,
00FE,
00FE,
0003,
0005,
00FC,
00FA,
0003,
00FD,
0000,
00FD,
00FD,
0002,
0003,
0000,
0001,
00FF,
0000,
00FD,
00FB,
0002,
0006,
0006,
0003,
00FF,
00FD,
00FB,
00FA,
0001,
00FA,
00FC,
0002,
0004,
0000,
0005,
0005,
0006,
00FC,
00FB,
0000,
00FE,
0002,
0005,
00FD,
0001,
00FC,
00FE,
00FC,
00FF,
0000,
0001,
0001,
0000,
0001,
0001,
00FC,
0005,
0002,
00FD,
0006,
00F9,
00FF,
00FF,
0001,
0005,
00FB,
00FD,
00FB,
0000,
00FC,
00FB,
0001,
00FC,
0002,
0001,
0001,
00FB,
0000,
00FF,
0005,
0000,
0003,
00FF,
00FE,
00FE,
00FC,
00FE,
0006,
0003,
0005,
0001,
0003,
00FA,
00FB,
0005,
00FE,
0002,
0004,
00FC,
00FF,
0004,
0006,
00FB,
0001,
00FB,
0006,
0003,
00FC,
0000,
00FC,
0002,
00FC,
0000,
00FC,
00FB,
0000,
00FB,
00FB,
00FC,
00FE,
00FD,
00FE,
0002,
00FC,
00FD,
0001,
00FE,
00FF,
0006,
0000,
0004,
00FA,
00FF,
0002,
0001,
0001,
00FC,
00FC,
0005,
00FB,
0002,
00FF,
0005,
0000,
0006,
00FE,
00FD,
0002,
0001,
00FE,
00FF,
0004,
00FE,
0002,
00FC,
0005,
00FC,
0002,
0001,
0002,
00FD,
0000,
0001,
0005,
0005,
00FC,
0003,
0003,
00FD,
00FD,
00FE,
00FF,
00F8,
0003,
00FD,
0001,
00FD,
0003,
0004,
00FC,
0006,
00FD,
0001,
00FD,
0004,
00FE,
0004,
00FB,
00FF,
0002,
0004,
00FE,
0004,
0004,
00FA,
0002,
0003,
0004,
00FF,
00FC,
00FC,
00FA,
0005,
0001,
00FE,
0002,
00FB,
00FB,
00FA,
00FB,
00FB,
00FC,
00FF,
0006,
00FA,
00FE,
0000,
00F9,
00FC,
00FC,
00FE,
00FF,
0005,
00FE,
0000,
00FE,
0002,
00FB,
0001,
00FC,
00FA,
0004,
0000,
00FF,
00FB,
0004,
0006,
0005,
0002,
00FB,
0004,
00FF,
00FA,
00FB,
0004,
00FE,
0000,
00FA,
0002,
0003,
0003,
0001,
00FF,
0000,
0004,
0002,
0000,
0000,
00FA,
0000,
00FA,
0002,
0006,
00FC,
00FA,
0004,
0001,
0006,
0001,
00FF,
00FE,
00FE,
0000,
00FF,
0005,
0002,
00FA,
0000,
00FB,
00FE,
0002,
00FB,
00FF,
00F9,
00FF,
0005,
0002,
00FA,
00FF,
00FC,
0001,
0003,
00FB,
00FB,
0005,
00FC,
0006,
0001,
0006,
00FC,
00FB,
0002,
0005,
00FC,
00FC,
0000,
0004,
0004,
00FF,
00FC,
00FC,
0004,
00FE,
00FE,
0002,
00FD,
00FD,
00FE,
00FD,
00FB,
0003,
0001,
0005,
0001,
00FA,
0003,
00FB,
00FF,
0000,
0000,
0005,
00FB,
0005,
00FF,
00FE,
0001,
0002,
00FC,
00F9,
00FD,
0006,
0006,
00FB,
0001,
0005,
0005,
0001,
0002,
00FB,
00FF,
0003,
0003,
0000,
00FE,
00FE,
0001,
00FA,
00FF,
00FC,
0006,
0006,
0004,
00FB,
00FC,
00FF,
00FB,
00FC,
00FB,
00FA,
00FC,
00FB,
0004,
00FB,
00FB,
0005,
00FA,
00F9,
00FA,
0002,
0001,
0001,
0005,
0003,
0002,
0001,
0006,
0005,
0000,
0003,
0002,
0006,
00FF,
00FE,
0006,
0002,
00FB,
0000,
0006,
00FC,
0005,
00FF,
00FB,
0003,
0001,
0001,
0006,
00FF,
0006,
0000,
0002,
00FC,
0001,
0002,
00FA,
00FB,
00FF,
0002,
0001,
00FC,
0006,
00FC,
00FE,
0004,
00FE,
00FA,
0005,
00FF,
00FE,
0003,
00FE,
0003,
0002,
0002,
0002,
0003,
0004,
0003,
00FC,
00FD,
00FD,
0002,
00FA,
0003,
0001,
00FD,
0006,
0000,
00FD,
00FF,
0003,
0006,
00FF,
00FC,
0004,
0002,
00FE,
0004,
00FD,
0001,
00FC,
00FE,
0004,
00FA,
0002,
0000,
00FC,
0001,
00FA,
00FE,
00FE,
0004,
00FE,
0002,
0000,
00FD,
0005,
00FB,
00FD,
0005,
00FB,
0003,
00FD,
0002,
0003,
00FD,
0000,
00FA,
0002,
0002,
0005,
00FE,
00FC,
00FE,
00FF,
0002,
0006,
00FE,
0003,
0001,
0000,
00FF,
00FD,
0002,
00FD,
00FB,
0001,
0004,
00FF,
0005,
0001,
00FA,
00FF,
0004,
00FC,
0005,
0005,
0000,
00FE,
00FC,
0006,
0005,
00FA,
0002,
0004,
00FE,
00FA,
00FC,
0005,
0004,
0002,
00FF,
0005,
00FC,
0000,
00FA,
00FA,
0002,
0002,
0004,
0000,
00FB,
00FD,
00FA,
0004,
00FC,
00FE,
0004,
00FC,
00FC,
00FE,
00FD,
00FB,
00FC,
00FD,
0002,
0005,
00FF,
00FB,
00FE,
0000,
0002,
00FE,
00FD,
0002,
00FF,
0000,
00F9,
00FD,
00FC,
0002,
0002,
00FA,
0000,
0004,
0005,
0002,
00FB,
0002,
00FD,
0004,
0005,
00FA,
00FE,
0001,
00FE,
0000,
00FC,
00FB,
00FB,
00FD,
0006,
0002,
0003,
0003,
0000,
0001,
0000,
00FD,
00FA,
0003,
00FE,
00FD,
0005,
00FD,
0001,
0002,
0000,
00FA,
00FB,
0005,
0003,
0005,
00F8,
0003,
0002,
0004,
00FA,
0004,
00FE,
00FD,
00FD,
00FA,
00FE,
00FA,
0006,
00FB,
00F9,
0006,
00FE,
0006,
00FB,
00FF,
0005,
00FC,
0004,
0004,
00FB,
0000,
00FC,
0001,
0004,
00FD,
0006,
0002,
0001,
00FB,
00FF,
0000,
00FC,
0003,
0002,
00FC,
00FD,
0002,
00FC,
0001,
0006,
0000,
00FF,
00FA,
00FA,
0000,
00FE,
00FC,
0006,
0002,
00FB,
0003,
0003,
0004,
0005,
0006,
0006,
00FF,
00FC,
00FF,
0001,
0006,
0000,
00FB,
0003,
0004,
0000,
00FB,
0001,
0004,
0005,
00FC,
0002,
00FE,
00FC,
0000,
0000,
0004,
0003,
0002,
00FE,
00FF,
00FF,
0002,
00FD,
00FA,
00FC,
0006,
0005,
00FC,
0005,
0002,
0000,
00FC,
00FE,
00FB,
00FF,
0001,
0000,
0002,
0004,
00FA,
00FC,
0003,
0001,
0000,
00FE,
00FD,
0006,
0006,
00FA,
00FE,
0002,
00FC,
0004,
0005,
00FC,
0002,
0004,
00FB,
0002,
00FB,
00FD,
00FE,
0004,
0001,
0004,
00FD,
0003,
00FF,
0002,
0003,
00FD,
00FD,
0006,
0004,
0001,
00FE,
0005,
00FB,
0001,
00FA,
00FB,
0000,
00FA,
00FA,
0003,
00FF,
0003,
0000,
00FF,
00FE,
00FB,
00FD,
00FD,
0004,
00FB,
00FB,
0004,
00FA,
00FE,
0005,
00FB,
0001,
00FA,
00FE,
0001,
0006,
0006,
0001,
0000,
00FC,
0002,
0005,
0002,
00F9,
00FF,
00FB,
0007,
0005,
00FA,
0002,
00FF,
00FF,
0004,
0006,
0005,
00FE,
00FE,
0006,
0006,
0006,
00FF,
00FE,
00FE,
0006,
0002,
00FA,
0004,
0002,
00FC,
0005,
00FB,
00FD,
0000,
0002,
00FE,
0003,
00FF,
00FA,
0002,
00FA,
0002,
0000,
0003,
0002,
0004,
00FD,
00FF,
00FE,
0002,
0001,
00FE,
00FF,
00FF,
0000,
0004,
00FB,
00FC,
0000,
00FE,
0003,
00FD,
00FC,
00FF,
0003,
00FC,
00FF,
00FB,
00FC,
00FD,
0005,
00FD,
00FF,
0003,
0003,
00FA,
0003,
0001,
0004,
00FB,
0000,
0005,
00FD,
0006,
0002,
0000,
0004,
0006,
00FF,
0001,
00FA,
0001,
00FA,
00FB,
0002,
0003,
0006,
0005,
0005,
0006,
00FD,
0003,
00FA,
0006,
0003,
0002,
0000,
00FD,
00FA,
0000,
0004,
00FD,
00FE,
0002,
0000,
0005,
0005,
00FE,
00FC,
0001,
00FC,
00FB,
0001,
00FC,
00FA,
0001,
00FC,
00FE,
0002,
00FB,
00FD,
00FE,
00FD,
0004,
00FD,
0003,
00FA,
00FF,
00FB,
0001,
00FA,
0005,
00FC,
00FA,
00FC,
00FF,
00FC,
00FE,
00FB,
0000,
00F9,
00FC,
00FA,
00FC,
00FA,
0002,
00FB,
0005,
0001,
00FB,
0005,
0001,
0000,
00FE,
00FE,
00FC,
00FD,
0002,
00FE,
00FB,
00FE,
0001,
0005,
00FE,
0001,
00FB,
0001,
0002,
0002,
00FE,
0003,
00FD,
0005,
0001,
00FD,
00FD,
0001,
0006,
00FF,
00F9,
00FB,
0002,
00FE,
0000,
00FF,
0002,
00FD,
0003,
0002,
00FE,
00FF,
00FE,
00FC,
00FC,
0006,
0000,
0002,
00FC,
0001,
00FA,
0006,
0005,
00FB,
0003,
00F9,
00FF,
00FD,
0000,
00FD,
00FC,
0005,
0005,
0002,
00FA,
0002,
0000,
0002,
0003,
0006,
00FF,
00FD,
00FC,
0001,
00FF,
00FB,
00FB,
00FE,
00FE,
0003,
00FA,
0004,
00FB,
00FD,
0003,
00FC,
00FA,
0005,
00FF,
0004,
0005,
0003,
00FC,
00FD,
0004,
0001,
0000,
0006,
00FD,
00FD,
00FF,
00FD,
00FC,
0001,
0000,
0005,
0006,
00FD,
0005,
00FF,
00FC,
00FE,
0000,
00FC,
00FE,
00FD,
00FF,
00FE,
00FA,
0001,
00FF,
00FB,
00FC,
00FB,
0004,
0003,
00FB,
0002,
0000,
00FC,
0005,
0003,
0002,
0005,
0000,
00FF,
00FA,
0006,
00FB,
0002,
00FF,
0004,
00FE,
0004,
00FA,
0002,
00FE,
0003,
00FC,
0000,
0001,
0001,
0003,
00FC,
00FC,
00FC,
0002,
00FE,
0001,
00FB,
0006,
0002,
0005,
00FB,
0001,
00FD,
00FF,
0003,
00FD,
00FC,
00FA,
00FA,
0004,
00FE,
00FD,
0001,
0005,
00FE,
0004,
0000,
0003,
0006,
0002,
0005,
0003,
00F9,
00FC,
00FA,
00FD,
0004,
0006,
00FF,
00FF,
00FD,
0006,
0002,
00FD,
00FD,
00FB,
00FB,
0004,
00FD,
0001,
00FA,
0001,
0004,
0000,
00FB,
0004,
0003,
00FF,
0001,
00FB,
0002,
0003,
0001,
0000,
00FD,
00FD,
0005,
0000,
0000,
00FF,
00FE,
0005,
00FB,
00FE,
00FE,
00FD,
00FB,
0006,
00FE,
0003,
0003,
00FF,
0000,
0002,
00FB,
0006,
0000,
00FB,
00FC,
0001,
0003,
0006,
00FE,
0002,
0006,
0001,
00FB,
00FA,
00FC,
00FA,
00FE,
0002,
0004,
00FF,
0001,
00FB,
0006,
00FD,
00FF,
0003,
0000,
0001,
0001,
0003,
0005,
00FB,
0004,
00FA,
00FA,
00FB,
00FA,
00FD,
0006,
0002,
00FE,
0004,
00FB,
0001,
0003,
00FF,
0002,
00FE,
00FF,
00FE,
0004,
0006,
00FF,
0005,
00FD,
00FC,
0002,
00FD,
00FC,
00FC,
0002,
00FA,
0005,
00FB,
00FD,
00FB,
00F9,
00FA,
0001,
0005,
0004,
0002,
00FD,
0006,
00FE,
00FF,
00F9,
00FF,
0004,
00FC,
0001,
00FA,
0001,
0006,
0004,
0002,
0001,
0000,
0001,
00FA,
00F8,
0002,
00FF,
0004,
0002,
0000,
0005,
00FE,
00FB,
00FD,
0001,
0000,
0000,
00FE,
00FB,
00FF,
00FE,
00FD,
0004,
00FC,
0002,
00FF,
0006,
00FB,
0003,
0006,
0000,
0005,
00FC,
00FE,
00FA,
0002,
0000,
00FE,
0004,
00FC,
0006,
00FE,
0003,
0000,
00FC,
0004,
0002,
00FD,
0006,
00FB,
00FF,
0003,
0005,
00FD,
0003,
0000,
00FF,
0002,
0005,
00FB,
0005,
00FD,
00FA,
00FE,
0001,
0003,
00FA,
0002,
0001,
0002,
00FF,
0005,
0001,
0001,
0003,
00FF,
0003,
0004,
0001,
0006,
0006,
00FD,
0006,
00FD,
0005,
0005,
0000,
0001,
00FE,
0003,
00FF,
0005,
00FA,
0000,
0002,
00FA,
00FB,
0001,
0006,
00FB,
0004,
0000,
0002,
0001,
0004,
00FC,
00FE,
0000,
0000,
00FF,
00FF,
0000,
00FC,
0005,
00FC,
00FA,
0006,
0000,
00FB,
0001,
0000,
0005,
0001,
0000,
00FC,
00FB,
0003,
0000,
00FE,
00FB,
0005,
0004,
0006,
00FA,
0001,
0000,
0003,
00FE,
00FE,
00FD,
0002,
0005,
00FE,
00FC,
00FC,
0001,
00FA,
0001,
00FF,
00FA,
0006,
0001,
0001,
00FB,
00FC,
0006,
00FF,
0000,
00FD,
00F9,
00F9,
00FA,
0004,
0002,
0002,
0000,
0003,
00FE,
00FC,
0004,
00FC,
0003,
00FB,
00FB,
0000,
0004,
00FC,
00FC,
0006,
0001,
00F9,
00F9,
0001,
00FD,
0000,
0003,
0000,
0003,
0004,
0004,
00F9,
00FD,
0004,
00FE,
00FA,
00FF,
00FC,
0005,
0005,
00FB,
0003,
00FD,
0001,
00F9,
00FF,
0003,
00FD,
00FD,
0000,
0003,
0002,
00FC,
00FD,
0006,
0001,
00FB,
00FB,
0002,
0002,
00FC,
00F9,
0003,
00FD,
0001,
0005,
00FD,
0002,
00FC,
0004,
0005,
00FF,
0006,
0000,
00FC,
0002,
0003,
00FC,
0004,
0000,
0004,
00FC,
0000,
00FF,
00F9,
0004,
00FC,
00FD,
00FB,
00F9,
0002,
0002,
0002,
00FA,
0002,
00FD,
00FB,
0000,
0003,
00FA,
0006,
00FA,
0005,
0005,
0004,
0001,
00FB,
0004,
00FE,
0000,
0005,
0005,
00FA,
0003,
00FD,
0000,
0006,
0000,
00FD,
0002,
00FC,
00FD,
0005,
0001,
0000,
0003,
0002,
0004,
00FE,
0002,
00FF,
0004,
0004,
00FE,
00FA,
00FD,
00FF,
00FC,
00FE,
00FA,
00FB,
00FC,
0000,
00FA,
00FF,
0000,
00FC,
00FA,
0004,
0001,
0002,
00FC,
0001,
0000,
00FF,
0003,
00FB,
0006,
00FF,
0000,
00FE,
00FC,
0002,
0002,
0004,
0002,
0002,
0005,
00FF,
00FB,
00FC,
0003,
0005,
00FE,
0002,
0006,
00FE,
0000,
00FB,
00FF,
00FF,
00FA,
00FA,
00FC,
0005,
0001,
00FC,
0004,
0006,
0006,
0000,
0005,
0006,
0001,
00FD,
0004,
00FE,
0004,
00FC,
0004,
0003,
00FB,
00FE,
00FC,
0006,
0006,
00FF,
00FA,
00F9,
00FC,
0002,
0001,
00FD,
00FD,
00FA,
0006,
0002,
0003,
00FC,
00FB,
0006,
0005,
0003,
0003,
00FF,
00FF,
0006,
00FD,
00FB,
00FE,
0003,
0005,
00FC,
0003,
0000,
0002,
0004,
0005,
00FB,
00FF,
00FA,
00FD,
0005,
00FE,
0005,
0000,
00FE,
0003,
00F8,
0003,
00FB,
0003,
00FF,
0005,
00FE,
0001,
0000,
0003,
0001,
00F9,
00FD,
00F9,
00FD,
0003,
0000,
00FE,
0005,
00FF,
00FE,
0004,
0000,
00F9,
0001,
0002,
0001,
0003,
0004,
0000,
0002,
00FD,
0004,
00FB,
00FE,
0004,
0003,
00FC,
00FF,
00FC,
0006,
00FF,
00FE,
00FA,
0005,
00FC,
0005,
0002,
00FF,
00FB,
00FA,
0001,
0004,
0002,
0005,
0000,
0002,
00FF,
0004,
0004,
0001,
00FA,
00FA,
00FB,
00FF,
0005,
00FB,
00FE,
0005,
00FC,
0003,
0004,
00FC,
00FE,
0005,
00FB,
0005,
0004,
0001,
00FD,
00FE,
0004,
0005,
00FC,
00FA,
00FD,
0006,
00FB,
0003,
0001,
00FC,
0005,
0002,
00FA,
0005,
0005,
00FE,
0000,
00FA,
00FA,
00FA,
00FF,
0000,
0001,
00FD,
00FB,
0006,
0004,
0001,
00FA,
0002,
00FE,
0002,
0000,
0002,
00FC,
0005,
00FF,
00FA,
0005,
0004,
0000,
00FE,
00FC,
00FA,
00FA,
00FC,
0001,
0002,
0000,
0004,
0002,
0006,
0000,
0006,
0005,
0005,
00FF,
00FC,
0003,
0003,
00FC,
0006,
0004,
00FF,
00FB,
0001,
00FF,
00FA,
0003,
00FD,
00FA,
00FE,
0003,
0004,
0006,
0002,
0002,
00FD,
0000,
00FF,
0001,
0005,
00FF,
00FF,
0005,
0000,
00FB,
0002,
0006,
00FF,
0006,
00FC,
00FF,
0001,
0003,
00FF,
00FE,
0004,
0002,
00FE,
0001,
00FB,
0000,
0000,
00FA,
00FF,
00FA,
00FD,
00FF,
0000,
00FD,
00FB,
00FB,
0002,
0001,
0000,
00FF,
00FA,
0005,
00FF,
0000,
00FC,
0003,
00FE,
0000,
0002,
00FA,
00FB,
00FE,
0003,
00FC,
0004,
00FD,
0004,
0003,
00FB,
00FF,
0000,
00FD,
00FA,
0003,
00FE,
0003,
00FF,
0002,
00FD,
00FA,
0002,
0005,
0001,
00FE,
0003,
0002,
00FE,
0002,
0001,
00FC,
0000,
0001,
0005,
00FA,
0004,
0004,
00FA,
00FD,
00FB,
0000,
00FE,
00FA,
00FA,
0005,
0004,
0002,
0002,
0002,
0004,
00FA,
00FA,
00FC,
0003,
00FA,
00FB,
00FB,
0004,
00FB,
0000,
0001,
0001,
0002,
0002,
0003,
0003,
00FC,
0000,
0002,
0002,
00FA,
0000,
0005,
0005,
00FC,
00FA,
0000,
00FE,
00F9,
00FF,
0001,
00FB,
0001,
00FC,
00FF,
0000,
0002,
00FD,
0000,
0004,
0003,
0005,
0002,
0002,
0004,
00FE,
00FB,
00FE,
0001,
0000,
0005,
0001,
0002,
0000,
0003,
0005,
0001,
0005,
0001,
0001,
00FB,
0005,
00FB,
00F9,
0003,
0006,
00FE,
0002,
0003,
00FD,
0002,
0001,
00FE,
00FF,
0001,
00FB,
0002,
00FA,
0005,
0004,
0004,
00FD,
0002,
0001,
00FF,
00FD,
00FB,
00FC,
00FD,
00FC,
0003,
0004,
0005,
0004,
0006,
00FB,
00FB,
0000,
0003,
00FD,
0004,
0005,
0004,
00FF,
0002,
0005,
0005,
0002,
0004,
0003,
0000,
00FD,
0001,
00FB,
0006,
0001,
00FD,
0002,
0005,
0003,
0006,
00FF,
00FC,
0003,
0000,
00FC,
0005,
00FF,
00FB,
0002,
0002,
0003,
0005,
00FA,
00FB,
0002,
00FF,
00FD,
00FA,
0000,
0001,
00FA,
0000,
0006,
0006,
00FB,
00FF,
0004,
0005,
00FE,
00FC,
0003,
00FE,
00FD,
00FC,
00FE,
0006,
00FE,
0004,
00FE,
0001,
0001,
00FE,
00FA,
00FA,
00FC,
0002,
0001,
0006,
0003,
00FE,
0003,
00FA,
0001,
0004,
0005,
0001,
0005,
0006,
00FD,
0000,
00FC,
00FE,
00FE,
00FF,
00FE,
0001,
00FD,
0004,
0001,
00FD,
0005,
0001,
0002,
00FB,
0003,
0001,
00FB,
00FF,
0002,
0005,
00FB,
0004,
00FC,
00FC,
0006,
00FC,
0002,
00FE,
00FF,
0003,
0002,
0004,
0006,
0000,
00FF,
0003,
0005,
00FF,
0000,
00FB,
00FE,
0005,
00FF,
0000,
0001,
00FE,
0004,
00FD,
0000,
0000,
00FC,
00FC,
0002,
00FD,
0000,
0000,
00FB,
00FE,
00FF,
00FB,
00FF,
00FD,
0006,
0006,
00FA,
00FD,
00FA,
0004,
0003,
00FE,
0005,
00FA,
00FD,
00FF,
00FA,
00FE,
0004,
0001,
00FB,
0000,
0002,
00FF,
0001,
00FF,
00FB,
00F9,
00FC,
0004,
0002,
0002,
0002,
0005,
0000,
00FE,
00FD,
00FC,
00FE,
0004,
00FF,
0002,
00FA,
0004,
0002,
00FA,
0002,
00FB,
00FA,
00F9,
0000,
00FF,
0003,
00FA,
00FD,
00FC,
0000,
0002,
00FA,
00FA,
0001,
0006,
00FA,
00FE,
0004,
0001,
00FC,
0001,
0004,
0003,
00FE,
0003,
00FC,
00FB,
0002,
0004,
00FF,
00FE,
00FB,
00FC,
0006,
0001,
0003,
0005,
0000,
0001,
0001,
00FC,
00FC,
0002,
0003,
0002,
0000,
0005,
0003,
0002,
00FB,
0002,
00FE,
0002,
00FD,
00FB,
0006,
00FC,
00FB,
00FC,
0006,
0004,
0006,
0000,
0005,
0003,
0005,
00FF,
0005,
0006,
00FD,
0003,
0002,
00FA,
0003,
0006,
00FB,
0003,
00FB,
00FD,
00FB,
0004,
00FE,
00FC,
0001,
00FA,
0002,
0001,
0003,
00FF,
0001,
00FE,
0001,
0000,
00FC,
00FE,
00FE,
0001,
0006,
0004,
00FC,
0001,
00FA,
0006,
0005,
00FF,
0006,
0003,
0005,
0005,
0005,
00FB,
0003,
00FE,
0006,
00FB,
0006,
00FC,
00FD,
0001,
00FF,
0003,
0004,
00FC,
00FD,
0000,
00FC,
0004,
00FA,
0005,
00FC,
00FB,
0005,
0006,
0005,
00FD,
0000,
00FD,
0000,
0003,
0005,
0001,
00FC,
00F9,
00FB,
0003,
0002,
0006,
00FB,
0003,
0001,
0005,
00FD,
00FD,
0005,
00FB,
0006,
00FD,
0005,
00FD,
00FE,
00FF,
0004,
0001,
0001,
00FB,
00FE,
00FA,
00FA,
0004,
00FF,
00FA,
00FF,
00FF,
0001,
00FA,
0004,
0001,
0000,
0002,
00FB,
00FC,
00FB,
00FD,
0006,
0006,
0005,
0006,
0003,
0003,
00FC,
00FE,
00FB,
0003,
00FB,
0004,
0006,
0001,
0001,
0001,
0005,
00FB,
00FC,
0004,
0003,
0004,
0005,
00FA,
0003,
00FB,
00FE,
0003,
0000,
0004,
0002,
00FB,
0005,
00FE,
0000,
00FA,
0004,
0002,
0003,
0002,
00FF,
00F9,
0003,
00FB,
00FD,
00FE,
0002,
0002,
00FF,
0005,
00FC,
0001,
00FD,
0004,
00FC,
00FE,
0001,
00FD,
00FA,
0005,
0002,
0006,
0006,
0006,
0003,
00FC,
00FF,
00FD,
0004,
0001,
0000,
0005,
00FB,
00FB,
0002,
0000,
0005,
0001,
00FD,
00FB,
0001,
00FD,
0005,
0005,
00FE,
00FE,
0003,
0006,
0003,
0005,
0004,
00FF,
0003,
00FD,
00FB,
00FA,
00FD,
00FA,
00FC,
0000,
0005,
00F8,
0003,
00FA,
00FC,
0004,
0005,
00FF,
00FE,
00FA,
00FE,
0004,
0002,
00FC,
0004,
0001,
0006,
00FB,
0005,
00FE,
00FB,
0000,
0002,
00FB,
00FF,
00FF,
00FB,
00FD,
00FC,
0001,
0000,
0006,
00FB,
00FB,
00FA,
0002,
0005,
0005,
00FF,
00FE,
0001,
0005,
00FA,
00FE,
00FE,
0003,
0001,
0000,
00FA,
0006,
00FB,
00FE,
0000,
00FC,
0002,
0006,
00FA,
0006,
0002,
0003,
00FE,
0001,
0005,
0001,
00F9,
00FB,
00FB,
00FE,
00FA,
0000,
0003,
00FD,
0003,
0004,
0004,
00FD,
0003,
0002,
00FD,
0003,
0001,
00FE,
0003,
00FB,
00FD,
00FC,
0002,
0003,
00FF,
00FD,
0000,
00FE,
0005,
0001,
0003,
0004,
0005,
0000,
00FF,
0000,
0005,
00FC,
0006,
00FB,
0006,
0000,
00FF,
0000,
0004,
0005,
0001,
00FA,
0001,
0000,
0006,
0006,
00FB,
00FE,
00FF,
00FB,
0001,
0000,
0001,
00FD,
00FD,
00FC,
00FC,
0004,
0005,
0001,
0006,
00FA,
00FA,
0000,
00FF,
0001,
0004,
00FD,
0003,
00FB,
0000,
0002,
00FD,
00FB,
0006,
0004,
0003,
0000,
0002,
00FA,
00FA,
00FF,
0004,
00FB,
00FE,
0005,
0000,
00FA,
00FB,
0001,
0004,
0000,
00FD,
0005,
0005,
0003,
0003,
0001,
0004,
00FB,
00FC,
00FB,
0004,
00FF,
00FC,
0005,
0006,
00FC,
0002,
0006,
0005,
0001,
00FD,
0002,
0002,
00FA,
0001,
0002,
0000,
00FB,
00FC,
00FC,
00F9,
0000,
0000,
0005,
0001,
0005,
0001,
00FE,
0004,
00FE,
00FD,
0001,
00FC,
00FD,
00FA,
00FC,
0002,
00FA,
00FB,
00FA,
00FF,
0003,
0002,
0001,
00FD,
00FE,
0004,
0003,
0002,
0000,
00FC,
00FF,
00FE,
00FF,
0001,
0003,
0006,
0001,
00FA,
0000,
00FC,
0002,
0001,
0006,
0005,
00FC,
0004,
00FE,
0000,
00FE,
00FF,
0000,
00FE,
00FC,
00FC,
00FE,
00FC,
0000,
0004,
00FA,
0005,
00FC,
0005,
00FB,
0004,
0003,
0001,
00FE,
0004,
00FB,
00FF,
00FD,
00FE,
0000,
0001,
00FF,
0000,
0005,
0005,
00FB,
0000,
00FF,
0001,
0005,
00F9,
0000,
0002,
00FC,
00FD,
0003,
00FA,
0002,
0002,
00FC,
00FC,
0004,
00FE,
0004,
0002,
0006,
00FF,
0000,
00FD,
00FE,
00FB,
0000,
0006,
0003,
00FF,
00FE,
00FC,
0004,
0004,
00FF,
00FD,
00FF,
0000,
0005,
0001,
0002,
0006,
0004,
0002,
0006,
0006,
00FD,
0006,
00FA,
00FF,
00FE,
0001,
0000,
0001,
0000,
0004,
0003,
0002,
00FE,
00FE,
00FA,
00FA,
00FE,
0003,
0000,
0000,
00FE,
0005,
0002,
00FD,
00FC,
0000,
0004,
0001,
0001,
00FD,
0001,
00FE,
0006,
0000,
0001,
0006,
00FC,
0005,
00FF,
0004,
0002,
00FF,
0004,
0000,
0002,
00FC,
00FD,
0003,
00FD,
00FC,
0005,
00FB,
0003,
0001,
0002,
0006,
00FB,
00FA,
00FA,
00FB,
00FD,
00FE,
0003,
0000,
00FB,
00FF,
0006,
0003,
0003,
0000,
0005,
00FB,
0005,
00FE,
0003,
00FF,
00FF,
0004,
0002,
0005,
0004,
00FF,
00FB,
0006,
00FE,
0003,
00FC,
0001,
0002,
0006,
00FA,
0005,
00FA,
0004,
0001,
0006,
0003,
00FB,
00FB,
0000,
00FF,
0003,
00FF,
00FE,
0004,
0002,
0000,
00FE,
00FB,
00FE,
0002,
0001,
0005,
0005,
00FD,
0000,
00FF,
0004,
00FB,
0006,
0003,
0000,
00FC,
0003,
00FB,
00FD,
0001,
0003,
0004,
00FC,
0001,
0004,
00FB,
0005,
0006,
0000,
0005,
0005,
0002,
0004,
00FB,
00FC,
00F9,
0003,
00F9,
0005,
0004,
0003,
00FB,
0006,
0004,
00FF,
0000,
00FA,
00FB,
0003,
00F9,
00FD,
00FB,
00FE,
0004,
00FA,
0001,
00FC,
0002,
00FB,
0005,
0003,
00FE,
0001,
00FC,
0004,
00FA,
00FD,
0001,
00FD,
00FB,
0001,
0000,
00FD,
0006,
00FF,
00FA,
00FB,
0004,
0003,
00FB,
0005,
0002,
0002,
00FF,
00FB,
0001,
0002,
0004,
0004,
0006,
00FD,
0006,
0000,
0002,
00FA,
00FF,
0005,
0005,
0001,
00FB,
0000,
0000,
00FE,
0004,
0006,
0002,
0004,
00FC,
0003,
00FB,
00FA,
00FD,
0002,
00FC,
0005,
0003,
00FC,
0005,
00FD,
00FC,
0005,
00FE,
00FB,
00FB,
0003,
0005,
00FC,
0004,
0004,
00FD,
00FC,
0002,
00FE,
00FF,
00FB,
0000,
00FC,
0001,
0002,
0003,
00FB,
0002,
00FC,
00FA,
0002,
0002,
0006,
00FA,
0002,
00FA,
00FF,
00FE,
0004,
00FD,
0003,
00FE,
0006,
0005,
0005,
0001,
0000,
0005,
0005,
00FD,
0000,
00FF,
0006,
00FE,
00FF,
0002,
00FF,
00FB,
0005,
00FD,
0000,
00FE,
00FE,
00FF,
00FF,
0006,
0003,
0000,
00FE,
00F9,
0001,
00F9,
00FA,
0005,
0000,
00FC,
00FE,
0005,
00F9,
0005,
00FD,
0003,
00FA,
0005,
00FB,
00FF,
0002,
0000,
00FC,
0001,
00FE,
0005,
0002,
00FD,
0003,
00F9,
00FC,
00FB,
0003,
0006,
0002,
00FC,
0001,
0000,
0002,
00FA,
0002,
00FF,
00FD,
00FE,
00FE,
0005,
00FE,
0005,
00FA,
0004,
00FE,
0004,
0003,
00FD,
0001,
0002,
0000,
00FD,
0001,
0004,
0002,
00FF,
00FB,
0005,
00FD,
00FF,
00FD,
00FF,
0003,
00FE,
00FA,
00FF,
0001,
0003,
0002,
0003,
00FB,
0003,
0003,
00FC,
00FD,
00FE,
0000,
0002,
00FD,
0002,
00FD,
00FC,
0003,
0001,
0005,
00FA,
00FA,
00FC,
0000,
00FC,
00FF,
0000,
00FB,
0004,
0003,
0002,
00FF,
00FB,
00FE,
0002,
0003,
00FE,
00FF,
00FD,
0003,
0004,
00FA,
00FC,
0006,
0003,
0004,
0000,
0001,
00FE,
00FA,
00FE,
00FA,
00FF,
0005,
00FB,
00FD,
00FE,
0000,
0002,
0001,
0000,
00FB,
00FD,
00FB,
00FE,
00FB,
00FE,
0004,
0000,
0006,
00FB,
0005,
00FE,
00FB,
0002,
00FC,
00F9,
00FC,
00FF,
00FB,
00FA,
00FE,
00FC,
00FD,
00FA,
0004,
0002,
00FB,
00FC,
00FD,
0003,
00FF,
0006,
0001,
00FD,
0004,
0001,
0000,
0006,
0002,
0004,
00FE,
0005,
00FA,
00FD,
00FE,
0004,
0005,
0000,
00F9,
0003,
0003,
0005,
00FC,
00FC,
00F9,
00FA,
00FC,
00FE,
0004,
0004,
0006,
00FB,
0003,
00FD,
00F9,
0006,
0006,
00FC,
00FE,
00FB,
00FB,
0001,
00FC,
0006,
0004,
0003,
00FC,
0005,
0002,
0003,
0002,
00FD,
00FB,
00FD,
00FD,
00FD,
00FA,
0001,
00FA,
00FA,
00FE,
00FE,
0001,
0002,
00FD,
0006,
0006,
0005,
0000,
00FC,
0002,
00FF,
00FC,
00FF,
0001,
0004,
00FB,
00FE,
00FA,
0002,
00F9,
0003,
0004,
0003,
00FD,
0002,
0003,
00FF,
00FD,
0005,
0004,
0000,
00FF,
00FC,
0005,
00FE,
00FC,
00FE,
0000,
00FA,
00FF,
00FA,
0004,
00FE,
00FE,
0005,
0000,
0001,
0003,
0004,
00FA,
00FA,
00FA,
0004,
0001,
0006,
0001,
0005,
0004,
0002,
0004,
00FC,
0002,
0000,
0002,
00FB,
00FD,
00FA,
0000,
0000,
0001,
00FA,
00FE,
0003,
0003,
0005,
0002,
0003,
0003,
00FE,
00FB,
00F9,
0003,
00FA,
0005,
0006,
00FD,
00FE,
00FB,
00FB,
00FB,
0003,
00FB,
00FA,
00FD,
00FF,
00FE,
0001,
0002,
00FD,
0002,
0003,
0003,
00FA,
00FC,
0000,
00FE,
0006,
0000,
00FA,
0006,
0001,
00FC,
0006,
00FA,
00FB,
00FC,
0004,
0001,
0004,
0001,
0006,
0001,
0006,
0002,
00FC,
00FD,
00FA,
00FF,
0000,
0005,
0003,
0001,
0000,
0001,
0001,
00FD,
0002,
00F9,
0004,
00FF,
0001,
00FA,
00FD,
00FB,
00FB,
0001,
0006,
0000,
0005,
00FE,
0002,
00FC,
0005,
00F9,
00FB,
00FB,
00FF,
0002,
0000,
00FB,
0002,
00FE,
0000,
0004,
00FA,
0000,
0000,
00FB,
0000,
00FF,
00FB,
0001,
0005,
00FE,
0006,
00FF,
0005,
0005,
0000,
00FC,
00FA,
00FE,
00FE,
00FF,
00FA,
00FB,
0002,
00FD,
0003,
0002,
00FF,
0001,
00FB,
0000,
0003,
00FE,
0005,
00FB,
0005,
00FE,
00FD,
00FB,
0005,
00FD,
0005,
0002,
00FA,
0001,
0000,
0004,
0006,
0004,
0001,
00FA,
00FC,
0004,
00FD,
00FA,
00FF,
0005,
00FB,
00FC,
0003,
00FF,
0001,
00FB,
00FD,
00FB,
0003,
00FE,
0000,
0006,
0005,
00FA,
00FC,
00FF,
0004,
0006,
00FC,
00FF,
00FD,
0006,
00FF,
0003,
00F9,
0000,
0001,
0000,
0006,
0001,
0004,
0003,
0006,
0002,
00FF,
0005,
0002,
0002,
0006,
0005,
00FA,
0002,
0000,
0003,
0000,
0001,
0002,
0003,
00FC,
0004,
00FA,
0000,
0004,
0004,
0001,
0000,
00FE,
0003,
00FD,
0003,
00F9,
00FF,
00FA,
0002,
00FA,
00FB,
00FD,
0003,
00FF,
0001,
00FF,
00FD,
0000,
0000,
0002,
00FB,
0002,
0006,
00FF,
00FB,
00FB,
0006,
00FC,
0004,
0002,
00FA,
0000,
0004,
00FA,
0003,
00FD,
00FA,
0001,
00FE,
0000,
0000,
00FA,
00FE,
0004,
0003,
0004,
00FF,
0001,
0001,
0001,
0002,
00FE,
00F9,
00FA,
00FB,
00FD,
00FE,
00FC,
00FA,
00FD,
0002,
0001,
0004,
00FD,
00FB,
0006,
00FF,
00FE,
00FC,
0002,
00FC,
00FA,
00FE,
0005,
00FB,
0002,
0006,
00FC,
0002,
00FB,
00FA,
00FF,
00FA,
00FB,
0003,
0002,
0000,
0004,
00FB,
0003,
00FB,
0006,
0001,
0001,
0005,
00FB,
0001,
00FD,
0004,
00FD,
0000,
00FA,
00FB,
0000,
00FD,
00FE,
0006,
0002,
00FD,
0005,
00FA,
0002,
0006,
00FD,
00FD,
0001,
0002,
00FB,
0003,
0005,
0002,
00FC,
00FC,
00FB,
0005,
0001,
0005,
00FE,
0002,
0006,
0000,
0005,
00FD,
00FF,
00FD,
0000,
00FD,
0004,
0000,
0000,
0003,
0005,
0000,
00FE,
00FA,
0002,
00FF,
0002,
00FC,
00FE,
0001,
0003,
00FA,
0006,
00FE,
00FE,
0002,
00FF,
00FF,
0004,
0002,
00FB,
0000,
0002,
0006,
0003,
0005,
00FC,
00FF,
00FD,
00FC,
00FE,
0003,
0000,
00FB,
00FF,
0004,
0001,
0002,
0005,
00FB,
0000,
00FD,
00FF,
0006,
00FB,
00FD,
00FF,
00FA,
0002,
00FD,
0006,
0001,
00FF,
0003,
0002,
00FB,
00FB,
00FE,
0003,
0003,
0001,
00FD,
00FA,
0002,
0006,
0006,
00FC,
00FC,
00FB,
0000,
0002,
0006,
0004,
0005,
0002,
00FB,
00FF,
00FE,
0001,
0002,
00FD,
0003,
00FE,
00FF,
0001,
00FF,
0006,
0001,
00FE,
00FC,
0003,
00FC,
00FE,
0001,
00FB,
0005,
00FD,
0004,
0002,
00FA,
0005,
0003,
0002,
0001,
0000,
00FC,
00FA,
0001,
0001,
0006,
00FD,
0000,
00FC,
00FC,
0006,
00FD,
00FA,
0000,
0005,
00FF,
0006,
0003,
0006,
00FC,
00FE,
0000,
0006,
00FA,
00FC,
0004,
00FF,
0004,
00FB,
00FF,
00FA,
00FC,
00FE,
00FA,
0000,
00FE,
00FD,
00FA,
0001,
0005,
00FF,
00FD,
0004,
00FD,
0001,
0006,
0001,
0005,
00FC,
00FE,
0005,
0000,
0003,
0004,
0002,
00FA,
0006,
00FC,
0004,
00FA,
0001,
00FD,
0003,
0004,
0000,
00FE,
0002,
00FD,
00FE,
00FA,
00FF,
00FD,
00FB,
00FA,
0006,
00FE,
0000,
0000,
0005,
0003,
00FF,
0002,
0004,
0002,
0000,
00FF,
00FD,
00FB,
0001,
00FD,
0006,
00FC,
00FB,
0005,
00F9,
0006,
0003,
0005,
00FD,
0005,
00FF,
0006,
00FA,
00FE,
00FC,
00FB,
0000,
00FE,
0001,
0006,
0000,
0006,
00FA,
0003,
00FE,
00FF,
00FE,
0005,
00FA,
00FC,
00FD,
0006,
00FD,
00FD,
00FE,
00FF,
00FE,
00FA,
0005,
0001,
00FB,
00FB,
00FD,
00FA,
0004,
0003,
0005,
00FC,
0001,
00FB,
00FE,
0006,
00FE,
00FB,
0006,
00FC,
0004,
0000,
00FC,
00FB,
0006,
0000,
00FB,
0001,
0001,
00FE,
00FF,
0001,
0003,
0004,
00FF,
0005,
00FF,
0001,
00FD,
00FD,
0003,
0000,
0005,
0002,
0006,
00FC,
0006,
00FC,
0004,
00FF,
00FC,
00FC,
00FF,
0003,
00FA,
00FA,
00FE,
00FB,
0001,
00FF,
00FB,
0004,
00FA,
00FE,
0001,
0006,
0006,
00F9,
00FA,
00FE,
0000,
00FE,
00FA,
0004,
0006,
00FD,
0002,
00FD,
0002,
0001,
0002,
0000,
00F9,
0004,
0001,
00FA,
0004,
00FE,
0003,
00FF,
0000,
0004,
0004,
0005,
0005,
0003,
00FA,
00FF,
0003,
0004,
00FA,
0005,
0000,
0003,
0001,
0003,
0003,
00FB,
0003,
0005,
00FE,
00FA,
00FF,
0000,
00FD,
0004,
00FE,
00FF,
00FC,
00FD,
0000,
00FA,
00FE,
0000,
0004,
00FE,
0002,
0002,
0003,
0006,
00FE,
0006,
00FA,
0002,
00FA,
00FA,
00FF,
00FC,
00FC,
00FE,
00F9,
00FC,
0000,
0000,
00FD,
00FC,
00FF,
00FE,
00FB,
0005,
0001,
00FC,
00FE,
0004,
0000,
0002,
0005,
0002,
00FF,
00FE,
00FD,
00FA,
00FC,
0004,
00FF,
00FA,
0004,
0000,
00FF,
0006,
0001,
0001,
0001,
0000,
0002,
0004,
00FD,
0003,
00FE,
00FE,
0001,
00FF,
0003,
0001,
00FA,
00FC,
00FF,
00FB,
00FA,
00FD,
00FA,
0006,
0004,
00FB,
00FB,
0004,
00FB,
00FC,
0005,
0002,
00FF,
0004,
00FF,
0001,
00FF,
0001,
00FD,
0001,
0003,
0006,
0002,
00FE,
00FB,
0000,
0002,
0001,
0000,
0006,
0000,
0003,
0003,
00FB,
00FE,
0000,
00FC,
00FF,
00FF,
00FA,
00FD,
00FC,
0003,
0002,
0002,
0005,
0003,
0005,
0005,
00FD,
0006,
0002,
0002,
00FE,
0002,
0004,
00FB,
00FD,
0004,
00FB,
00FA,
00FB,
00FF,
0002,
00FB,
00FD,
00FD,
00F9,
00FF,
00FA,
0004,
0001,
00FA,
00FE,
0004,
00FC,
00FF,
0005,
0004,
0002,
00F8,
00FF,
0002,
00FA,
00F9,
0000,
00FD,
0001,
0000,
0000,
00FE,
00FD,
00FB,
00FD,
0002,
0002,
00FC,
00FD,
0002,
0000,
00FE,
00FE,
0004,
00FC,
0000,
0000,
00FA,
0000,
00FA,
0002,
00FF,
0005,
0000,
0005,
0000,
0003,
0000,
0005,
00FF,
00FC,
0005,
0001,
0004,
0002,
00FD,
00FD,
00FB,
00FC,
00FF,
0004,
00FF,
0002,
0002,
00FE,
00F9,
0004,
0003,
00FD,
00FF,
00FF,
0005,
00FA,
0002,
0000,
0003,
00FA,
00FA,
0005,
00FC,
0005,
00FB,
00FA,
0005,
0001,
0005,
0000,
00FF,
00FE,
0001,
00FC,
00FC,
00F9,
00FA,
0001,
0000,
0002,
00FB,
00FE,
0001,
00FE,
0006,
0000,
0005,
00FE,
0003,
0004,
0002,
0001,
0006,
0003,
0005,
00FB,
00FA,
0005,
00FE,
0000,
0002,
0003,
0005,
00FD,
0006,
00FC,
00FB,
00FD,
0001,
00FA,
0003,
00FE,
0001,
0006,
0001,
00FE,
0003,
00FA,
0005,
0002,
00FC,
00FC,
00FB,
00FA,
00FE,
00FD,
00FE,
00FB,
00FB,
0000,
0003,
0000,
00FA,
0005,
00FE,
0001,
0004,
0003,
00FD,
0001,
00FB,
0006,
0005,
00FB,
00FE,
00F8,
0002,
0004,
00FE,
0000,
0005,
00FB,
00FD,
00FA,
00FB,
00FF,
00FB,
0003,
0002,
00FE,
00FF,
00FF,
0005,
00FC,
0005,
00FE,
00FE,
0004,
0002,
00FC,
0001,
0004,
0005,
00FE,
00FF,
00FC,
0000,
00FB,
0005,
0000,
00F9,
0001,
00FE,
0002,
0005,
0001,
0003,
0003,
00FA,
0005,
0006,
00FC,
0001,
00FE,
0004,
00FD,
00FB,
00FA,
0001,
00FB,
0006,
0004,
0003,
0003,
00FF,
0003,
00FF,
00FA,
0003,
0002,
00FB,
0006,
00FA,
00FC,
00FE,
0003,
00FD,
0002,
00FD,
00FD,
0001,
0001,
0001,
0004,
0004,
0005,
0003,
00FE,
00FF,
0005,
00FC,
0000,
00FC,
0002,
0002,
00FF,
0001,
0005,
0002,
00FE,
0001,
0002,
00FA,
00FF,
00FD,
0004,
0006,
00FE,
0002,
0002,
00FE,
0006,
0004,
00FF,
0001,
0002,
00FC,
00FC,
0004,
0002,
0000,
0000,
00FC,
00FD,
0001,
0006,
0001,
0000,
0003,
0003,
00FC,
0000,
0000,
00FE,
0005,
0001,
00FC,
0002,
00FA,
0003,
00FD,
0002,
0006,
0004,
0005,
00FE,
00FC,
0003,
0001,
0000,
0000,
0006,
00FA,
00FC,
0002,
00FF,
0001,
00FB,
0006,
0001,
00FA,
0002,
00FF,
0000,
00FF,
00FA,
00FF,
0006,
00FC,
00FF,
0005,
0004,
0000,
00FF,
0001,
00FC,
0003,
0004,
00FC,
0001,
0002,
0005,
00FB,
00FB,
00FC,
0001,
0000,
0000,
0000,
00FA,
0005,
00FD,
0005,
00FA,
0004,
0003,
00FC,
0005,
00FD,
00FB,
00FF,
0004,
00FB,
00FE,
0004,
0006,
0000,
0005,
0005,
0000,
00FD,
0004,
0004,
00FC,
0003,
0005,
0003,
00FD,
00FB,
0002,
0006,
0005,
00FE,
00FD,
0006,
0003,
00FB,
00FF,
0002,
00FE,
00FC,
00F9,
0003,
00FF,
0005,
00FA,
0002,
00F9,
0001,
00F9,
00FF,
0001,
00FE,
0003,
0000,
00FD,
0001,
00FF,
00FB,
00FA,
0002,
0001,
00FA,
0000,
0005,
0003,
00FA,
0002,
0000,
00FF,
0004,
0002,
0005,
0001,
00FB,
0003,
0001,
00FC,
00FF,
0004,
00FB,
0000,
00FB,
0004,
0003,
00FE,
0004,
0004,
0004,
00F8,
0004,
00FE,
00FE,
0000,
0004,
0001,
00FB,
00F9,
00F9,
00FE,
00FE,
00FA,
00FF,
0001,
00F9,
0000,
0000,
00F9,
0001,
00FD,
0002,
00FA,
0001,
00F9,
00FB,
00FC,
0000,
0002,
00FF,
00FD,
0005,
00F9,
00FA,
00FD,
0000,
00FC,
0000,
00F9,
00FB,
00FE,
0000,
0004,
00FB,
0005,
0005,
0003,
00FF,
0000,
00FC,
0004,
0002,
00FE,
00FB,
0000,
00FD,
00FD,
00FC,
0004,
0002,
0004,
0004,
00FE,
0002,
00FB,
00FD,
0001,
00FA,
0005,
00FD,
0000,
0003,
0005,
0004,
00FF,
00FB,
00FB,
00FB,
00FB,
0006,
0002,
0005,
00FB,
0006,
00F9,
0003,
0001,
00FD,
00FC,
00FE,
0004,
0004,
0003,
0004,
0000,
00FB,
0002,
00FF,
00FD,
00FF,
0002,
0003,
00FC,
00FB,
00F9,
0000,
0000,
0006,
0001,
00FC,
0003,
00F9,
0005,
0004,
0002,
0003,
0000,
0002,
0002,
00FF,
0006,
0000,
00FE,
0004,
00FF,
00FF,
00FE,
00FE,
00FD,
0005,
0006,
0006,
0003,
00FA,
0001,
00FE,
0002,
00FB,
0000,
00FA,
00FB,
0004,
00FE,
00FB,
0000,
00FF,
0001,
0003,
0004,
00FF,
00FA,
00FA,
0006,
00FA,
0006,
0000,
0006,
00FD,
00FD,
0004,
0004,
00FB,
00FF,
0006,
0003,
0006,
0002,
0003,
0005,
00FD,
00FB,
00FC,
0002,
00FE,
00FC,
00FA,
00FA,
00FD,
0005,
00FA,
00FA,
0006,
0005,
0000,
00FC,
00FC,
0006,
00FB,
0004,
0003,
0003,
0002,
00FA,
00FB,
0006,
00FF,
00FA,
00FF,
0006,
00FC,
00FA,
0004,
0002,
00FD,
0001,
00FA,
00FA,
0002,
0001,
0000,
0006,
00FF,
0002,
0000,
00FE,
0004,
0004,
0005,
00FB,
0003,
0001,
00FC,
00FC,
0001,
0005,
00FD,
00FB,
0001,
0001,
00FB,
00FB,
0004,
00FC,
00FE,
0004,
0006,
0005,
0003,
0006,
00FA,
00FE,
0006,
0001,
0006,
0000,
00FB,
0002,
0003,
00FD,
0000,
0004,
0004,
00FF,
0003,
00FB,
00FD,
0005,
00FA,
00FC,
0000,
00FD,
0002,
0003,
00F9,
0006,
00FD,
00F9,
0003,
00FE,
0001,
00FD,
00FB,
0002,
0006,
0003,
0004,
0004,
00FE,
00FD,
00FB,
0003,
0001,
0000,
00FC,
0003,
0006,
0005,
00FE,
0001,
00FC,
0006,
00FE,
0004,
0004,
0002,
0000,
0001,
00FA,
0001,
0005,
0001,
0003,
0004,
0005,
00FC,
00FA,
0005,
00FC,
00FE,
0003,
00FC,
0005,
00FA,
0001,
00FD,
0002,
0005,
0004,
0005,
00FE,
00FA,
00FB,
00FF,
00FF,
0000,
0000,
00FB,
0006,
0000,
00FB,
00FE,
0006,
00FD,
00FD,
0006,
0003,
00FF,
0001,
00FD,
0005,
0003,
00FA,
00FD,
0003,
00FF,
0000,
0003,
0006,
0002,
00FE,
00FF,
0000,
0002,
00FB,
00FB,
00FF,
00FA,
00FE,
00FD,
0005,
0001,
0002,
00FA,
00FB,
00FC,
0001,
0000,
0000,
00FD,
00FB,
00FE,
00FA,
0002,
00FE,
00FD,
00FD,
00FA,
0003,
0006,
00FE,
00FA,
00FB,
0000,
0000,
0002,
0001,
0000,
00FF,
0003,
00FE,
00FC,
0000,
0001,
0001,
00FF,
0000,
00FE,
00FC,
0000,
00FD,
00FC,
00FD,
00FC,
0002,
00FB,
0000,
0000,
00FB,
0006,
00F9,
0003,
00FD,
00FA,
00FC,
00FF,
0003,
00FB,
0005,
0006,
00FF,
0003,
0005,
00FB,
00FE,
0001,
0002,
0003,
0003,
0004,
00FB,
0006,
0002,
00FC,
0003,
0006,
00FD,
00FC,
0006,
00FF,
0000,
0000,
0004,
00FC,
0000,
00FC,
00FC,
0002,
00FE,
0001,
00FA,
0005,
00FE,
0002,
00FE,
00FA,
0003,
0001,
0001,
0006,
00FD,
00FC,
0004,
0002,
00FA,
0003,
0001,
0001,
0005,
00FF,
00FF,
00FB,
0006,
00FF,
0004,
00FF,
0002,
00FC,
0005,
00FE,
0002,
0006,
00FC,
0003,
0000,
0001,
00FB,
00FD,
00FD,
0003,
0000,
0003,
00FD,
00FD,
0005,
00FC,
00FA,
0004,
0002,
00FF,
0002,
00FB,
0001,
0000,
0005,
00FE,
00FD,
0005,
00FE,
00FF,
00FB,
0001,
0005,
00FF,
00FA,
0005,
00FF,
0004,
0003,
00FE,
0006,
0000,
0005,
0004,
0003,
0003,
00FE,
0005,
0006,
0002,
00FC,
00FE,
00FC,
0002,
0005,
0001,
0004,
00FC,
00FC,
00FF,
0001,
0004,
0004,
0004,
0003,
00FA,
00FE,
00FE,
00FE,
0003,
00FC,
00FA,
0003,
00FB,
0006,
0004,
00FF,
00FC,
00FD,
00FA,
0005,
00FA,
00FE,
00FB,
0000,
00FC,
0003,
00FA,
0004,
00FF,
0004,
00FF,
0005,
00FF,
0005,
0006,
0001,
00FC,
0004,
00FA,
00FF,
00FE,
00FA,
00FB,
00FB,
00FA,
00FE,
0002,
0004,
00FF,
00FE,
00FD,
0006,
0001,
00FA,
00FE,
00FB,
0001,
0002,
00FC,
0002,
00FF,
00F9,
0003,
0001,
0002,
00FF,
00FA,
0002,
0004,
00FD,
00FF,
00FC,
00FF,
0005,
00FC,
0004,
00FE,
00FC,
0004,
00FC,
0006,
00FD,
00FD,
00FD,
0006,
00FF,
00FE,
00FF,
00FF,
0002,
00FA,
00FA,
0005,
0003,
00FA,
00FE,
0006,
00FE,
0002,
00FD,
00FF,
0000,
00FF,
00FC,
00FD,
0003,
00FF,
0005,
00FD,
0003,
0002,
0000,
0003,
00FF,
0006,
0005,
0004,
00FB,
00FD,
0003,
00FD,
00FF,
0000,
00FA,
00FC,
0006,
00FE,
00FE,
0004,
0004,
0005,
00FF,
0001,
00FB,
0000,
0001,
0002,
00FC,
0000,
00FC,
0001,
0005,
0001,
0001,
00FD,
0000,
00FB,
00FD,
00FE,
00FF,
00FF,
00FD,
0002,
0000,
0004,
0003,
00FB,
00FE,
00FD,
00FE,
00FA,
0000,
00FE,
0006,
00FA,
00FF,
0005,
0001,
0002,
0004,
00FE,
0006,
0002,
00FA,
00FA,
00FB,
0004,
00FE,
0004,
0006,
00FF,
00FF,
00FC,
00FE,
00FF,
00FC,
0000,
0002,
00FC,
00FD,
00FE,
0002,
00FB,
00FA,
00FE,
00FB,
00FC,
00FA,
0003,
00FB,
00FB,
0004,
0002,
0005,
0000,
00FC,
0006,
0002,
00FB,
0000,
00FE,
0000,
00FE,
0001,
0004,
0003,
0003,
0003,
0003,
00FD,
00FF,
0004,
00FB,
0004,
0006,
00FC,
0002,
00FA,
0006,
00FF,
0001,
0002,
0000,
00FF,
00FE,
00FC,
00FF,
00FC,
00FE,
0000,
00FD,
00FC,
0001,
00FB,
0000,
0001,
00FA,
0001,
0002,
00FC,
00FD,
00FA,
00FA,
0002,
0001,
0001,
0003,
0006,
00FD,
00FC,
00FB,
0000,
0006,
0000,
0004,
0002,
00FC,
0001,
00FC,
0002,
0006,
00FD,
0001,
00FC,
00FE,
00FE,
00FA,
0001,
0005,
00FF,
00FE,
00FC,
0003,
0004,
0001,
0000,
00FE,
0005,
0003,
0005,
0005,
00FA,
00FE,
00FB,
0006,
0006,
0002,
00FF,
0004,
0004,
0006,
0000,
0003,
0006,
00FC,
00FA,
00FE,
00FE,
00FA,
00FC,
00FA,
00FF,
0000,
0004,
0001,
00FA,
00FB,
00FB,
0005,
0001,
0005,
0004,
0004,
00FA,
0004,
00FD,
00FD,
00FF,
00FB,
0004,
00FE,
0002,
0003,
00FA,
00FD,
00FE,
0001,
00FA,
00FA,
00FD,
00FD,
0006,
0000,
00FB,
00FC,
00FE,
00FC,
0004,
0003,
0001,
00F9,
00FB,
0001,
00FB,
00FD,
0004,
0005,
0001,
00FC,
0005,
0006,
00FB,
0003,
0006,
0005,
00FF,
00FC,
0002,
0000,
0006,
0002,
00FE,
00FC,
00FD,
0000,
0006,
0000,
00FE,
00FF,
00FF,
0003,
00FB,
00FF,
00FC,
00FC,
0003,
00FC,
00FC,
00FC,
0003,
00FC,
00FB,
00FF,
00FF,
0006,
0003,
00FB,
0000,
0003,
00FB,
00FF,
0005,
0003,
0003,
0002,
0000,
00FF,
0001,
00FD,
0006,
0004,
00FC,
0002,
0002,
0001,
00FB,
00FE,
00FF,
0003,
0001,
0002,
00FE,
00FD,
00FF,
00FC,
0006,
00FE,
0002,
00FA,
00FF,
0001,
00FB,
0003,
0000,
00F9,
0002,
00FD,
00FC,
0004,
00FE,
00FD,
0001,
0006,
00FE,
0006,
0002,
0002,
0005,
0002,
0003,
0006,
00FE,
0000,
00FB,
0003,
0003,
00FF,
00FC,
0001,
0006,
00FD,
0002,
0002,
0002,
0002,
00FE,
0002,
00FB,
0003,
00FF,
00F9,
0002,
00FF,
00FD,
0004,
00FB,
0002,
0000,
0005,
0003,
00FC,
0006,
00FC,
0004,
00FE,
0004,
0003,
00FB,
0000,
00FF,
0001,
00FF,
0006,
0000,
0002,
0004,
0001,
0005,
00F9,
0003,
0006,
0005,
0001,
0000,
00FA,
00FD,
00FD,
0005,
00FD,
00FF,
00FB,
0005,
0002,
00FA,
00FA,
00FF,
00FE,
00FC,
00FB,
00FA,
00FA,
0002,
0006,
00FB,
0005,
0004,
0000,
00FF,
00FD,
00FE,
0000,
0001,
00FA,
00FB,
0000,
0000,
00FA,
0006,
0006,
0002,
0004,
0004,
00FA,
0000,
00FC,
0005,
0001,
0000,
00FB,
0006,
00FF,
00FD,
0000,
00F9,
0001,
00FD,
0002,
0003,
0002,
00FA,
0006,
00FF,
00FF,
00FF,
00FE,
0002,
00FC,
0003,
0000,
00FD,
00FD,
0006,
0004,
0002,
00FD,
00FD,
0003,
00FA,
0000,
0005,
0002,
00FF,
0004,
0004,
00FB,
0001,
0004,
00FD,
00FB,
00FA,
0001,
0001,
00FC,
00FA,
0006,
0005,
0000,
00FF,
00FF,
0004,
0002,
0003,
00FF,
00FC,
00FE,
00FC,
00FA,
00F8,
00FA,
0003,
0004,
00FC,
0001,
0001,
00FB,
00F8,
00FC,
0000,
0005,
00FA,
00FD,
0002,
00FB,
0005,
00FD,
00F8,
00FB,
0000,
0005,
00FF,
0000,
00FA,
0000,
00FA,
0003,
00FD,
00FC,
00FB,
0000,
0000,
00FE,
00FF,
0000,
00FD,
0000,
0003,
0005,
00FA,
0000,
0005,
00FC,
00FC,
0002,
0006,
00FE,
0003,
00FC,
0001,
00FA,
0006,
0001,
0005,
00FB,
00FA,
00FF,
00FE,
00FA,
00FF,
00FF,
0006,
00FF,
0002,
00FE,
00F9,
00FF,
0006,
0003,
0002,
0006,
0005,
0000,
00FC,
0001,
0004,
0004,
00FC,
00FE,
0001,
0006,
0002,
00FF,
00FB,
00FE,
00FD,
0002,
00FB,
00FB,
00FF,
0002,
00FA,
0001,
00FA,
00FB,
00FB,
00F9,
0002,
00FB,
00FF,
0004,
00FE,
0005,
0005,
0003,
00FE,
0001,
00FA,
0003,
0004,
00FE,
0002,
00FD,
0005,
00FF,
00FE,
00FF,
0005,
0003,
0004,
0002,
00FC,
00FB,
0005,
0002,
0003,
0002,
0005,
0004,
0000,
00FB,
00F9,
0005,
00FD,
0003,
00FD,
00FD,
0003,
00FE,
00FB,
0004,
00FF,
0002,
00FD,
00FF,
0001,
00FF,
00FC,
0004,
0004,
00FA,
0000,
0003,
0006,
00FD,
00FE,
00FF,
0006,
0001,
00FD,
0004,
0001,
0001,
0005,
0005,
0006,
00FB,
0001,
00F9,
00FD,
0000,
00FB,
00FD,
0003,
0005,
0002,
00FF,
00FE,
00FD,
00FB,
0000,
0006,
0006,
0005,
0003,
0004,
00FA,
00FE,
0003,
00FB,
0006,
00FA,
00FF,
00FA,
00FC,
00FF,
00FB,
0004,
00FF,
0004,
00FA,
00F9,
0004,
00FA,
0002,
00FA,
00F9,
00FD,
0006,
00FC,
00FE,
00FA,
00FF,
00FA,
00FA,
0002,
0001,
00FE,
00FF,
0000,
0005,
0000,
0000,
0006,
0002,
0006,
0002,
0004,
0001,
0000,
0006,
00FE,
0001,
0001,
0006,
0001,
0001,
00FB,
00FB,
00FC,
00FA,
0003,
00FB,
00FE,
0004,
00FD,
0000,
0003,
00FD,
00FF,
0006,
0006,
00FD,
00FB,
00FE,
0005,
00FB,
0006,
0001,
0001,
00FF,
00FE,
00FB,
0006,
00FF,
0001,
00FC,
00FC,
0005,
0004,
0000,
00FE,
0002,
0000,
00FA,
00FB,
0000,
0002,
0000,
00FC,
00FC,
00FB,
0006,
0004,
00FE,
0001,
00FC,
0005,
00FF,
00FC,
0006,
00FD,
0006,
0006,
00FB,
0005,
0001,
00FB,
0001,
00FA,
0006,
0001,
0002,
0004,
00FC,
0002,
00FE,
00FC,
0006,
0006,
00FF,
00FB,
0000,
00FB,
00FB,
00FC,
00FE,
00FE,
0004,
00FA,
00FD,
00FC,
0002,
0006,
00FA,
0002,
0004,
00FC,
0001,
00FB,
0000,
0002,
00FD,
0001,
0000,
00FC,
0001,
0000,
00FF,
0003,
00FC,
0003,
00FD,
0006,
0003,
0005,
00FC,
0001,
0005,
0001,
00FF,
00FE,
0003,
00FC,
0004,
0006,
0004,
0000,
0005,
0003,
00FC,
0002,
0001,
00FB,
0000,
0002,
00FE,
0005,
0003,
00FC,
00FA,
00FC,
0000,
00FC,
0002,
00FF,
00FB,
0001,
0002,
0001,
0002,
0007,
00FF,
0006,
00FC,
0005,
0004,
00FE,
0006,
0006,
00FA,
0002,
00FC,
0002,
00FA,
0000,
00FB,
0002,
0002,
0005,
0004,
00FD,
0004,
0006,
00FA,
0004,
0001,
0000,
0006,
00FD,
00FC,
0003,
00FD,
00FA,
00FE,
0000,
0005,
00FB,
0003,
00F9,
0001,
0005,
00FD,
00FD,
0003,
00FD,
00FD,
00FC,
0002,
00FB,
00FC,
0005,
00FD,
0000,
00FE,
00FA,
00FA,
00FE,
00FF,
0001,
0002,
00FC,
0001,
0001,
0002,
0006,
0001,
0005,
0001,
00FA,
00FF,
0002,
0000,
0000,
0000,
00FA,
00FD,
0003,
0006,
00FD,
0001,
0001,
0000,
0005,
0001,
0005,
00FC,
00FF,
0006,
0001,
00FB,
0003,
0001,
0002,
0002,
0003,
00FC,
0002,
0004,
00FB,
0005,
0005,
0006,
0006,
0004,
00FD,
00FB,
00FC,
00FA,
00FA,
0002,
0006,
0002,
00FB,
00FA,
00FA,
0001,
00F9,
0005,
0000,
0005,
00FE,
0001,
0005,
0006,
0006,
0006,
0006,
00FD,
00FB,
0003,
0006,
0003,
0000,
0001,
0005,
00FC,
0005,
00FE,
00FD,
00FD,
00FA,
0002,
0000,
0002,
0001,
0006,
0000,
0000,
0003,
0004,
00FE,
00FF,
00FC,
0005,
0001,
00FE,
0002,
0004,
0001,
0002,
0005,
00FB,
0000,
0006,
00FA,
00FA,
0001,
0005,
0003,
0003,
00FC,
0001,
0006,
0003,
00FF,
00FB,
0000,
00FD,
00FB,
00FF,
0003,
00FF,
0004,
00FC,
0005,
00FA,
0003,
0005,
0006,
0006,
00FC,
0001,
00FE,
0006,
00FC,
0004,
0003,
0000,
0000,
0006,
0003,
0001,
0002,
00FD,
00FD,
00FB,
00FB,
0002,
00FC,
0000,
0005,
0005,
0002,
0001,
00FF,
00FF,
0006,
00FC,
0001,
00FA,
00FB,
0003,
0005,
0004,
00FF,
0001,
0005,
0001,
00FD,
0001,
00FA,
00FA,
00FE,
00FD,
0001,
0000,
00FE,
0003,
0000,
00FC,
0002,
0002,
0003,
0004,
0006,
00FE,
0004,
00FA,
0005,
00FA,
0002,
00FD,
00FC,
0005,
00FD,
0002,
00FC,
00FE,
00FB,
0005,
0005,
00FE,
00FF,
0003,
00FD,
00FC,
0005,
0005,
0006,
00FD,
0005,
0002,
0000,
00FE,
00FA,
00FD,
0001,
00FA,
0006,
00FD,
00FE,
0002,
0002,
0003,
0003,
0000,
00FC,
00FB,
0005,
00FF,
00FD,
0001,
00FE,
00FD,
0004,
0002,
00F9,
0005,
00FF,
00FB,
0004,
0001,
0006,
0001,
0005,
0000,
0001,
00FE,
0002,
0000,
00FB,
00FB,
00FE,
0003,
0001,
00FC,
0001,
0005,
0000,
00FE,
0006,
0003,
0003,
00FE,
00FD,
00FF,
00FE,
0000,
0002,
0001,
00FA,
0003,
0004,
00FF,
0002,
0004,
0003,
0004,
00FC,
0001,
0001,
00FC,
0006,
0002,
00FF,
0001,
00FD,
00FC,
0002,
00FA,
0002,
0004,
0006,
0000,
00FE,
0000,
00FE,
00FD,
0004,
0005,
00FD,
00FD,
0004,
00FB,
00FB,
00FA,
0000,
00FB,
0000,
00FE,
0005,
00FC,
00FB,
0001,
00FB,
0004,
00FD,
00FD,
0005,
0000,
0000,
0007,
00FF,
0000,
0004,
00FD,
0006,
00FB,
00FC,
0003,
0006,
00FE,
0006,
00FE,
00FB,
00FC,
00FA,
00FA,
0002,
00FA,
00FD,
00FA,
0006,
0006,
00FD,
00FE,
0002,
00FC,
0003,
0003,
00FC,
00FA,
0003,
0004,
0000,
00FC,
0001,
00FA,
0000,
0004,
0005,
0003,
00FA,
0006,
0001,
00FD,
0006,
0002,
0002,
0006,
0003,
00FC,
0003,
00FA,
00FC,
00FD,
00FE,
0005,
0004,
0000,
0005,
00FB,
00FF,
00FB,
0005,
00FB,
0001,
0000,
00FC,
0000,
00FB,
00FC,
0002,
00FB,
00FE,
0003,
00FF,
0000,
0006,
00FF,
00FE,
0001,
00FD,
0002,
00FB,
00FD,
00FF,
0003,
00F9,
00F9,
00FA,
0000,
0000,
0001,
00FF,
00F9,
00FC,
00FA,
0005,
00FA,
0001,
00FA,
0004,
00FC,
00FD,
00FD,
00FC,
0005,
0006,
0003,
00FB,
00FF,
0002,
00FC,
00FD,
00FA,
00FC,
0006,
0005,
00FE,
0006,
0000,
0005,
0002,
0006,
00FE,
0002,
00FF,
0005,
00FE,
00FD,
00FA,
0003,
00FE,
0006,
00FF,
0001,
0006,
0005,
0004,
0004,
00FC,
0000,
0003,
0000,
0006,
00FB,
00FE,
0006,
00FD,
00FA,
0005,
00FD,
0000,
0002,
0003,
0002,
0003,
00FB,
0006,
0000,
00FB,
0006,
0006,
00FE,
00FE,
00FF,
00FD,
0003,
0003,
00FC,
00FB,
00FC,
00FD,
00FE,
0001,
0007,
00FC,
0002,
0006,
0005,
00FD,
0006,
0006,
00FA,
00FB,
0005,
0001,
0002,
0005,
00FA,
00FC,
00FA,
00FF,
00FE,
0001,
00FE,
0004,
0005,
00FC,
00FD,
00FA,
00FA,
0000,
0002,
00FB,
0000,
0002,
00FA,
0004,
0000,
0005,
0001,
00FD,
00FD,
0001,
0001,
00FE,
0006,
0002,
0000,
0003,
00FA,
0000,
0006,
0007,
0006,
0004,
00FB,
00FC,
0001,
00F9,
00FA,
0001,
0005,
0002,
00FB,
00FF,
00FB,
00FD,
0001,
0000,
00FD,
0002,
0006,
0003,
0005,
0005,
00FA,
0006,
0004,
0002,
00FE,
0001,
0005,
00FF,
00FA,
00FD,
00FB,
00FB,
00FB,
00FB,
0002,
0003,
0002,
0005,
0003,
0003,
00FA,
0003,
00FF,
0000,
0002,
00FA,
00FF,
00FC,
00FF,
0005,
0002,
00FC,
00FE,
0006,
0006,
0001,
00FB,
00FB,
0006,
00FD,
0006,
0000,
00FF,
00FA,
00FA,
0003,
00FB,
0005,
00FE,
00FE,
0001,
0001,
0006,
00FB,
0001,
00FC,
00FF,
0003,
00FE,
00FD,
0004,
00FA,
0002,
00FD,
00FD,
00FD,
0005,
0006,
00FA,
0006,
00FB,
0003,
0003,
00FB,
00FC,
00FE,
0000,
00FD,
00FE,
00FD,
00FD,
00FB,
0003,
00FD,
00FF,
00FE,
00FC,
0004,
0002,
00FA,
00FA,
0002,
0006,
00FD,
00FE,
00FA,
0004,
0003,
0005,
00FA,
0001,
00FE,
00FC,
00FB,
00FF,
0006,
0005,
00FA,
00FC,
00FB,
00FB,
0005,
00FA,
0002,
0004,
00FB,
00FE,
0004,
0004,
00FD,
00FC,
00FD,
0000,
0003,
00FC,
0003,
00FD,
00FF,
00FF,
0000,
00FD,
0006,
00FA,
00FB,
00FD,
00FF,
00FB,
0002,
0004,
00FB,
0005,
0004,
0002,
00FB,
0006,
00FA,
00FE,
0002,
0003,
0005,
0002,
00FC,
0003,
0006,
0004,
0005,
00FE,
00FB,
00FF,
0004,
00FA,
00FE,
00FC,
00FC,
00FA,
00FB,
0001,
0002,
0001,
00FC,
0001,
0000,
00FC,
0005,
00FD,
00FD,
0001,
00FC,
0004,
00FB,
00FC,
00FB,
0000,
0002,
00FD,
00FB,
0006,
0006,
00FD,
0002,
00FE,
00FE,
00FE,
00FC,
0002,
00FA,
0002,
0006,
0005,
0002,
00FC,
00FF,
0001,
0005,
0001,
00FD,
00FB,
00F9,
0002,
00FB,
00FC,
0000,
0001,
00FC,
00FF,
0004,
00FC,
0005,
0006,
00FD,
0004,
0001,
0001,
00F9,
0006,
00FF,
0005,
00FD,
0005,
0005,
00F9,
0003,
0002,
0003,
00FA,
0003,
0002,
0003,
00FC,
0003,
0002,
0002,
00FA,
00FE,
0004,
00FB,
00FF,
0002,
00FE,
00FA,
0005,
00FB,
00F9,
00FE,
00FB,
0002,
00FC,
00FB,
0006,
0001,
00FF,
00F9,
0001,
00F9,
00FC,
00FD,
00FB,
0002,
00FD,
00FA,
0005,
0004,
0000,
0004,
0002,
0002,
0001,
00FA,
00FB,
0004,
0001,
00FD,
0006,
00FE,
0003,
0001,
00FA,
00FA,
00FB,
0005,
0004,
00FB,
0003,
00FE,
00FF,
0000,
00FF,
00FF,
00FE,
0003,
0006,
0005,
0001,
00FD,
0002,
00FE,
0001,
00FC,
0004,
00FD,
00FF,
00FE,
00FA,
00FB,
00FF,
0002,
00FC,
0005,
00FD,
00FB,
00FD,
0001,
0006,
00FC,
00FB,
00FE,
00FF,
0004,
0002,
0001,
00FD,
0001,
0002,
0004,
0004,
0000,
00FD,
00FE,
0000,
00FA,
0004,
0002,
00FE,
00FF,
00FA,
0001,
0004,
0000,
0002,
00FB,
0003,
0001,
0004,
00FC,
0003,
0006,
00FD,
00FD,
0006,
00FF,
00FB,
00FE,
00FC,
00FC,
0005,
0005,
0000,
0001,
0004,
0001,
0001,
0002,
00FF,
0003,
0001,
0006,
00FF,
0002,
00FA,
0005,
0000,
0003,
00FF,
0000,
0001,
0000,
0004,
00FE,
0001,
0000,
00FC,
00FF,
00FC,
0000,
0005,
0006,
00FC,
00FC,
0003,
00FA,
00FB,
00FF,
0003,
0001,
00FE,
00FE,
00F9,
0004,
00FF,
0003,
0002,
00FC,
00FA,
00FE,
00FE,
00FD,
0003,
00FB,
0006,
0006,
0002,
00FC,
00FB,
00FB,
00FA,
0002,
0003,
00FB,
0001,
0005,
00FF,
0005,
0002,
0002,
00FF,
0000,
00FA,
00FE,
0000,
0003,
00FF,
0004,
00FA,
0004,
0003,
0005,
0005,
00FC,
0004,
0003,
00FC,
0005,
00FB,
00FA,
0001,
0004,
0000,
0002,
00FE,
0004,
0005,
0002,
0006,
0005,
00FE,
00F9,
0001,
0005,
00FE,
00FA,
00FC,
00FB,
00FB,
00FD,
00FF,
0002,
0002,
0003,
00F9,
00FA,
00FD,
0001,
0005,
0005,
00FD,
0003,
0003,
00FE,
00FF,
00FA,
0004,
0003,
0004,
00FA,
0004,
00FF,
00FB,
00FE,
00FB,
0000,
00FD,
0005,
0001,
00FD,
00FA,
00F9,
0003,
0005,
00FE,
00FA,
0004,
0004,
00FD,
0003,
0003,
0002,
00FE,
0000,
0004,
0000,
00FB,
00FF,
00FE,
0002,
00FA,
0005,
00FB,
00FE,
0002,
0006,
00FC,
00FD,
00FD,
00FD,
0006,
0005,
0001,
00FA,
00FA,
0003,
00FA,
00FF,
0003,
0005,
0000,
00FA,
0006,
0003,
00FE,
0006,
00FA,
0004,
00FC,
0000,
00FF,
0001,
0001,
00FD,
00FF,
00FC,
00FB,
00FA,
00FA,
00FB,
00FE,
0004,
0002,
0003,
00FC,
00FD,
00FC,
00FE,
00FD,
0000,
00FE,
00FF,
00FD,
0006,
00FC,
0002,
0002,
0001,
0001,
0003,
00FE,
0005,
00FC,
00FB,
00FA,
00FB,
00FC,
00FB,
0006,
00FA,
00FD,
0006,
0006,
0003,
0005,
0000,
0006,
00FF,
0005,
00FF,
0001,
00FB,
0006,
00FE,
0000,
00FB,
00FF,
00FD,
00FA,
0004,
00FC,
00FA,
0000,
0000,
00FF,
00FB,
0000,
00FA,
00FB,
0001,
00FB,
0004,
0003,
00FE,
00FE,
0000,
0001,
00FD,
00FB,
00FC,
0000,
0003,
0001,
0005,
00FE,
00FA,
00FB,
00FD,
00FC,
0002,
0004,
00FE,
0006,
0001,
0002,
00FE,
0004,
0000,
0001,
0001,
00FB,
0004,
0001,
0001,
0005,
00FB,
00FC,
0003,
0003,
0001,
0004,
00FE,
00FA,
0006,
00FE,
0004,
00FD,
0006,
00FC,
00FF,
0006,
00FB,
00FE,
0006,
00FB,
00FF,
0005,
0006,
00FA,
00FD,
00FF,
00FF,
00FA,
0005,
0002,
0000,
0003,
00FF,
0004,
0004,
0001,
0000,
0005,
00FC,
00FC,
0001,
00FB,
0005,
00FF,
00FE,
0003,
0004,
00FB,
0002,
00FB,
0004,
00FD,
0003,
00FB,
0005,
00FF,
0004,
0000,
00FA,
0002,
0000,
00FB,
00FF,
0003,
00FD,
0002,
0004,
0001,
00FE,
0006,
00FE,
00FF,
00FA,
00FA,
0003,
00FA,
00FF,
00FA,
00FE,
0002,
0000,
0004,
00FA,
00FC,
00FD,
0004,
0001,
0005,
0000,
00FB,
00FD,
0002,
0005,
0006,
00FC,
00FF,
00FF,
00F9,
00FC,
0003,
00FD,
00FE,
0003,
0004,
0004,
0001,
0000,
00FB,
00FD,
00FF,
00FE,
0000,
00FA,
0000,
0005,
0004,
00FD,
0000,
00FA,
00FB,
00FD,
0004,
00FD,
0005,
00FD,
00FD,
00FA,
0004,
0001,
0001,
0005,
00FB,
0005,
0001,
00FE,
00FF,
0004,
0000,
00FA,
0002,
00FA,
00FC,
0005,
00FA,
00FA,
0005,
00FD,
0003,
0005,
0004,
00FE,
00FC,
0001,
00FD,
00FE,
0003,
0002,
00FB,
0003,
0002,
0001,
0003,
00FA,
00FF,
00FB,
0003,
00FA,
00FD,
00FD,
0002,
0003,
00FE,
00FE,
0005,
0002,
00FA,
00FB,
0000,
0005,
00FD,
0003,
0002,
0006,
0005,
00FB,
0003,
0005,
00FF,
0003,
0005,
00FC,
0006,
0005,
00FD,
00FD,
00FE,
00FC,
0002,
00FA,
0000,
00FA,
00FD,
00FC,
0006,
0003,
0004,
00FF,
00FD,
00FC,
0002,
0000,
0000,
0005,
0000,
0006,
0005,
0005,
00FE,
0003,
00FC,
0004,
0005,
00FC,
00FF,
0002,
00FE,
00FF,
0003,
0003,
00FC,
00FB,
0000,
0002,
00FB,
0004,
0001,
0004,
0002,
00FB,
00FC,
0000,
00FE,
00FC,
0002,
00FA,
00FA,
00FA,
00FF,
0002,
0006,
0003,
00FC,
00FE,
0001,
0002,
00FB,
0002,
00FF,
0004,
00FF,
0002,
0003,
00FF,
0004,
00FD,
00FB,
0004,
00FA,
00FA,
00F9,
00FE,
0000,
00FE,
0002,
00FF,
0005,
00FA,
00FE,
0003,
00FE,
0001,
0004,
00FB,
0001,
00FB,
0006,
0003,
0005,
00FD,
0000,
0003,
00FD,
0006,
0001,
0000,
0001,
00FD,
00FA,
00FE,
0005,
0006,
0003,
0000,
0004,
00FA,
0004,
00FE,
00FA,
0003,
00FF,
00FA,
0004,
00FD,
0000,
0005,
0001,
0002,
00FC,
0005,
00FC,
0004,
0003,
00FA,
0003,
0005,
0000,
0003,
00FB,
0001,
00FB,
0004,
0004,
0004,
0000,
0000,
00FD,
0005,
0003,
0003,
0001,
0002,
0003,
00FD,
00F9,
0002,
00FE,
00FE,
0001,
00FB,
00FD,
0000,
00FF,
0001,
0000,
0006,
00FB,
00FB,
0004,
0003,
0001,
0001,
0004,
00FF,
00FA,
00FA,
00FC,
00FA,
0003,
00FB,
0000,
0001,
0001,
0005,
00FC,
0000,
0003,
0001,
00FC,
00FF,
0001,
0002,
00FC,
0002,
0000,
00FB,
00FD,
0002,
0004,
00FF,
00FC,
00FB,
00FF,
0004,
0002,
00FA,
00FD,
0000,
0003,
00FF,
0000,
00FE,
0000,
0003,
0004,
0004,
00FD,
0003,
0001,
0003,
0005,
0005,
0001,
0001,
0007,
00FD,
0001,
0004,
0003,
0001,
0001,
0005,
0000,
0000,
00FC,
00FB,
00FF,
0001,
0004,
0004,
0003,
0001,
00FA,
00FD,
00FB,
0003,
0002,
0007,
0003,
00FE,
0006,
00FB,
0005,
0002,
0004,
0003,
0002,
0005,
00FE,
0002,
0003,
0001,
0004,
0005,
0001,
0003,
00FD,
0002,
00FB,
0004,
00FD,
0003,
0000,
0004,
00FF,
0001,
0004,
00FE,
00FA,
00FF,
0006,
00FE,
0000,
0000,
00FC,
0005,
00FF,
0003,
0004,
00FD,
00FE,
00FB,
00FC,
0001,
00FE,
0006,
0006,
00FC,
0002,
0001,
0005,
00FE,
0005,
00FF,
0001,
0003,
0002,
0005,
00FE,
00FC,
0002,
0001,
0004,
0006,
00FD,
0002,
0002,
00FF,
0003,
0005,
00FB,
0005,
00F9,
0002,
00FE,
0006,
0006,
00FE,
00FD,
0000,
0002,
00FE,
00FB,
0005,
0002,
00FE,
00FD,
00FA,
0003,
00FD,
00FB,
0005,
00FC,
0002,
0002,
00FC,
00FD,
00FF,
0006,
0006,
00FE,
00FA,
0002,
00FA,
0003,
0005,
00FC,
0006,
00FE,
00FA,
0006,
0004,
0001,
00FE,
0002,
00FD,
00FE,
0004,
00FB,
0006,
0002,
00FA,
0002,
0002,
0002,
0000,
00FF,
00FE,
0000,
00FC,
0003,
00FD,
0005,
00FB,
00FE,
00FF,
0001,
00FB,
0001,
0004,
00FA,
00FC,
00FC,
00FF,
0005,
00FE,
00FB,
0000,
00FC,
00FF,
00FE,
0001,
00FE,
00FB,
0005,
00FB,
0002,
0005,
00FD,
00FD,
0006,
00FB,
00FE,
0001,
0006,
00FA,
00FB,
0001,
0004,
00FF,
0006,
0003,
0004,
00FC,
0005,
00FC,
0004,
00FE,
00FC,
0004,
0000,
00FD,
0004,
0003,
00FF,
0004,
0005,
0002,
0007,
00FF,
0003,
0003,
00FF,
00FF,
00FA,
00FC,
00FD,
0002,
00FF,
00FB,
00FD,
0003,
0002,
0006,
0003,
00FE,
0001,
00FA,
00FE,
0002,
00FC,
00FF,
00FE,
0004,
0004,
00FF,
00FF,
0004,
00FF,
0001,
0005,
0003,
0002,
00FC,
0002,
0004,
0005,
00FC,
0006,
0006,
0001,
0005,
00FE,
00FD,
0004,
0001,
00FE,
0001,
00FF,
00FB,
0000,
00FA,
0001,
0005,
0004,
0000,
0004,
0002,
0001,
0000,
0003,
0005,
0002,
0005,
0006,
00FF,
0003,
0002,
00FE,
0001,
00FE,
0003,
00FD,
00FB,
0006,
00FC,
0003,
0001,
00FE,
00FC,
00FB,
0004,
0000,
00FC,
0004,
0001,
0005,
00FE,
00FD,
0003,
0003,
0003,
00FC,
0000,
00FB,
0005,
00FE,
00FD,
0000,
0004,
00FA,
0000,
0001,
00FF,
00FF,
00FB,
00FC,
0004,
00FE,
0000,
0002,
0001,
00FF,
0004,
0005,
00FC,
0006,
00FD,
0006,
00FE,
00FA,
00FA,
0002,
0005,
0006,
0004,
0004,
00FE,
0002,
00FB,
00FA,
00FE,
00FB,
0002,
0006,
0003,
0001,
00FB,
00FD,
0006,
0003,
0006,
00FF,
0002,
00FB,
0001,
0005,
00FF,
00FC,
0003,
00FD,
00FE,
0005,
0004,
0000,
0004,
0000,
00FC,
0004,
0004,
00FD,
0004,
0004,
00FA,
0001,
0003,
00FF,
00FB,
00FA,
0006,
0002,
0001,
00FC,
0004,
0002,
00FE,
0001,
0000,
00FF,
0002,
00FB,
00FE,
00FD,
00FD,
00FF,
0002,
00FF,
00FD,
0004,
0002,
00FA,
0003,
0003,
0004,
0005,
0003,
0003,
00FB,
00FB,
00FC,
0003,
00FE,
00FE,
0004,
0000,
0002,
00FE,
00FC,
0000,
00FF,
0004,
0001,
0000,
0002,
0002,
00FA,
0001,
0002,
0003,
00FD,
0000,
0003,
00FF,
0000,
0004,
0003,
0004,
00FD,
00FB,
0003,
0005,
0001,
0004,
00FE,
00FD,
00FD,
00FA,
00FF,
0004,
0000,
00FE,
00FD,
0005,
00FB,
00FC,
00FC,
00FA,
0005,
0001,
00FA,
0000,
0002,
0006,
00FD,
0001,
0001,
00FA,
0005,
0001,
00FC,
00FF,
00F9,
0005,
0001,
0005,
0006,
0000,
0005,
0005,
00FE,
0003,
00FB,
0004,
0002,
0006,
0006,
00FE,
00FE,
0002,
00FA,
00FA,
0003,
00FE,
00FA,
0005,
0002,
0004,
00FB,
0004,
00FD,
00FF,
00FC,
00FB,
00FA,
00FD,
00FE,
0000,
0003,
00FE,
00FF,
0002,
0006,
0005,
00FB,
0002,
00FA,
00FA,
0003,
00FB,
0006,
0004,
00FF,
0005,
0004,
00FF,
00FB,
0006,
00FC,
0002,
00FD,
0003,
00FD,
00FC,
00FF,
0003,
00FA,
0004,
0004,
0005,
0006,
00FA,
00FA,
00FC,
0003,
0001,
00FD,
00FD,
00FD,
0001,
00FB,
0000,
0000,
00FD,
00FD,
0006,
00FB,
0004,
0005,
0004,
0005,
0005,
00FA,
00FA,
0004,
0004,
0006,
0006,
0005,
0001,
00FD,
00FE,
00FA,
0004,
00FE,
0005,
00FE,
00FC,
0004,
0003,
00FB,
0003,
00FD,
0005,
0005,
00FC,
0001,
00FF,
0006,
0003,
00FA,
0001,
00FD,
0005,
00FF,
00FB,
0001,
0004,
00FC,
00FB,
0005,
0003,
0004,
00FE,
0005,
00FD,
0003,
0002,
0005,
0006,
0001,
00FD,
0001,
0006,
00FD,
0001,
0004,
0004,
0004,
0003,
0002,
00FC,
00FE,
00FD,
0002,
0004,
0005,
0000,
0003,
00FA,
00FA,
0002,
0004,
0004,
0005,
0005,
0006,
00FB,
0004,
0004,
0001,
00FE,
00FA,
00FB,
0006,
0002,
00FE,
0000,
00FA,
0006,
00FE,
00FA,
0006,
0006,
00FE,
0003,
0006,
0003,
00FA,
0006,
0004,
0005,
0003,
0001,
0004,
00FE,
0006,
00FE,
00FF,
00FA,
00FC,
00FC,
0004,
0000,
0000,
00FE,
0002,
00FD,
0000,
0003,
0003,
0005,
0004,
0000,
0006,
00FA,
00FA,
00FB,
0004,
00FF,
0005,
0004,
0001,
0006,
00FF,
0003,
0001,
00FD,
0004,
0006,
00FB,
00FC,
00FD,
0002,
0002,
00FC,
00FF,
00FB,
00FC,
0004,
0006,
0003,
00FE,
0002,
0004,
0006,
0005,
0001,
00FC,
0000,
00FC,
00FA,
00FA,
00FA,
00FF,
0001,
00FD,
00FA,
00FE,
00FD,
00FC,
0000,
00FB,
00FA,
0002,
00FD,
0002,
0001,
00FA,
00FB,
0005,
0004,
0005,
00FA,
00FC,
0001,
00FC,
0003,
0003,
00FC,
00FD,
00FD,
00FD,
00FA,
0003,
00FE,
0005,
00FD,
00FE,
0001,
00FC,
0004,
00FC,
00FC,
00FD,
00FA,
00FF,
00FE,
0004,
0006,
0005,
0003,
00FB,
00FB,
0006,
0000,
00FE,
0004,
0005,
0000,
00FE,
0006,
00FF,
0003,
0001,
00FB,
0004,
0002,
00FD,
00FA,
00FF,
0003,
00FC,
0000,
0002,
0006,
00FF,
0001,
0006,
00FE,
0004,
00FB,
00FB,
00FA,
00FC,
0006,
00FB,
0000,
00FF,
00FB,
00FA,
0001,
0003,
00FD,
0002,
0001,
0000,
0000,
00FE,
00FC,
0000,
0005,
00FD,
00FD,
0006,
0000,
0003,
00FF,
0006,
00FC,
00FD,
00FB,
0006,
00FA,
00FE,
0001,
00FE,
0004,
00FA,
00FA,
00FE,
0003,
0004,
00FE,
0001,
00FD,
00FB,
00FC,
0000,
00FD,
00FD,
00FE,
0000,
0005,
0006,
00FB,
00FD,
0002,
0003,
00FF,
00FE,
0006,
0002,
0005,
0003,
00FA,
00FB,
0001,
00FD,
00FE,
0005,
0002,
00FC,
0005,
00FC,
0001,
0001,
00FA,
0002,
00FE,
00FE,
0005,
0005,
00FB,
00FA,
0005,
00FE,
0000,
00FB,
0005,
00FE,
0002,
00FC,
0004,
0001,
0006,
0000,
0005,
00FD,
00FE,
00FC,
0000,
00FD,
00FF,
0005,
00FE,
00FE,
0003,
0003,
0004,
0005,
00FC,
00FA,
0002,
00FD,
00F9,
0001,
0001,
0002,
0002,
00FF,
0004,
0006,
00FF,
0000,
00FE,
00FA,
00FF,
00FC,
0002,
00FD,
00FC,
0002,
0003,
0002,
0001,
0006,
00FC,
0000,
00FE,
00FD,
0000,
0005,
0001,
00FD,
00FE,
00FC,
0005,
00FC,
00FC,
00FE,
00FE,
00FC,
00FD,
0002,
00FC,
00FF,
0003,
0005,
00FC,
0003,
0004,
0005,
00FE,
00FF,
0005,
00FE,
0002,
00FD,
00FB,
0000,
00FE,
00FB,
00FD,
00FD,
00FC,
0005,
0000,
0000,
0002,
00FC,
00FD,
00FB,
00FE,
0006,
0000,
00FB,
0001,
0005,
0001,
0002,
0004,
00FC,
0003,
00FD,
0002,
0004,
0005,
0006,
0004,
0001,
0001,
0001,
0003,
0004,
0004,
00FC,
00FD,
0001,
0002,
0000,
00FD,
00FB,
0003,
00FE,
00FA,
00FF,
00FB,
0006,
0005,
00FD,
00FC,
0002,
00FA,
00FA,
0001,
00FA,
00FC,
0003,
00FE,
00FB,
00FE,
0000,
0003,
00FA,
0006,
00FC,
0000,
00FC,
0005,
00FE,
00FD,
00FB,
00FE,
00FF,
00FB,
00FB,
0007,
00FF,
0003,
0005,
0004,
0003,
0003,
0005,
0003,
0000,
00FE,
00FE,
0005,
00FD,
00FD,
00FB,
00FF,
0004,
00FF,
0005,
00FE,
0000,
00FE,
0003,
0004,
0005,
0000,
00FE,
0004,
0004,
00FB,
00FA,
00FC,
00FE,
00FB,
0003,
00FC,
00FD,
0005,
0003,
0003,
0001,
0002,
00FB,
0001,
0003,
0006,
0003,
0003,
0001,
0005,
0006,
0005,
00FD,
0002,
00FB,
0002,
0001,
0003,
0004,
0000,
0002,
00FE,
0004,
0002,
0002,
00FA,
00FB,
00FB,
0001,
0003,
00FD,
0000,
0007,
0003,
0003,
00FB,
00FC,
0001,
0001,
0005,
0002,
00FD,
00FD,
00FD,
0006,
00FB,
0004,
0001,
0001,
00FF,
00FE,
00FA,
0004,
00FF,
00FC,
0002,
0005,
0000,
0005,
00FD,
0006,
00FB,
00FD,
00FA,
0003,
00FE,
00FF,
00FA,
0000,
0005,
00FD,
00FC,
0004,
0004,
0006,
00FA,
00FB,
00FE,
00FB,
0005,
00FC,
00FE,
0001,
00FA,
0004,
00FC,
0005,
00FF,
0003,
0002,
0005,
00FF,
0005,
0006,
0006,
0000,
0005,
00FD,
0005,
0006,
00FB,
00FA,
0001,
00FC,
00FB,
0006,
00FD,
0006,
0002,
00FE,
0002,
00FA,
00FE,
00FE,
00FE,
00FB,
0005,
00FE,
0006,
00FB,
0003,
00FA,
0006,
00FF,
0006,
00FB,
00FE,
0002,
00FA,
00FF,
00FD,
0000,
0000,
00FB,
0000,
0001,
0001,
0005,
00FC,
00FB,
0006,
0000,
0003,
00FB,
0005,
00FC,
00FF,
0000,
00FC,
00FD,
00FD,
00FC,
0006,
00FE,
00FB,
00FB,
0004,
00FA,
0005,
0003,
0006,
0006,
0004,
0005,
00FE,
0000,
0002,
0003,
0001,
0006,
00FC,
0006,
00FC,
0002,
00F9,
0004,
0003,
00FF,
0004,
00FC,
00FC,
0002,
0003,
0003,
00FA,
00FE,
0004,
0005,
00FD,
00FF,
0000,
00FF,
00FE,
0003,
0000,
0000,
00FB,
0000,
00FB,
0005,
0003,
0005,
00FB,
00FD,
0001,
0003,
00FF,
0002,
0005,
00FF,
00FC,
0005,
00FF,
0005,
00FB,
00FA,
0006,
0001,
0003,
00FF,
0003,
0001,
00FD,
0005,
0002,
00FE,
0003,
0000,
00FE,
0001,
00FA,
00FD,
0002,
00FA,
0005,
0006,
00FB,
0004,
0004,
0005,
0002,
00FC,
00FD,
0004,
0000,
00FB,
0001,
0006,
00FF,
0002,
00FA,
0006,
00FB,
0003,
00FC,
00FF,
00FF,
0002,
0004,
00FF,
00FA,
00FA,
00FD,
0002,
0002,
0006,
00FE,
0002,
00FE,
0006,
0006,
0002,
0006,
0006,
0002,
00FB,
00FF,
00FC,
0000,
00FB,
0003,
00FD,
00FA,
0006,
0004,
0002,
00FA,
00FD,
00FD,
0001,
0005,
0006,
0004,
00FB,
0002,
0001,
00FD,
00FA,
00FC,
0000,
0006,
00FE,
00FE,
0006,
0000,
00FB,
0004,
0002,
0003,
0004,
00FB,
0005,
00FB,
00FF,
0002,
0000,
0005,
00FD,
0005,
00FF,
00FF,
0001,
00FC,
00FE,
00FC,
0006,
0001,
00FB,
00FA,
00FE,
00FC,
0006,
00FE,
00FE,
0001,
0001,
0002,
0006,
00FC,
0004,
0003,
0005,
0000,
00FC,
0006,
0006,
0001,
0006,
00FB,
0004,
00FB,
0001,
0003,
00FB,
0002,
00FE,
0005,
00FE,
0002,
0001,
00FA,
0006,
00FB,
0005,
00FF,
0000,
00FC,
0004,
00FD,
00FF,
0001,
00FA,
00FA,
00FE,
0005,
00FF,
0001,
0005,
00FB,
0001,
00FB,
00FE,
0003,
0003,
00FF,
0002,
0006,
00FF,
0002,
0001,
0003,
0002,
00FA,
00FC,
0002,
0000,
00FF,
0004,
0004,
00FA,
0002,
0005,
00FB,
00FC,
00FC,
0006,
0002,
0006,
0003,
00FD,
00FE,
00FB,
0003,
00FF,
00FF,
0005,
0006,
0005,
00FF,
00F9,
0005,
0001,
0003,
0005,
0001,
00FE,
00FB,
00FC,
0003,
0004,
0004,
0000,
0002,
0006,
0006,
0005,
0002,
0004,
0003,
00FD,
00FA,
00FA,
00FD,
0004,
0000,
00FB,
0003,
0004,
00FD,
00FB,
0005,
00FF,
00FE,
00FF,
00FE,
0000,
0001,
0001,
00FD,
00FF,
00FC,
00FE,
0001,
0001,
0000,
00FE,
0002,
00FC,
0001,
0005,
0000,
0005,
00FE,
00FC,
0004,
0002,
00FD,
0003,
0003,
0005,
0004,
00FE,
00FB,
0001,
00FC,
0003,
0003,
0000,
0002,
0001,
0006,
00FE,
0000,
0002,
00FE,
0005,
0003,
00FB,
00FB,
0001,
0005,
00FF,
0002,
0004,
0002,
0001,
00FD,
0006,
0002,
0002,
0003,
00FC,
0005,
00FE,
00FC,
0003,
0000,
00FF,
0005,
0005,
00FA,
0003,
00FB,
00FF,
0000,
00FB,
00FA,
0005,
0001,
00FF,
0000,
0006,
00FE,
0006,
00FB,
00FF,
00FE,
0004,
00FD,
0002,
00FC,
0003,
0005,
00FA,
0000,
00FB,
00FD,
0005,
0007,
0000,
00FC,
00FC,
00FD,
00FF,
00FD,
00FB,
00FF,
0005,
00FD,
00FC,
00FF,
0003,
00FB,
0001,
0004,
00FC,
0003,
0003,
0005,
00FC,
0000,
0004,
0001,
0005,
0005,
0005,
00FE,
0006,
0002,
00FC,
0005,
0005,
00FB,
0002,
0004,
0006,
0005,
0001,
0006,
0004,
00FE,
0002,
00FA,
00FD,
0006,
00FA,
0006,
0006,
0001,
0002,
0000,
0005,
00FD,
00FE,
0002,
0002,
0006,
00F9,
0002,
00FC,
00FB,
00FF,
00FA,
0006,
00FB,
0002,
0004,
0001,
00FB,
0004,
0006,
0006,
00FA,
0005,
00FB,
0004,
0000,
00FF,
0005,
00FD,
00FD,
00FF,
00FD,
0007,
0003,
0001,
0005,
00FD,
00FA,
00FB,
00FE,
00FC,
0003,
00FE,
0002,
0002,
0006,
0000,
00FA,
0004,
0000,
00FD,
00FB,
00FD,
0003,
0000,
0004,
00FC,
0001,
00FA,
00FB,
0002,
0003,
00FD,
00FC,
0001,
0001,
00FB,
0002,
0004,
0001,
0001,
0001,
0005,
00FC,
00FD,
0006,
00FE,
0002,
00FC,
0004,
0000,
00FF,
0001,
0005,
00FB,
00FC,
0006,
00FC,
0002,
0005,
0004,
00FB,
0004,
0003,
0006,
0001,
0006,
00FA,
00FF,
00FB,
00FB,
00FA,
0003,
0001,
0003,
00FE,
00FB,
0001,
00FD,
00FB,
0001,
00FA,
00FF,
0006,
00FB,
00FF,
0002,
0001,
0005,
00FD,
00FC,
0006,
0005,
0003,
0002,
0006,
0005,
0001,
0001,
0000,
00FC,
0005,
0003,
0005,
00FA,
0004,
00FC,
0001,
00FB,
0000,
00FF,
0004,
00FA,
00FB,
0002,
00FB,
0004,
0000,
0001,
0002,
0003,
0002,
0002,
0004,
0002,
00FD,
0003,
0006,
0001,
0004,
00FE,
00FD,
00FC,
0006,
0000,
00FA,
0005,
00FA,
0000,
0004,
0005,
00FE,
0003,
00FA,
00FD,
00F9,
00FC,
0005,
0002,
0002,
00FF,
0003,
00FE,
0002,
0001,
00FC,
0004,
00FB,
0000,
0002,
00FF,
00FE,
00FB,
0006,
00FA,
00FA,
00FD,
00FB,
0004,
00FA,
00FD,
00FF,
0004,
00FA,
00FA,
0005,
0004,
0001,
0003,
0006,
00FC,
00FA,
0000,
00FE,
0002,
0003,
00FD,
00FD,
0006,
00FF,
00FE,
0001,
0003,
00FC,
0003,
0005,
0006,
00F9,
0000,
0001,
00FC,
0000,
00FF,
00FB,
0003,
0002,
00FF,
0005,
0004,
0002,
00FE,
0002,
00FD,
00FA,
00FC,
0002,
00FD,
00FB,
0005,
00FC,
00FB,
0001,
0006,
0000,
0003,
0003,
0000,
00FC,
0006,
00FD,
0003,
00FD,
0001,
0002,
00FC,
0000,
0005,
00FF,
00FC,
0000,
00FA,
00FA,
0005,
0002,
0002,
00FE,
0004,
0004,
00FE,
0006,
0006,
00FF,
0000,
00FA,
0001,
0005,
0002,
00FE,
0006,
00FA,
0006,
0004,
0006,
0001,
0004,
0004,
0003,
00FB,
00FB,
0000,
00FB,
0005,
0001,
00FA,
00FE,
0006,
00FC,
00FE,
00FF,
0002,
0003,
00FB,
00FE,
0005,
00FF,
00FF,
00FF,
0005,
0003,
0001,
00FD,
00FC,
0002,
0002,
00FE,
00FE,
0001,
00FC,
00FE,
00FE,
0006,
0003,
0000,
00FD,
00FE,
0004,
0006,
00FD,
0001,
00FE,
0003,
00FD,
0005,
0003,
0002,
0002,
0006,
00FD,
00FF,
00FA,
0006,
0006,
00FE,
0001,
0002,
0001,
00FE,
0001,
0001,
0006,
0002,
0001,
0006,
00FD,
0005,
0000,
0002,
00FF,
00FC,
0006,
0003,
00FE,
0003,
0005,
00FF,
00FE,
0005,
00FE,
0004,
00FA,
0000,
0000,
0006,
0005,
0005,
0005,
0001,
00FE,
0004,
0001,
0002,
0001,
0001,
0004,
0002,
00FE,
0001,
0002,
00FB,
0000,
00FD,
00FC,
00FA,
00FB,
00FB,
0002,
00FC,
0000,
0005,
00FF,
00FD,
0003,
0006,
0002,
0003,
0005,
0000,
0003,
0005,
0005,
00FB,
00FB,
0001,
0001,
0003,
0004,
00FF,
0000,
0001,
00FA,
0000,
00FC,
0003,
00FC,
0002,
0005,
00FE,
00FA,
0004,
00FC,
0005,
0001,
0002,
0006,
0003,
0005,
00FE,
00FE,
0003,
0006,
0002,
0004,
0006,
0002,
0005,
0000,
0003,
00FE,
00FD,
0004,
0006,
00FF,
0004,
0003,
0006,
0002,
0000,
0006,
0003,
0004,
00FC,
00FE,
0000,
0004,
00FA,
00FA,
00FA,
0003,
0006,
00FF,
00FF,
00FE,
0002,
0001,
00FD,
0006,
00FF,
0004,
0003,
00FC,
0001,
0002,
00FC,
00FD,
0000,
00FB,
0001,
00FD,
00FE,
0002,
00FF,
00FC,
00FD,
0005,
00FB,
00FD,
00FD,
00FC,
00FF,
00FE,
0001,
00FA,
0002,
0000,
0004,
0004,
0005,
00FF,
0005,
0002,
0004,
0001,
00FB,
00FC,
0002,
00FB,
0003,
00FF,
00FC,
00FB,
0001,
0001,
0007,
0002,
0005,
00FE,
0004,
0000,
0005,
00FC,
00FE,
00FE,
0002,
00FB,
0003,
00FD,
0000,
00FF,
0004,
00FD,
0000,
0006,
00FE,
0004,
00FA,
0003,
0006,
0004,
00FF,
0002,
00FC,
0003,
00FE,
0003,
0006,
00FD,
0001,
00FF,
00FB,
00FB,
00FF,
00FE,
0004,
0000,
0007,
0000,
00FA,
00FE,
0005,
0001,
0000,
0003,
0005,
00FA,
0001,
00FA,
0003,
0003,
0001,
0007,
00FA,
0003,
0000,
00FD,
0006,
0005,
00FA,
0001,
0003,
00FD,
00FD,
0006,
00FC,
00FF,
00FD,
0000,
00FA,
00FC,
0000,
00FD,
0003,
00FF,
00FA,
0001,
00FB,
0001,
0002,
00FB,
00FD,
00FC,
0003,
0000,
0003,
0002,
00FE,
0001,
0001,
00FA,
0002,
0003,
00FA,
0000,
0007,
0000,
00FF,
0000,
00FA,
00FE,
00FE,
0005,
0004,
00FD,
00FA,
0004,
00FF,
0004,
00FE,
00FE,
0005,
0005,
0002,
0006,
00FB,
0001,
00FD,
00FC,
0002,
0002,
0001,
0005,
00FB,
0006,
0002,
00FB,
00FA,
0004,
00FA,
00FE,
0002,
00FE,
00FC,
0002,
00FD,
0003,
00FF,
00FF,
00FC,
00FF,
00FC,
00FB,
00FD,
00FF,
0004,
0003,
00FF,
0006,
0005,
00FC,
00FD,
00FC,
0005,
00FD,
0004,
00FF,
00F9,
0002,
0006,
00FF,
0001,
00FB,
00FD,
0003,
0005,
0002,
00FA,
00FF,
00FE,
0004,
0004,
0002,
00FC,
0005,
00FB,
0005,
00FC,
00FF,
00FB,
00FA,
0002,
0000,
0004,
00FB,
0004,
00FF,
0006,
00FA,
0001,
00FA,
00FB,
00FD,
0001,
0004,
00FC,
0006,
0003,
00FF,
0003,
0003,
0002,
0002,
0000,
00FD,
00FD,
0005,
00FC,
0004,
00FF,
00FE,
0005,
0001,
0004,
0001,
0006,
00FC,
0006,
0003,
00FE,
0004,
00FF,
00FB,
0005,
00FC,
0005,
00FF,
00FD,
0001,
00FC,
00FB,
0002,
0002,
0001,
0005,
0000,
0002,
00FF,
0000,
0004,
00FB,
0002,
0000,
0000,
00FA,
0005,
0001,
0001,
00FC,
00FF,
00FC,
0000,
0001,
00FF,
0006,
0003,
00FD,
0002,
0005,
0002,
0006,
0005,
00FA,
0006,
00FD,
00FF,
0001,
00FB,
00FC,
00FF,
0003,
0005,
00FC,
0001,
00FD,
0002,
0006,
0006,
0001,
00FA,
00FF,
0002,
00FB,
0006,
00FB,
00FC,
00F9,
0005,
00FD,
0001,
0006,
0006,
00FC,
00FB,
00FB,
00FE,
0002,
00FF,
0003,
0006,
0003,
00FC,
00FC,
0006,
0000,
00FF,
00FE,
00FA,
00F9,
0001,
0006,
00FF,
0000,
00FE,
00FA,
00FA,
0001,
00FD,
0003,
00FF,
0005,
00FF,
0006,
0006,
0003,
0003,
0000,
00FB,
00FE,
0002,
00FC,
00FC,
0006,
00FA,
00FB,
00FF,
00FA,
0000,
0003,
0005,
0004,
00FD,
0006,
0000,
00FC,
00FF,
00FE,
0001,
0000,
00FA,
00FF,
00FC,
0001,
00FD,
0001,
0000,
0005,
00FA,
0004,
0002,
0000,
0006,
0003,
0003,
0004,
00FB,
0007,
0000,
0005,
0003,
0006,
00FF,
00FF,
0007,
0005,
0005,
0000,
0000,
0006,
0002,
0000,
0005,
00FD,
00F9,
0002,
00FE,
0002,
00FE,
00FF,
00FC,
0006,
00FA,
00FB,
0006,
0001,
00FD,
00FB,
0002,
0006,
0006,
00FA,
0001,
00FB,
00FE,
0001,
00FB,
00FD,
00FE,
00FE,
0004,
00FF,
00FF,
0003,
00FC,
00FD,
00FC,
0006,
00FB,
0005,
0003,
0005,
0006,
0004,
0006,
0006,
0006,
00FC,
00FE,
0006,
0006,
00F9,
00FC,
0000,
00FE,
0006,
00FA,
00FF,
0006,
00FE,
0000,
00FF,
00FB,
00FA,
0006,
0006,
00FF,
0001,
0004,
00FB,
0005,
0000,
00FA,
0001,
00FC,
00FB,
00FB,
0006,
0004,
0004,
0000,
00FD,
00FD,
0001,
0004,
00FC,
0004,
0002,
00FE,
0002,
00FC,
00FD,
0000,
00FF,
0005,
0002,
0000,
0005,
00FD,
00FB,
00FA,
0002,
0006,
0001,
0002,
0000,
00FE,
0006,
00FB,
0000,
0003,
0001,
00FA,
0004,
00FA,
0003,
0002,
00FD,
0003,
00FA,
0000,
00FE,
00FF,
00FD,
0000,
0005,
0001,
00FC,
0000,
0000,
00FF,
0005,
0006,
0003,
00FB,
0002,
0006,
00FD,
0003,
0000,
0003,
0001,
0006,
00FF,
00FD,
0000,
0005,
00FC,
00FE,
00FB,
0006,
0002,
00FB,
00FB,
00FA,
00FE,
0005,
0005,
0004,
00FB,
00FC,
00FB,
0001,
0000,
0003,
00FB,
0005,
00FC,
0005,
00FB,
0006,
0001,
0000,
00FD,
0001,
0004,
0000,
0006,
00FE,
0002,
0000,
0005,
0006,
0004,
0003,
00FF,
00FC,
00FA,
00FF,
0000,
00FE,
00FA,
0001,
00FD,
0004,
0006,
00FA,
00FA,
00FB,
00FF,
00FC,
00FD,
00FC,
0001,
00FB,
00FD,
0004,
00FC,
00FE,
00FD,
0004,
00FC,
00FD,
0004,
00FB,
0001,
00FF,
00FB,
0004,
00FB,
00FA,
00FE,
00FB,
00F9,
00F9,
00FD,
0005,
0002,
00FF,
0005,
0003,
0006,
00FB,
00FB,
00FC,
00FB,
0001,
00FF,
00FF,
0006,
00FF,
0003,
0004,
00FB,
00FC,
0001,
00FE,
00FA,
0001,
00FC,
0003,
00FD,
00FE,
00F9,
0001,
00FD,
0000,
0001,
0006,
00FA,
0000,
00FD,
0000,
0003,
0005,
0001,
00FC,
00FB,
0000,
0005,
00FF,
0005,
00FA,
00FE,
00FC,
00FD,
00FE,
0006,
00FD,
0000,
0002,
0006,
00FB,
00FE,
00FE,
0006,
00FB,
00FC,
0001,
00FF,
0003,
0000,
0005,
0004,
0005,
00F9,
00FF,
00FD,
00FE,
00FD,
0004,
00FC,
0005,
0003,
0001,
00FA,
0002,
0005,
00FC,
0006,
0004,
0006,
00FA,
00FE,
0003,
00FA,
00FD,
00FD,
0001,
00FE,
0004,
0000,
00FD,
00FE,
0003,
0006,
0001,
0005,
00FF,
0002,
00FA,
00FE,
0006,
00FE,
0006,
0000,
0003,
0002,
0000,
00FD,
0002,
0002,
0004,
0004,
00FB,
00FC,
0003,
00FB,
0004,
00FC,
0002,
0004,
00FB,
00FC,
00FE,
00FC,
00FB,
0002,
00FC,
0004,
0004,
00FD,
00FC,
0002,
0006,
00FC,
00F9,
00FE,
00FB,
0000,
0000,
0002,
0005,
0000,
00FD,
00FF,
00FA,
0003,
00FD,
0001,
00FD,
0005,
0006,
00FD,
0002,
00FD,
00FB,
0002,
00FA,
0004,
00FE,
0001,
0000,
00FB,
0001,
0000,
0001,
00FE,
00FC,
0002,
0005,
0003,
00FD,
00FB,
00FD,
00FC,
0000,
0001,
0006,
00FD,
00FC,
00FA,
0002,
00FE,
0001,
0004,
00FA,
0005,
0006,
00FD,
00FD,
0001,
0004,
0003,
0005,
0000,
0000,
0000,
0004,
0002,
0001,
0006,
00FE,
00FC,
00FE,
00FA,
0001,
0003,
0005,
00FC,
0001,
0002,
0002,
0002,
00FA,
0004,
00FE,
00FE,
00FD,
00FD,
00FE,
00FC,
00FC,
0002,
00FD,
0000,
00FC,
00FC,
0004,
0000,
00FA,
0002,
0002,
00FD,
00FA,
00FD,
00FC,
0006,
0000,
0001,
00FB,
00FE,
00FA,
00FB,
0006,
00FB,
0001,
00FF,
00FB,
00FE,
00FC,
0002,
00FA,
00FE,
00FA,
0002,
0001,
00FB,
00FC,
00FF,
0001,
0003,
0002,
00FB,
0006,
00FF,
0001,
00FC,
0000,
00FA,
00FF,
00FB,
0006,
00FD,
00FB,
0003,
0001,
00FF,
0005,
0001,
00FE,
00FA,
00FE,
00FC,
0002,
00FA,
0002,
0003,
00FA,
00FA,
00FE,
00FC,
0001,
00FA,
0003,
0000,
00FB,
00FD,
00FF,
00FB,
0004,
0002,
00FD,
0003,
0006,
00FD,
0002,
0003,
0000,
00FC,
0006,
00FD,
0004,
00FA,
00FC,
00FC,
0005,
0001,
0004,
00FA,
0003,
0000,
0003,
00FB,
0001,
00FA,
0003,
0003,
0003,
0002,
0004,
0000,
00FB,
0001,
0004,
0004,
00FE,
00FF,
0002,
0004,
0006,
00FC,
00FC,
