memory_initialization_radix=16;
memory_initialization_vector=
0077,
0088,
00B8,
00EE,
003E,
FF7E,
0070,
00D7,
FF76,
001F,
002A,
0043,
00B8,
00AC,
004A,
FF76,
00EE,
00FC,
00D2,
0056,
0077,
FF7B,
00B9,
00BE,
0089,
006F,
0024,
00F0,
0053,
0089,
0022,
0033,
0081,
0025,
00B9,
00C2,
001C,
00F7,
0082,
0083,
FF7A,
0094,
0090,
0056,
0052,
0058,
003C,
00D4,
0088,
005A,
0081,
001B,
003E,
00B0,
0011,
00DD,
00B4,
00BB,
0044,
0067,
FF7E,
0051,
FF76,
008A,
0053,
00F9,
0089,
0061,
00EA,
00D4,
003B,
00E7,
005D,
0070,
004F,
0050,
0031,
00C2,
00F0,
0081,
0067,
00DD,
0083,
0062,
0098,
0041,
0084,
00BD,
0000,
0002,
00FF,
00D6,
00BF,
004D,
00C9,
0067,
00F2,
0045,
0070,
0039;